{
  "version": "1.0",
  "truncation": null,
  "padding": null,
  "added_tokens": [
    {
      "id": 0,
      "content": "<|pad|>",
      "single_word": false,
      "lstrip": false,
      "rstrip": false,
      "normalized": false,
      "special": true
    },
    {
      "id": 1,
      "content": "<|endoftext|>",
      "single_word": false,
      "lstrip": false,
      "rstrip": false,
      "normalized": false,
      "special": true
    },
    {
      "id": 2,
      "content": "<|startoftext|>",
      "single_word": false,
      "lstrip": false,
      "rstrip": false,
      "normalized": false,
      "special": true
    }
  ],
  "normalizer": null,
  "pre_tokenizer": {
    "type": "ByteLevel",
    "add_prefix_space": false,
    "trim_offsets": true,
    "use_regex": true
  },
  "post_processor": null,
  "decoder": {
    "type": "ByteLevel",
    "add_prefix_space": true,
    "trim_offsets": true,
    "use_regex": true
  },
  "model": {
    "type": "BPE",
    "dropout": null,
    "unk_token": null,
    "continuing_subword_prefix": null,
    "end_of_word_suffix": null,
    "fuse_unk": false,
    "byte_fallback": false,
    "ignore_merges": false,
    "vocab": {
      "<|pad|>": 0,
      "<|endoftext|>": 1,
      "<|startoftext|>": 2,
      "!": 3,
      "\"": 4,
      "#": 5,
      "$": 6,
      "%": 7,
      "&": 8,
      "'": 9,
      "(": 10,
      ")": 11,
      "*": 12,
      "+": 13,
      ",": 14,
      "-": 15,
      ".": 16,
      "/": 17,
      "0": 18,
      "1": 19,
      "2": 20,
      "3": 21,
      "4": 22,
      "5": 23,
      "6": 24,
      "7": 25,
      "8": 26,
      "9": 27,
      ":": 28,
      ";": 29,
      "<": 30,
      "=": 31,
      ">": 32,
      "?": 33,
      "@": 34,
      "A": 35,
      "B": 36,
      "C": 37,
      "D": 38,
      "E": 39,
      "F": 40,
      "G": 41,
      "H": 42,
      "I": 43,
      "J": 44,
      "K": 45,
      "L": 46,
      "M": 47,
      "N": 48,
      "O": 49,
      "P": 50,
      "Q": 51,
      "R": 52,
      "S": 53,
      "T": 54,
      "U": 55,
      "V": 56,
      "W": 57,
      "X": 58,
      "Y": 59,
      "Z": 60,
      "[": 61,
      "\\": 62,
      "]": 63,
      "^": 64,
      "_": 65,
      "`": 66,
      "a": 67,
      "b": 68,
      "c": 69,
      "d": 70,
      "e": 71,
      "f": 72,
      "g": 73,
      "h": 74,
      "i": 75,
      "j": 76,
      "k": 77,
      "l": 78,
      "m": 79,
      "n": 80,
      "o": 81,
      "p": 82,
      "q": 83,
      "r": 84,
      "s": 85,
      "t": 86,
      "u": 87,
      "v": 88,
      "w": 89,
      "x": 90,
      "y": 91,
      "z": 92,
      "{": 93,
      "|": 94,
      "}": 95,
      "~": 96,
      "¡": 97,
      "¢": 98,
      "£": 99,
      "¤": 100,
      "¥": 101,
      "¦": 102,
      "§": 103,
      "¨": 104,
      "©": 105,
      "ª": 106,
      "«": 107,
      "¬": 108,
      "®": 109,
      "¯": 110,
      "°": 111,
      "±": 112,
      "²": 113,
      "³": 114,
      "´": 115,
      "µ": 116,
      "¶": 117,
      "·": 118,
      "¸": 119,
      "¹": 120,
      "º": 121,
      "»": 122,
      "¼": 123,
      "½": 124,
      "¾": 125,
      "¿": 126,
      "Â": 127,
      "Ã": 128,
      "Ä": 129,
      "Å": 130,
      "Æ": 131,
      "Ç": 132,
      "È": 133,
      "É": 134,
      "Ê": 135,
      "Ì": 136,
      "Î": 137,
      "Ï": 138,
      "Ð": 139,
      "Ñ": 140,
      "Ô": 141,
      "Õ": 142,
      "Ö": 143,
      "×": 144,
      "Ø": 145,
      "Ù": 146,
      "Ú": 147,
      "Û": 148,
      "à": 149,
      "á": 150,
      "â": 151,
      "ã": 152,
      "ä": 153,
      "å": 154,
      "æ": 155,
      "ç": 156,
      "è": 157,
      "é": 158,
      "ê": 159,
      "ë": 160,
      "ì": 161,
      "í": 162,
      "ï": 163,
      "ð": 164,
      "ĉ": 165,
      "Ċ": 166,
      "Ġ": 167,
      "Ģ": 168,
      "ģ": 169,
      "Ĥ": 170,
      "ĥ": 171,
      "Ħ": 172,
      "ħ": 173,
      "Ĩ": 174,
      "ĩ": 175,
      "Ī": 176,
      "ī": 177,
      "Ĭ": 178,
      "ĭ": 179,
      "Į": 180,
      "į": 181,
      "İ": 182,
      "ı": 183,
      "Ĳ": 184,
      "ĳ": 185,
      "Ĵ": 186,
      "ĵ": 187,
      "Ķ": 188,
      "ķ": 189,
      "ĸ": 190,
      "Ĺ": 191,
      "ĺ": 192,
      "Ļ": 193,
      "ļ": 194,
      "Ľ": 195,
      "ľ": 196,
      "Ŀ": 197,
      "ŀ": 198,
      "Ł": 199,
      "ł": 200,
      "Ń": 201,
      "ĠĠ": 202,
      "ĠĠĠĠ": 203,
      "on": 204,
      "ĠĠĠ": 205,
      "ĠĠĠĠĠĠĠĠ": 206,
      "er": 207,
      "or": 208,
      "en": 209,
      "at": 210,
      "in": 211,
      "ro": 212,
      "le": 213,
      "st": 214,
      "Ġ{": 215,
      "re": 216,
      "Ġc": 217,
      "ĠĠĠĠĠ": 218,
      "Ġ}": 219,
      "al": 220,
      "ar": 221,
      "Ġ<": 222,
      "ti": 223,
      "Ġ=": 224,
      "se": 225,
      "de": 226,
      "ent": 227,
      "ĠĠĠĠĠĠĠ": 228,
      "Ġt": 229,
      "an": 230,
      "Ġf": 231,
      "ex": 232,
      "me": 233,
      "Ġ\"": 234,
      "ut": 235,
      "ort": 236,
      "mp": 237,
      "ac": 238,
      "ing": 239,
      "it": 240,
      "as": 241,
      "ge": 242,
      "ĠĠĠĠĠĠĠĠĠ": 243,
      "//": 244,
      "Ġ'": 245,
      "tion": 246,
      "he": 247,
      "Ġ(": 248,
      "ame": 249,
      "ur": 250,
      "Ġre": 251,
      "ab": 252,
      "=\"": 253,
      "Ġp": 254,
      "pe": 255,
      "Ġcon": 256,
      "ol": 257,
      "ate": 258,
      "ue": 259,
      "rom": 260,
      "un": 261,
      "is": 262,
      "ad": 263,
      "rop": 264,
      "ext": 265,
      "el": 266,
      "Ġfrom": 267,
      "em": 268,
      "ype": 269,
      "ed": 270,
      "id": 271,
      "..": 272,
      "Ġconst": 273,
      "ata": 274,
      "imp": 275,
      "={": 276,
      "Re": 277,
      "ul": 278,
      "import": 279,
      "\",": 280,
      "ĠĠĠĠĠĠĠĠĠĠĠ": 281,
      "Ġn": 282,
      "--": 283,
      "ic": 284,
      "lo": 285,
      "ig": 286,
      "il": 287,
      "Ġ</": 288,
      "Name": 289,
      "ont": 290,
      "Ġd": 291,
      "Ġs": 292,
      ");": 293,
      "ap": 294,
      "ass": 295,
      "oo": 296,
      "ct": 297,
      "rops": 298,
      "ion": 299,
      "alue": 300,
      "Ġcl": 301,
      "tur": 302,
      "turn": 303,
      "um": 304,
      "able": 305,
      "Ġst": 306,
      "Ġb": 307,
      "es": 308,
      "Ġreturn": 309,
      "In": 310,
      "St": 311,
      "age": 312,
      "Ġ=>": 313,
      "port": 314,
      "()": 315,
      "us": 316,
      "assName": 317,
      "end": 318,
      "ter": 319,
      "Ġ/": 320,
      "Ġ},": 321,
      "if": 322,
      "ring": 323,
      "Ġv": 324,
      "ction": 325,
      "ow": 326,
      "ri": 327,
      "ay": 328,
      "ĠclassName": 329,
      "up": 330,
      "export": 331,
      "co": 332,
      "con": 333,
      "',": 334,
      "ĠĠĠĠĠĠĠĠĠĠĠĠĠ": 335,
      "ation": 336,
      "ch": 337,
      "use": 338,
      "ts": 339,
      "Ġw": 340,
      "act": 341,
      "ĠT": 342,
      "Ġ*": 343,
      "op": 344,
      "di": 345,
      "Ġm": 346,
      "iz": 347,
      "Ġ/>": 348,
      "vent": 349,
      "ve": 350,
      "get": 351,
      "Se": 352,
      "ver": 353,
      "Cont": 354,
      "put": 355,
      "Ġin": 356,
      "Ġ)": 357,
      "Co": 358,
      "Ġ|": 359,
      "Ġa": 360,
      "Ġ1": 361,
      "Props": 362,
      "ine": 363,
      "Ġtype": 364,
      "Ġh": 365,
      "ack": 366,
      "li": 367,
      "ton": 368,
      "\">": 369,
      "bo": 370,
      "set": 371,
      "les": 372,
      "def": 373,
      "Ġif": 374,
      "roup": 375,
      "ook": 376,
      "enu": 377,
      "ant": 378,
      "ĠF": 379,
      "ult": 380,
      "Ġ[": 381,
      "utton": 382,
      "ide": 383,
      "unction": 384,
      "orm": 385,
      "th": 386,
      "ĠĠĠĠĠĠĠĠĠĠĠĠĠĠĠ": 387,
      "...": 388,
      "lect": 389,
      "Ġthe": 390,
      "ew": 391,
      "Ġdata": 392,
      "and": 393,
      "ror": 394,
      "----": 395,
      "////": 396,
      "div": 397,
      "ĠD": 398,
      "({": 399,
      "res": 400,
      "==": 401,
      "ption": 402,
      "Id": 403,
      "onent": 404,
      "mponent": 405,
      "Menu": 406,
      "ey": 407,
      "Ġuse": 408,
      "ore": 409,
      "ĠC": 410,
      "ment": 411,
      "Ġstring": 412,
      "Ġas": 413,
      "am": 414,
      "\";": 415,
      "abel": 416,
      "ode": 417,
      "It": 418,
      "ull": 419,
      "od": 420,
      "ize": 421,
      "00": 422,
      "ht": 423,
      "sp": 424,
      "art": 425,
      "app": 426,
      "Ġl": 427,
      "oc": 428,
      "Ġ\"@": 429,
      "ĠRe": 430,
      "Item": 431,
      "out": 432,
      "Ġtr": 433,
      "ma": 434,
      "ari": 435,
      "Ġ//": 436,
      "ĠA": 437,
      "ĠP": 438,
      "of": 439,
      "ers": 440,
      "olor": 441,
      "ith": 442,
      "Ġto": 443,
      "ault": 444,
      "et": 445,
      "der": 446,
      "Ġth": 447,
      "own": 448,
      "ist": 449,
      "Value": 450,
      "Data": 451,
      "Ġis": 452,
      "os": 453,
      "iel": 454,
      "ield": 455,
      "umb": 456,
      "LE": 457,
      "Ġvalue": 458,
      "Group": 459,
      "ot": 460,
      "Ġon": 461,
      "ck": 462,
      "Input": 463,
      "ase": 464,
      "che": 465,
      "Ġ})": 466,
      "umn": 467,
      "Icon": 468,
      "olumn": 469,
      "tr": 470,
      "';": 471,
      "</": 472,
      "?:": 473,
      "tive": 474,
      "ard": 475,
      "ath": 476,
      "props": 477,
      "type": 478,
      "event": 479,
      "item": 480,
      "og": 481,
      "bar": 482,
      "Ġ?": 483,
      "ĠS": 484,
      "ight": 485,
      "Ch": 486,
      "Button": 487,
      "uer": 488,
      "Type": 489,
      "default": 490,
      "Ġ`": 491,
      "ĠĠĠĠĠĠĠĠĠĠĠĠĠĠĠĠĠ": 492,
      "cal": 493,
      "row": 494,
      "ce": 495,
      "ace": 496,
      "ub": 497,
      "ILE": 498,
      "ooking": 499,
      "ser": 500,
      "rol": 501,
      "uery": 502,
      "(\"": 503,
      "ĠFILE": 504,
      "Ġ&": 505,
      "ile": 506,
      "ect": 507,
      "${": 508,
      "cri": 509,
      "ĠM": 510,
      "ui": 511,
      "umber": 512,
      "ir": 513,
      "to": 514,
      "ader": 515,
      "Event": 516,
      "ger": 517,
      "emo": 518,
      "Select": 519,
      "Ġg": 520,
      "Ġ0": 521,
      "data": 522,
      "To": 523,
      "lex": 524,
      "reate": 525,
      "user": 526,
      "com": 527,
      "Ġ2": 528,
      "Ġun": 529,
      "te": 530,
      "Ġde": 531,
      "Ġ===": 532,
      "Ġr": 533,
      "roun": 534,
      "ilter": 535,
      "over": 536,
      "ĠReact": 537,
      "wa": 538,
      "all": 539,
      "../": 540,
      "Tr": 541,
      "ick": 542,
      "ess": 543,
      "Ġget": 544,
      "]:": 545,
      "Content": 546,
      "form": 547,
      "amp": 548,
      "yles": 549,
      "adi": 550,
      "rim": 551,
      "box": 552,
      "react": 553,
      "}>": 554,
      "const": 555,
      "ag": 556,
      "Er": 557,
      "ule": 558,
      "function": 559,
      "Ġ:": 560,
      "antine": 561,
      "Ġnull": 562,
      "Error": 563,
      "ange": 564,
      "ail": 565,
      "./": 566,
      "key": 567,
      "ild": 568,
      "Ġset": 569,
      "Ġse": 570,
      "Ġ...": 571,
      "lot": 572,
      "down": 573,
      "rc": 574,
      "ator": 575,
      "name": 576,
      "pl": 577,
      "js": 578,
      "Ap": 579,
      "-[": 580,
      "),": 581,
      "////////": 582,
      "wait": 583,
      "--------": 584,
      "?.": 585,
      "tsx": 586,
      "Ġtrue": 587,
      "error": 588,
      "Option": 589,
      "Ġfunction": 590,
      "Ġ>": 591,
      "yn": 592,
      "ĠĠĠĠĠĠĠĠĠĠĠĠĠĠĠĠĠĠĠ": 593,
      "Field": 594,
      "Ġ&&": 595,
      "De": 596,
      "ans": 597,
      "dex": 598,
      "red": 599,
      "ink": 600,
      "He": 601,
      "ages": 602,
      "Ġname": 603,
      "ropdown": 604,
      "line": 605,
      "ender": 606,
      "atu": 607,
      ")}": 608,
      "value": 609,
      "Ġdefault": 610,
      "idebar": 611,
      "igger": 612,
      "icon": 613,
      "one": 614,
      "lement": 615,
      "((": 616,
      "cl": 617,
      "Context": 618,
      "eatu": 619,
      "cription": 620,
      "Ġthis": 621,
      "Ġawait": 622,
      "tle": 623,
      "State": 624,
      "ject": 625,
      "ory": 626,
      "ss": 627,
      "dem": 628,
      "ition": 629,
      "yle": 630,
      "ak": 631,
      "Ġ@": 632,
      "itive": 633,
      "ler": 634,
      "ariant": 635,
      "cent": 636,
      "('": 637,
      "Ġti": 638,
      "iew": 639,
      "src": 640,
      "ded": 641,
      "ial": 642,
      "Ġapp": 643,
      "text": 644,
      "ra": 645,
      "fig": 646,
      "rimitive": 647,
      "mponents": 648,
      "Ġnew": 649,
      "Key": 650,
      "ined": 651,
      "av": 652,
      "endar": 653,
      "Ġtext": 654,
      "ry": 655,
      "Ġfor": 656,
      "Ġ{...": 657,
      "order": 658,
      "urr": 659,
      "Pro": 660,
      "Com": 661,
      "lean": 662,
      "ref": 663,
      "im": 664,
      "Ġex": 665,
      "Primitive": 666,
      "Ex": 667,
      "ĠB": 668,
      "cess": 669,
      "tial": 670,
      "ign": 671,
      "ind": 672,
      "Ġ*/": 673,
      "Ref": 674,
      "ly": 675,
      "Ġ'@": 676,
      "Ġ});": 677,
      "alse": 678,
      "ime": 679,
      "aram": 680,
      "date": 681,
      "Query": 682,
      "**": 683,
      "Ġco": 684,
      "alid": 685,
      "ord": 686,
      "lient": 687,
      "heck": 688,
      "ust": 689,
      "Ġ);": 690,
      "abled": 691,
      "Ġ\"@/": 692,
      "ync": 693,
      "Ġnumber": 694,
      "oolean": 695,
      "],": 696,
      "defined": 697,
      "option": 698,
      "urrent": 699,
      "Ġlabel": 700,
      "Label": 701,
      ").": 702,
      "Ġitem": 703,
      "Text": 704,
      "cont": 705,
      "Ġid": 706,
      "Ġ!": 707,
      "ĠU": 708,
      "Row": 709,
      "round": 710,
      "ider": 711,
      "Trigger": 712,
      "Ġan": 713,
      "our": 714,
      "atch": 715,
      "gist": 716,
      "Time": 717,
      "ched": 718,
      "ty": 719,
      "Ġ'./": 720,
      "Component": 721,
      "ialog": 722,
      "20": 723,
      "ib": 724,
      "Ġuser": 725,
      "Ġ.": 726,
      "size": 727,
      "ug": 728,
      "Ġpack": 729,
      "lib": 730,
      "Card": 731,
      "Ġext": 732,
      "slot": 733,
      "next": 734,
      "que": 735,
      "mantine": 736,
      "Ġcreate": 737,
      "Ġevent": 738,
      "ĠN": 739,
      "oot": 740,
      "Table": 741,
      "Ġlo": 742,
      "En": 743,
      "ray": 744,
      "ost": 745,
      "Ġwith": 746,
      "Ġof": 747,
      "button": 748,
      "uc": 749,
      "Ġ||": 750,
      "Ġ()": 751,
      "};": 752,
      "ell": 753,
      "ground": 754,
      "ice": 755,
      "Ġch": 756,
      "ropdownMenu": 757,
      "ity": 758,
      "Root": 759,
      "center": 760,
      "sm": 761,
      "Ġundefined": 762,
      "Ġsize": 763,
      "components": 764,
      "calcom": 765,
      "With": 766,
      "Ġpackages": 767,
      "alendar": 768,
      "ient": 769,
      "Cl": 770,
      "om": 771,
      "Ġor": 772,
      "bobox": 773,
      "tip": 774,
      "eatures": 775,
      "Options": 776,
      "unt": 777,
      "Path": 778,
      "Ġsh": 779,
      "Element": 780,
      "Ġhe": 781,
      "base": 782,
      "Date": 783,
      "eb": 784,
      "ff": 785,
      "Ġkey": 786,
      "idth": 787,
      "gle": 788,
      "Ġres": 789,
      "ps": 790,
      "ends": 791,
      "osition": 792,
      "ast": 793,
      "ale": 794,
      "();": 795,
      "par": 796,
      "span": 797,
      "Ġpro": 798,
      "ĠĠĠĠĠĠĠĠĠĠĠĠĠĠĠĠĠĠĠĠĠ": 799,
      "radi": 800,
      "string": 801,
      "))": 802,
      "Ġboolean": 803,
      "ob": 804,
      "Con": 805,
      "roll": 806,
      "cn": 807,
      "px": 808,
      "Ġ)}": 809,
      "uth": 810,
      "Res": 811,
      "gistry": 812,
      "ill": 813,
      "Ġbe": 814,
      "Ġme": 815,
      "ain": 816,
      "Ġcont": 817,
      "input": 818,
      "Ġe": 819,
      "24": 820,
      "flex": 821,
      "tt": 822,
      "ache": 823,
      "ary": 824,
      "add": 825,
      "Ġle": 826,
      "isabled": 827,
      "fore": 828,
      "Header": 829,
      "croll": 830,
      "oin": 831,
      "color": 832,
      "atus": 833,
      "ren": 834,
      "Ġextends": 835,
      "arams": 836,
      "hol": 837,
      "Ġ(!": 838,
      "Ar": 839,
      "List": 840,
      "Ġ-": 841,
      "query": 842,
      "ĠDemo": 843,
      "ildren": 844,
      "Ġ};": 845,
      "Ġcolor": 846,
      "Ġand": 847,
      "ke": 848,
      "Ġal": 849,
      "ies": 850,
      "core": 851,
      "Ġtitle": 852,
      "sh": 853,
      "Ġro": 854,
      "Ġ3": 855,
      "eng": 856,
      "ĠH": 857,
      "Rout": 858,
      "')": 859,
      "ark": 860,
      "table": 861,
      "Ser": 862,
      "Dialog": 863,
      "amples": 864,
      "Ġz": 865,
      "ength": 866,
      "ite": 867,
      "styles": 868,
      "hook": 869,
      "chedule": 870,
      "Ġflex": 871,
      "Ġfalse": 872,
      "ive": 873,
      "load": 874,
      "cord": 875,
      "App": 876,
      "arch": 877,
      "ress": 878,
      "back": 879,
      "ise": 880,
      "Change": 881,
      "Ġvariant": 882,
      "acehol": 883,
      "Ġj": 884,
      "ify": 885,
      "Client": 886,
      "Ġ_": 887,
      "Ġcolumn": 888,
      "aceholder": 889,
      "ĠO": 890,
      "Ġwh": 891,
      "Combobox": 892,
      "ax": 893,
      "Loc": 894,
      "Ġac": 895,
      "Ġrender": 896,
      "oltip": 897,
      "spon": 898,
      "idd": 899,
      "Color": 900,
      "scription": 901,
      "lose": 902,
      "ken": 903,
      "50": 904,
      "Column": 905,
      "quest": 906,
      "ocus": 907,
      "(),": 908,
      "ible": 909,
      "Link": 910,
      "typeof": 911,
      "rev": 912,
      "Is": 913,
      "ris": 914,
      "email": 915,
      "[]": 916,
      "Ġitems": 917,
      "ls": 918,
      "\")": 919,
      "Ġgap": 920,
      "String": 921,
      "ample": 922,
      "Code": 923,
      "column": 924,
      "romise": 925,
      "map": 926,
      "Ġapps": 927,
      "est": 928,
      "}:": 929,
      "risma": 930,
      "):": 931,
      "Form": 932,
      "Ġ/**": 933,
      "ix": 934,
      "vider": 935,
      "ute": 936,
      "Ġcode": 937,
      "none": 938,
      "open": 939,
      "Sub": 940,
      "odule": 941,
      "Booking": 942,
      "icker": 943,
      "----------------": 944,
      "ft": 945,
      "lock": 946,
      "abs": 947,
      "DropdownMenu": 948,
      "Page": 949,
      "laceholder": 950,
      "Des": 951,
      "////////////////": 952,
      "Ġ'../": 953,
      "Op": 954,
      "registry": 955,
      "Demo": 956,
      "Filter": 957,
      "Ac": 958,
      "url": 959,
      "demo": 960,
      "lug": 961,
      "User": 962,
      "(--": 963,
      "ork": 964,
      "sponse": 965,
      "current": 966,
      "rounded": 967,
      "pro": 968,
      "Ġy": 969,
      "ComponentProps": 970,
      "Ġclient": 971,
      "valid": 972,
      "Control": 973,
      "Ġtable": 974,
      "Styles": 975,
      "eam": 976,
      "onth": 977,
      "mit": 978,
      "full": 979,
      "group": 980,
      "low": 981,
      "foreground": 982,
      "Ġany": 983,
      "face": 984,
      "options": 985,
      "andle": 986,
      "vice": 987,
      "Ġasync": 988,
      "demos": 989,
      "Ġselect": 990,
      "Index": 991,
      "Radi": 992,
      "opover": 993,
      "tils": 994,
      "chema": 995,
      "Ġerror": 996,
      "length": 997,
      "atar": 998,
      "Ġstyle": 999,
      "={{": 1000,
      "ĠW": 1001,
      "ative": 1002,
      "uto": 1003,
      "Le": 1004,
      "For": 1005,
      "Api": 1006,
      "ĠI": 1007,
      "Ġ4": 1008,
      "types": 1009,
      "Ġbooking": 1010,
      "col": 1011,
      "mail": 1012,
      "ĠĠĠĠĠĠĠĠĠĠĠĠĠĠĠĠĠĠĠĠĠĠĠ": 1013,
      "terface": 1014,
      ">(": 1015,
      "10": 1016,
      "irst": 1017,
      "Mode": 1018,
      "Ġpath": 1019,
      "ential": 1020,
      "Picker": 1021,
      "().": 1022,
      "arget": 1023,
      "Check": 1024,
      "label": 1025,
      "etch": 1026,
      "server": 1027,
      "ER": 1028,
      "Ġborder": 1029,
      "Prop": 1030,
      "api": 1031,
      "comp": 1032,
      "redential": 1033,
      "rl": 1034,
      "ading": 1035,
      "Ġhas": 1036,
      "und": 1037,
      "Def": 1038,
      "Calendar": 1039,
      "ip": 1040,
      "Description": 1041,
      "ree": 1042,
      "Email": 1043,
      "Ġ}}": 1044,
      "utils": 1045,
      "ure": 1046,
      "TM": 1047,
      "rea": 1048,
      "Provider": 1049,
      "View": 1050,
      "itle": 1051,
      "An": 1052,
      "Or": 1053,
      "Ġ${": 1054,
      "\":": 1055,
      "ee": 1056,
      "start": 1057,
      "select": 1058,
      "mut": 1059,
      "ml": 1060,
      "md": 1061,
      "per": 1062,
      "bg": 1063,
      "Ġprops": 1064,
      "min": 1065,
      "sv": 1066,
      "oggle": 1067,
      "Url": 1068,
      "ox": 1069,
      "ON": 1070,
      "ocs": 1071,
      "ll": 1072,
      "Ġpage": 1073,
      "play": 1074,
      "Ġref": 1075,
      "side": 1076,
      "ination": 1077,
      "Ġ??": 1078,
      "Ġ+": 1079,
      "Title": 1080,
      "idden": 1081,
      "Sidebar": 1082,
      "Ġmax": 1083,
      "Ġfilter": 1084,
      "Ġen": 1085,
      "Ġfont": 1086,
      "ource": 1087,
      "pt": 1088,
      "icator": 1089,
      "Click": 1090,
      "}`": 1091,
      "Config": 1092,
      "Fn": 1093,
      "By": 1094,
      "str": 1095,
      "Chart": 1096,
      "mo": 1097,
      "allback": 1098,
      "rect": 1099,
      "att": 1100,
      "Node": 1101,
      "Ġtrans": 1102,
      "read": 1103,
      "oid": 1104,
      "pos": 1105,
      "Ġpar": 1106,
      "path": 1107,
      "gment": 1108,
      "://": 1109,
      "light": 1110,
      "isplay": 1111,
      "parator": 1112,
      "14": 1113,
      "index": 1114,
      "Ġnot": 1115,
      "code": 1116,
      "booking": 1117,
      "Ġrow": 1118,
      "On": 1119,
      "ooter": 1120,
      "fo": 1121,
      "radix": 1122,
      "Ġit": 1123,
      "])": 1124,
      "})": 1125,
      "page": 1126,
      "aria": 1127,
      "Service": 1128,
      "posit": 1129,
      "lay": 1130,
      "12": 1131,
      "Un": 1132,
      "TML": 1133,
      "Ġ!==": 1134,
      "ere": 1135,
      "akra": 1136,
      "Open": 1137,
      "Features": 1138,
      "svg": 1139,
      "Ġ({": 1140,
      "lete": 1141,
      "Action": 1142,
      "sub": 1143,
      "ĠAp": 1144,
      "Schema": 1145,
      "file": 1146,
      "enc": 1147,
      "kn": 1148,
      "mpty": 1149,
      "Up": 1150,
      "heme": 1151,
      "update": 1152,
      "mand": 1153,
      "uld": 1154,
      "late": 1155,
      "}</": 1156,
      "menu": 1157,
      "Stack": 1158,
      "ĠPromise": 1159,
      "adata": 1160,
      "mb": 1161,
      "ainer": 1162,
      "Sh": 1163,
      "tom": 1164,
      "Params": 1165,
      "muted": 1166,
      "sidebar": 1167,
      "18": 1168,
      "dit": 1169,
      "rid": 1170,
      "avig": 1171,
      "ĠMantine": 1172,
      "Ġ}:": 1173,
      "border": 1174,
      "pan": 1175,
      "ĠAr": 1176,
      "raw": 1177,
      "Ġrounded": 1178,
      "ĠL": 1179,
      "Ġ\"./": 1180,
      "EN": 1181,
      "ations": 1182,
      "tif": 1183,
      "Ġcan": 1184,
      "ustom": 1185,
      "ener": 1186,
      "itial": 1187,
      "vatar": 1188,
      "Radio": 1189,
      "time": 1190,
      "Values": 1191,
      "arg": 1192,
      "sed": 1193,
      "bject": 1194,
      "known": 1195,
      ">,": 1196,
      "no": 1197,
      "examples": 1198,
      "clu": 1199,
      "ĠR": 1200,
      "list": 1201,
      "vel": 1202,
      "qui": 1203,
      "ĠG": 1204,
      ">)": 1205,
      "log": 1206,
      "Size": 1207,
      "outline": 1208,
      "EventType": 1209,
      "led": 1210,
      "ep": 1211,
      "ES": 1212,
      "ĠIn": 1213,
      "fer": 1214,
      "dicator": 1215,
      "ebhook": 1216,
      "htt": 1217,
      "pository": 1218,
      "ated": 1219,
      "Menubar": 1220,
      "2024": 1221,
      "filter": 1222,
      "ayload": 1223,
      "File": 1224,
      "16": 1225,
      "RT": 1226,
      "ĠDate": 1227,
      "eek": 1228,
      "Ġel": 1229,
      "state": 1230,
      "\");": 1231,
      "ang": 1232,
      "icons": 1233,
      "ings": 1234,
      "Ġcomponent": 1235,
      "andler": 1236,
      "new": 1237,
      "':": 1238,
      "ende": 1239,
      "Ġstart": 1240,
      "Ġinput": 1241,
      "lert": 1242,
      "arts": 1243,
      "Ġdescription": 1244,
      "Vari": 1245,
      "ual": 1246,
      "Ġdate": 1247,
      "ssage": 1248,
      "Ġbg": 1249,
      "style": 1250,
      "atic": 1251,
      "AT": 1252,
      "Ġform": 1253,
      "Ġjust": 1254,
      "hor": 1255,
      "ound": 1256,
      "Ad": 1257,
      "ules": 1258,
      "ĠĠĠĠĠĠĠĠĠĠĠĠĠĠĠĠĠĠĠĠĠĠĠĠĠ": 1259,
      "top": 1260,
      "agination": 1261,
      "has": 1262,
      "ould": 1263,
      "Ġlet": 1264,
      "ĠonClick": 1265,
      "day": 1266,
      "des": 1267,
      "var": 1268,
      "ĠTable": 1269,
      "(()": 1270,
      ">;": 1271,
      "eature": 1272,
      "Ġwe": 1273,
      "actory": 1274,
      "15": 1275,
      "Tooltip": 1276,
      "create": 1277,
      "ants": 1278,
      "Ġgroup": 1279,
      "isible": 1280,
      "Ġ{}": 1281,
      "ance": 1282,
      "erty": 1283,
      "Ġchildren": 1284,
      "number": 1285,
      "so": 1286,
      "avigation": 1287,
      "content": 1288,
      "trans": 1289,
      "Ġthat": 1290,
      "docs": 1291,
      "Ġ}),": 1292,
      "ody": 1293,
      "ContextMenu": 1294,
      "rawer": 1295,
      "Ġquery": 1296,
      "header": 1297,
      "Ġ[&": 1298,
      "gress": 1299,
      "Ġurl": 1300,
      "false": 1301,
      "Ġmin": 1302,
      "node": 1303,
      "io": 1304,
      "erson": 1305,
      "tern": 1306,
      ")\",": 1307,
      "Ġdisabled": 1308,
      "Ġoptions": 1309,
      "RL": 1310,
      "lic": 1311,
      "ĠSe": 1312,
      "/@": 1313,
      "lap": 1314,
      "check": 1315,
      "features": 1316,
      "];": 1317,
      "ĠuseState": 1318,
      "Ġthrow": 1319,
      "InputGroup": 1320,
      "poin": 1321,
      "xl": 1322,
      "Ġstate": 1323,
      "for": 1324,
      "Th": 1325,
      "ating": 1326,
      "Ġvoid": 1327,
      "Response": 1328,
      "Out": 1329,
      "Ġtime": 1330,
      "`,": 1331,
      "ĠTData": 1332,
      "Ġplaceholder": 1333,
      "ument": 1334,
      "Ġelse": 1335,
      "with": 1336,
      "/**": 1337,
      "Repository": 1338,
      "ush": 1339,
      "auth": 1340,
      "React": 1341,
      "only": 1342,
      "int": 1343,
      "Scroll": 1344,
      "ner": 1345,
      "xs": 1346,
      "ortal": 1347,
      "Start": 1348,
      "field": 1349,
      "Result": 1350,
      "13": 1351,
      "06": 1352,
      "25": 1353,
      "Ġ],": 1354,
      "Ġ14": 1355,
      "Ġaria": 1356,
      "Ġjustify": 1357,
      "Router": 1358,
      "gan": 1359,
      "utes": 1360,
      "Next": 1361,
      "aders": 1362,
      "====": 1363,
      "auto": 1364,
      "right": 1365,
      "adding": 1366,
      "Indicator": 1367,
      "hidden": 1368,
      "<\"": 1369,
      "Cell": 1370,
      "rame": 1371,
      "ĠApp": 1372,
      "ganiz": 1373,
      "Ġwidth": 1374,
      "Ġhandle": 1375,
      "pc": 1376,
      "client": 1377,
      "ĠButton": 1378,
      "Ġcurrent": 1379,
      "Command": 1380,
      "Ġfile": 1381,
      "Ġlog": 1382,
      "ipe": 1383,
      "rap": 1384,
      "igh": 1385,
      "wit": 1386,
      "Day": 1387,
      "not": 1388,
      "Ġ\"../": 1389,
      "ask": 1390,
      "ĠError": 1391,
      "true": 1392,
      "Ġemail": 1393,
      "Ġfocus": 1394,
      "Man": 1395,
      "Line": 1396,
      "ĠCh": 1397,
      "json": 1398,
      "100": 1399,
      "ved": 1400,
      "ĠArray": 1401,
      "Count": 1402,
      "YY": 1403,
      "Ġheader": 1404,
      "Width": 1405,
      "cr": 1406,
      "Ġinterface": 1407,
      "Auth": 1408,
      "Ġday": 1409,
      "title": 1410,
      "Ġi": 1411,
      "uration": 1412,
      "fter": 1413,
      "ST": 1414,
      "Array": 1415,
      "mod": 1416,
      "From": 1417,
      "adge": 1418,
      "Base": 1419,
      "va": 1420,
      "99": 1421,
      "object": 1422,
      "Store": 1423,
      "ayout": 1424,
      "lider": 1425,
      "Ġteam": 1426,
      "Ġtypeof": 1427,
      "uct": 1428,
      "ĠMantineDemo": 1429,
      "rib": 1430,
      "ses": 1431,
      "Di": 1432,
      "iles": 1433,
      "Lo": 1434,
      "Ġunknown": 1435,
      "lection": 1436,
      "Empty": 1437,
      "={()": 1438,
      "cordion": 1439,
      "Ġconfig": 1440,
      "medi": 1441,
      "cre": 1442,
      "cur": 1443,
      "ucide": 1444,
      "config": 1445,
      "Box": 1446,
      "igin": 1447,
      "loc": 1448,
      "Close": 1449,
      "Ġ15": 1450,
      "JS": 1451,
      "Ġus": 1452,
      "emb": 1453,
      "try": 1454,
      "rag": 1455,
      "Of": 1456,
      "Cache": 1457,
      "Separator": 1458,
      "All": 1459,
      "IN": 1460,
      "04": 1461,
      "-.": 1462,
      "Slot": 1463,
      "Ġcase": 1464,
      "['": 1465,
      "block": 1466,
      "disabled": 1467,
      "ens": 1468,
      "cel": 1469,
      "Ġend": 1470,
      "ĠeventType": 1471,
      "Token": 1472,
      "cle": 1473,
      "Ġ6": 1474,
      "https": 1475,
      "Selected": 1476,
      "ayment": 1477,
      "Portal": 1478,
      "ifi": 1479,
      "ence": 1480,
      "ĠSidebar": 1481,
      "Route": 1482,
      "ĠV": 1483,
      "Ġ`${": 1484,
      "left": 1485,
      "ĠTh": 1486,
      "ags": 1487,
      "ave": 1488,
      "rem": 1489,
      "RE": 1490,
      "Ġ5": 1491,
      "Ġcontent": 1492,
      "Ġread": 1493,
      "atform": 1494,
      "witch": 1495,
      "oth": 1496,
      "Ġinst": 1497,
      "Ġcheck": 1498,
      "Ġop": 1499,
      "Request": 1500,
      "view": 1501,
      "push": 1502,
      "pect": 1503,
      "ateg": 1504,
      "Ġ'../../": 1505,
      "ility": 1506,
      "Module": 1507,
      "ormal": 1508,
      "crumb": 1509,
      "Met": 1510,
      "Area": 1511,
      "obile": 1512,
      "readcrumb": 1513,
      "word": 1514,
      "find": 1515,
      "Ġprop": 1516,
      "Ġhref": 1517,
      "ĠField": 1518,
      "Edit": 1519,
      "Trans": 1520,
      "ca": 1521,
      "Off": 1522,
      "Ġalign": 1523,
      "Arrow": 1524,
      "tml": 1525,
      "Search": 1526,
      "Ġroot": 1527,
      "\"]": 1528,
      "ars": 1529,
      "Dir": 1530,
      "children": 1531,
      "Locale": 1532,
      "ositions": 1533,
      "ach": 1534,
      "ĠDropdownMenu": 1535,
      "Ġover": 1536,
      "={(": 1537,
      "variant": 1538,
      "PC": 1539,
      "ĠDe": 1540,
      "Exp": 1541,
      "lob": 1542,
      "acity": 1543,
      "Ġindex": 1544,
      "calendar": 1545,
      "from": 1546,
      "11": 1547,
      "Ġexamples": 1548,
      "iss": 1549,
      "Ġstatus": 1550,
      "']": 1551,
      "////////////////////////////////": 1552,
      "cript": 1553,
      "Default": 1554,
      "RPC": 1555,
      "cond": 1556,
      "mage": 1557,
      "prisma": 1558,
      "Toggle": 1559,
      "compositions": 1560,
      "Child": 1561,
      "Popover": 1562,
      "bl": 1563,
      "ending": 1564,
      "ĠCard": 1565,
      "Att": 1566,
      "Ġupdate": 1567,
      "ĠNext": 1568,
      "02": 1569,
      "old": 1570,
      "Example": 1571,
      "assNames": 1572,
      "Ġnext": 1573,
      "(`": 1574,
      "ols": 1575,
      "Checkbox": 1576,
      "lg": 1577,
      "chart": 1578,
      "Property": 1579,
      "rouse": 1580,
      "rousel": 1581,
      "08": 1582,
      "Ġall": 1583,
      ">{": 1584,
      "ron": 1585,
      "Ġheight": 1586,
      "ientation": 1587,
      "Ġare": 1588,
      "Object": 1589,
      "bases": 1590,
      "Ġ8": 1591,
      "Ġsub": 1592,
      "Ġby": 1593,
      "odal": 1594,
      "Ġshould": 1595,
      "test": 1596,
      "ia": 1597,
      "vate": 1598,
      "Placeholder": 1599,
      "sible": 1600,
      "Avatar": 1601,
      "Ġclass": 1602,
      "Down": 1603,
      "Ġresult": 1604,
      "sole": 1605,
      "uccess": 1606,
      "lative": 1607,
      "ĠTo": 1608,
      "\")}": 1609,
      "--------------------------------": 1610,
      "card": 1611,
      "ok": 1612,
      "Ġne": 1613,
      "endee": 1614,
      "Ġser": 1615,
      "Feature": 1616,
      "ced": 1617,
      "Ġwhen": 1618,
      "Ġshow": 1619,
      "Status": 1620,
      "be": 1621,
      "Style": 1622,
      "asses": 1623,
      "stack": 1624,
      "RO": 1625,
      "font": 1626,
      "cope": 1627,
      "End": 1628,
      "uctive": 1629,
      "indow": 1630,
      "vail": 1631,
      "count": 1632,
      "Footer": 1633,
      "At": 1634,
      "uter": 1635,
      "ideo": 1636,
      "ocument": 1637,
      "leton": 1638,
      "hooks": 1639,
      "Handler": 1640,
      "amic": 1641,
      "ou": 1642,
      "izont": 1643,
      "ynamic": 1644,
      "structive": 1645,
      "ĠMRT": 1646,
      "tical": 1647,
      "ear": 1648,
      "ake": 1649,
      "Position": 1650,
      "cipe": 1651,
      "([": 1652,
      "tx": 1653,
      "ich": 1654,
      "izontal": 1655,
      "rapp": 1656,
      "main": 1657,
      "ho": 1658,
      "Right": 1659,
      "Ø§": 1660,
      "Ġ\"#": 1661,
      "Factory": 1662,
      "heet": 1663,
      "ĠUse": 1664,
      "Comp": 1665,
      "ĠThis": 1666,
      "Render": 1667,
      "emp": 1668,
      "Tabs": 1669,
      "val": 1670,
      "assword": 1671,
      "olve": 1672,
      "Ġno": 1673,
      "rivate": 1674,
      "link": 1675,
      "Ġimport": 1676,
      "eventType": 1677,
      "ĠThe": 1678,
      "Names": 1679,
      "Model": 1680,
      "keleton": 1681,
      "ðŁ": 1682,
      "action": 1683,
      "rapper": 1684,
      "Section": 1685,
      "Ġ),": 1686,
      "ffect": 1687,
      "ternal": 1688,
      "HTML": 1689,
      "dev": 1690,
      "status": 1691,
      "pre": 1692,
      "angu": 1693,
      "anel": 1694,
      "17": 1695,
      "32": 1696,
      "ĠĠĠĠĠĠĠĠĠĠĠĠĠĠĠĠĠĠĠĠĠĠĠĠĠĠĠ": 1697,
      "Ġatt": 1698,
      "Ġ}}>": 1699,
      "enter": 1700,
      "Ġfield": 1701,
      "Number": 1702,
      "rection": 1703,
      "No": 1704,
      "uild": 1705,
      "Ġinitial": 1706,
      "As": 1707,
      "ious": 1708,
      "cludes": 1709,
      "sor": 1710,
      "qu": 1711,
      "example": 1712,
      "Body": 1713,
      "board": 1714,
      "destructive": 1715,
      "Ġat": 1716,
      "let": 1717,
      "Container": 1718,
      "36": 1719,
      "env": 1720,
      "Add": 1721,
      "Can": 1722,
      "revious": 1723,
      "()}": 1724,
      "rimary": 1725,
      "Ġcn": 1726,
      "olid": 1727,
      "Ġdisplay": 1728,
      "lertDialog": 1729,
      "Over": 1730,
      "af": 1731,
      "Ġrequi": 1732,
      "Ġdark": 1733,
      "Server": 1734,
      "charts": 1735,
      "Events": 1736,
      "ĠSelect": 1737,
      "Ġfill": 1738,
      "Ġpx": 1739,
      "Team": 1740,
      "lapsible": 1741,
      "tl": 1742,
      "DE": 1743,
      "adow": 1744,
      "`;": 1745,
      "anguage": 1746,
      "ME": 1747,
      "events": 1748,
      "000": 1749,
      "Map": 1750,
      "cell": 1751,
      "team": 1752,
      "Ġmessage": 1753,
      "are": 1754,
      "ĠuserId": 1755,
      "__": 1756,
      "Ġopen": 1757,
      "95": 1758,
      "tadata": 1759,
      "invalid": 1760,
      "Ġicon": 1761,
      "Theme": 1762,
      "ĠCombobox": 1763,
      "Ġ[]": 1764,
      "Ġ10": 1765,
      "Ġ[&_": 1766,
      "close": 1767,
      "Ġpadding": 1768,
      "Ġhtml": 1769,
      "75": 1770,
      "active": 1771,
      "Ġtab": 1772,
      "ash": 1773,
      "TData": 1774,
      "store": 1775,
      "unk": 1776,
      "Ġcache": 1777,
      "30": 1778,
      "utation": 1779,
      "ables": 1780,
      "arousel": 1781,
      "dy": 1782,
      "RowModel": 1783,
      "Ġnode": 1784,
      "Ġ16": 1785,
      "thod": 1786,
      "Col": 1787,
      "Offset": 1788,
      "ĠDialog": 1789,
      "'t": 1790,
      "max": 1791,
      "medium": 1792,
      "roke": 1793,
      "ersion": 1794,
      "inline": 1795,
      "lobal": 1796,
      "bot": 1797,
      "22": 1798,
      "ular": 1799,
      "trpc": 1800,
      "ream": 1801,
      "chakra": 1802,
      "Ġ18": 1803,
      "ĠPro": 1804,
      "ooker": 1805,
      "nect": 1806,
      "body": 1807,
      "tools": 1808,
      "aker": 1809,
      "its": 1810,
      "ized": 1811,
      "lear": 1812,
      "edit": 1813,
      "control": 1814,
      "web": 1815,
      "Ġconsole": 1816,
      "Hel": 1817,
      "ĠQuery": 1818,
      "context": 1819,
      "ĠCheck": 1820,
      "ries": 1821,
      "Submit": 1822,
      "40": 1823,
      "pec": 1824,
      "Ġcontext": 1825,
      "\"),": 1826,
      "Ġfirst": 1827,
      "Ġso": 1828,
      "pointer": 1829,
      "sphor": 1830,
      "Ġloc": 1831,
      "hosphor": 1832,
      "root": 1833,
      "styled": 1834,
      "]/": 1835,
      "à¤": 1836,
      "[\"": 1837,
      "Ġmonth": 1838,
      "Image": 1839,
      "Info": 1840,
      "ĠHTML": 1841,
      "Location": 1842,
      "visible": 1843,
      "Ġrequest": 1844,
      "SidebarMenu": 1845,
      "bottom": 1846,
      "Tree": 1847,
      "modules": 1848,
      "acing": 1849,
      "flow": 1850,
      "Schedule": 1851,
      "ier": 1852,
      "err": 1853,
      "class": 1854,
      "css": 1855,
      "ĠonChange": 1856,
      "Credential": 1857,
      "ĠInput": 1858,
      "Ġprocess": 1859,
      "Panel": 1860,
      "ories": 1861,
      "yst": 1862,
      "FieldLabel": 1863,
      "98": 1864,
      "Ġsm": 1865,
      "this": 1866,
      "ighlight": 1867,
      "Ġstyles": 1868,
      "review": 1869,
      "Format": 1870,
      "Ġ7": 1871,
      "Ġctx": 1872,
      "Mess": 1873,
      "ĠSt": 1874,
      "ystem": 1875,
      "ning": 1876,
      "Ġresponse": 1877,
      "lots": 1878,
      "Ġbase": 1879,
      "Effect": 1880,
      "Ġrem": 1881,
      "Ġcell": 1882,
      "Ġtransition": 1883,
      "Ġcomp": 1884,
      "format": 1885,
      "Month": 1886,
      "isable": 1887,
      "interface": 1888,
      "Sort": 1889,
      "Valid": 1890,
      "pend": 1891,
      "Ġar": 1892,
      "\">)": 1893,
      "null": 1894,
      "ta": 1895,
      "place": 1896,
      "Ġsearch": 1897,
      "Range": 1898,
      "Ġback": 1899,
      "Inst": 1900,
      "Ġwill": 1901,
      "olved": 1902,
      "rite": 1903,
      "Mo": 1904,
      "Par": 1905,
      "RadioGroup": 1906,
      "accent": 1907,
      "vron": 1908,
      "Ġposition": 1909,
      "image": 1910,
      "Ġtheme": 1911,
      "Ġ))}": 1912,
      "Output": 1913,
      "entif": 1914,
      "Ġdo": 1915,
      "area": 1916,
      "ĠRecord": 1917,
      "resh": 1918,
      "Segment": 1919,
      "Ġvalid": 1920,
      "ared": 1921,
      "Ġwhere": 1922,
      "cessor": 1923,
      "28": 1924,
      "ĠIf": 1925,
      "uge": 1926,
      "DropdownMenuItem": 1927,
      "Ġparams": 1928,
      "ms": 1929,
      "EX": 1930,
      "Ġslug": 1931,
      "Ġvalues": 1932,
      "Rows": 1933,
      "Message": 1934,
      "'s": 1935,
      "Layout": 1936,
      "uid": 1937,
      "ganization": 1938,
      "AP": 1939,
      "panded": 1940,
      "Slider": 1941,
      "nova": 1942,
      "Ġlink": 1943,
      "work": 1944,
      "space": 1945,
      "off": 1946,
      "ircle": 1947,
      "33": 1948,
      "URL": 1949,
      "reak": 1950,
      "ugeicons": 1951,
      "Ġexport": 1952,
      "Items": 1953,
      "Target": 1954,
      "Dropdown": 1955,
      "anstack": 1956,
      "ĠText": 1957,
      "26": 1958,
      "scri": 1959,
      "ttings": 1960,
      "Variants": 1961,
      "Ġtry": 1962,
      "optional": 1963,
      "19": 1964,
      "Ġdayjs": 1965,
      "Imp": 1966,
      "Set": 1967,
      "Ġmd": 1968,
      "Ġpy": 1969,
      "Ġprisma": 1970,
      "Ġ20": 1971,
      "Ġcontrol": 1972,
      "Ġyour": 1973,
      "hevron": 1974,
      "Log": 1975,
      "primary": 1976,
      "scroll": 1977,
      "And": 1978,
      "Ġadd": 1979,
      "NA": 1980,
      "ails": 1981,
      "osts": 1982,
      "IconPlaceholder": 1983,
      "ION": 1984,
      "Ġ<>": 1985,
      "Ġsource": 1986,
      "Active": 1987,
      "ĠBooking": 1988,
      "Ġelement": 1989,
      "OT": 1990,
      "Optional": 1991,
      "Ġ[\"": 1992,
      "Ġselected": 1993,
      "width": 1994,
      "Ġfetch": 1995,
      "Pin": 1996,
      "olute": 1997,
      "lide": 1998,
      "theme": 1999,
      "\\`": 2000,
      "gr": 2001,
      "ENT": 2002,
      "Ġmake": 2003,
      "Ġsort": 2004,
      "selected": 2005,
      "ww": 2006,
      "refix": 2007,
      "join": 2008,
      "34": 2009,
      "entry": 2010,
      "entifier": 2011,
      "includes": 2012,
      "Ġprivate": 2013,
      "ĠasChild": 2014,
      "Ġafter": 2015,
      "ally": 2016,
      "ĠdefaultValue": 2017,
      "Ġx": 2018,
      "tific": 2019,
      "ÙĦ": 2020,
      "erence": 2021,
      "render": 2022,
      "Ġorientation": 2023,
      "US": 2024,
      "target": 2025,
      "ClassNames": 2026,
      "tanstack": 2027,
      "move": 2028,
      "Bar": 2029,
      "Ġhover": 2030,
      "last": 2031,
      "alog": 2032,
      "Ġ</>": 2033,
      "Uid": 2034,
      "description": 2035,
      "Badge": 2036,
      "iddle": 2037,
      "irect": 2038,
      "ĠTr": 2039,
      "ĠTError": 2040,
      "grid": 2041,
      "ixicon": 2042,
      "Ġstroke": 2043,
      "OO": 2044,
      "focus": 2045,
      "Ġreadonly": 2046,
      "Helper": 2047,
      "Week": 2048,
      "lit": 2049,
      "Ġhtt": 2050,
      "loating": 2051,
      "Ġpl": 2052,
      "SS": 2053,
      "Ġ9": 2054,
      "pendenc": 2055,
      "sl": 2056,
      "Ġsrc": 2057,
      "untime": 2058,
      "first": 2059,
      "args": 2060,
      "we": 2061,
      "ater": 2062,
      "inset": 2063,
      "Ġpre": 2064,
      "48": 2065,
      "uff": 2066,
      "Keys": 2067,
      "dialog": 2068,
      "colors": 2069,
      "Ġ×": 2070,
      "Ġcom": 2071,
      "ĠGet": 2072,
      "JSON": 2073,
      "Ġyou": 2074,
      "ributes": 2075,
      "Update": 2076,
      "05": 2077,
      "Ġtarget": 2078,
      "Sp": 2079,
      "fir": 2080,
      "direct": 2081,
      "sk": 2082,
      "Ġlast": 2083,
      "ĠrenderDemo": 2084,
      "horizontal": 2085,
      "iginal": 2086,
      "Metadata": 2087,
      "platform": 2088,
      "pack": 2089,
      "09": 2090,
      "Left": 2091,
      "Modal": 2092,
      "ert": 2093,
      "izes": 2094,
      "Pl": 2095,
      "york": 2096,
      "Ġper": 2097,
      "ĠURL": 2098,
      "].": 2099,
      "ped": 2100,
      "ĠChart": 2101,
      "37": 2102,
      "ward": 2103,
      "ĠCalendar": 2104,
      "Accordion": 2105,
      "olver": 2106,
      "zone": 2107,
      "Ġformat": 2108,
      "token": 2109,
      "Det": 2110,
      "avigationMenu": 2111,
      "tte": 2112,
      "ties": 2113,
      "async": 2114,
      "Ġcatch": 2115,
      "ĠCreate": 2116,
      "Settings": 2117,
      "trigger": 2118,
      "irt": 2119,
      "inex": 2120,
      "LI": 2121,
      "mant": 2122,
      "mantinex": 2123,
      "ie": 2124,
      "38": 2125,
      "ions": 2126,
      "Ġup": 2127,
      "Recipe": 2128,
      "Callback": 2129,
      "hover": 2130,
      "module": 2131,
      "Ġtransform": 2132,
      "Me": 2133,
      "Ġout": 2134,
      "ifest": 2135,
      "Entry": 2136,
      "Ri": 2137,
      "Ġcal": 2138,
      "Ġcalendar": 2139,
      "Ġfaker": 2140,
      "ĠUn": 2141,
      "absolute": 2142,
      "relative": 2143,
      "TO": 2144,
      "Components": 2145,
      "alette": 2146,
      "Create": 2147,
      "Pagination": 2148,
      "35": 2149,
      "fin": 2150,
      "items": 2151,
      "host": 2152,
      "opacity": 2153,
      "Ġ12": 2154,
      "lch": 2155,
      "Ġonly": 2156,
      "Js": 2157,
      "cache": 2158,
      "oklch": 2159,
      "Per": 2160,
      "irtual": 2161,
      "toggle": 2162,
      "});": 2163,
      "Ġhugeicons": 2164,
      "Ġlucide": 2165,
      "Ġtabler": 2166,
      "Ġphosphor": 2167,
      "Ġremixicon": 2168,
      "Lim": 2169,
      "Ġ17": 2170,
      "ĠAc": 2171,
      "Zone": 2172,
      "hed": 2173,
      "mon": 2174,
      "DatePicker": 2175,
      "Slug": 2176,
      "ults": 2177,
      "message": 2178,
      "Ġ'â": 2179,
      "ĠTQuery": 2180,
      "Ġ\"--": 2181,
      "Ġ__": 2182,
      "miss": 2183,
      "Hover": 2184,
      "Ġcustom": 2185,
      "Chakra": 2186,
      "Block": 2187,
      "Ġcol": 2188,
      "]}": 2189,
      "curring": 2190,
      "ason": 2191,
      "========": 2192,
      "handle": 2193,
      "TFeatures": 2194,
      "64": 2195,
      "')}": 2196,
      "Ġview": 2197,
      "Variables": 2198,
      "cut": 2199,
      "Ġexpect": 2200,
      "ph": 2201,
      "Ġscroll": 2202,
      "Level": 2203,
      "ade": 2204,
      "duct": 2205,
      "can": 2206,
      "Editor": 2207,
      "Ġli": 2208,
      "ĠObject": 2209,
      "Dev": 2210,
      "enerate": 2211,
      "Ġ'--": 2212,
      "Ver": 2213,
      "Ġdir": 2214,
      "Ġused": 2215,
      "ability": 2216,
      ">>": 2217,
      "Ġexist": 2218,
      "Ġ\"#\",": 2219,
      "Payload": 2220,
      "Variant": 2221,
      "Ġcredential": 2222,
      "ublic": 2223,
      "ne": 2224,
      "condary": 2225,
      "');": 2226,
      "rtl": 2227,
      "dir": 2228,
      "org": 2229,
      "Ġmode": 2230,
      "Columns": 2231,
      "39": 2232,
      "Ġserver": 2233,
      "01": 2234,
      "any": 2235,
      "ome": 2236,
      "ĠRow": 2237,
      "ĠPrisma": 2238,
      "firm": 2239,
      "ŃĲ": 2240,
      "vertical": 2241,
      "radius": 2242,
      "Ob": 2243,
      "pth": 2244,
      "Ġ'âŃĲ": 2245,
      "\">{": 2246,
      "Ġ})}": 2247,
      "wh": 2248,
      "pr": 2249,
      "Ġroute": 2250,
      "Breadcrumb": 2251,
      "First": 2252,
      "27": 2253,
      "Ġmt": 2254,
      "Circle": 2255,
      "bug": 2256,
      "replace": 2257,
      "Ġwork": 2258,
      "Focus": 2259,
      "ression": 2260,
      "Ġoutline": 2261,
      "slug": 2262,
      "Head": 2263,
      "udit": 2264,
      "Ġwindow": 2265,
      "200": 2266,
      "Grid": 2267,
      "vailable": 2268,
      "Ġmod": 2269,
      "Ġtoken": 2270,
      "Drawer": 2271,
      "leg": 2272,
      "Progress": 2273,
      "oogle": 2274,
      "ĠAP": 2275,
      "ĠPerson": 2276,
      "imate": 2277,
      "opy": 2278,
      "Drag": 2279,
      "ursor": 2280,
      "Step": 2281,
      "ĠhtmlFor": 2282,
      "Memb": 2283,
      "eting": 2284,
      "EXT": 2285,
      "Show": 2286,
      "Ġsegment": 2287,
      "ortcut": 2288,
      "Sync": 2289,
      "Ġaction": 2290,
      "Ġside": 2291,
      "\"],": 2292,
      "slide": 2293,
      "[];": 2294,
      "avatar": 2295,
      "tic": 2296,
      "Ġmodule": 2297,
      "AD": 2298,
      "ĠPar": 2299,
      "hell": 2300,
      "rink": 2301,
      "ultip": 2302,
      "Al": 2303,
      "ED": 2304,
      "Ids": 2305,
      "ĠTRPC": 2306,
      "po": 2307,
      "dition": 2308,
      "Ġright": 2309,
      "xis": 2310,
      "process": 2311,
      "Ġ19": 2312,
      "Ġactive": 2313,
      "Overlay": 2314,
      "ĠIcon": 2315,
      "Ġrequired": 2316,
      "Be": 2317,
      "Webhook": 2318,
      "ĠPopover": 2319,
      "sing": 2320,
      "schedule": 2321,
      "55": 2322,
      "bd": 2323,
      "display": 2324,
      "Ġpayload": 2325,
      "popover": 2326,
      "ware": 2327,
      "iled": 2328,
      "Ġ24": 2329,
      "Ġdef": 2330,
      "())": 2331,
      "bookings": 2332,
      "range": 2333,
      "cedure": 2334,
      "ĠĠĠĠĠĠĠĠĠĠĠĠĠĠĠĠĠĠĠĠĠĠĠĠĠĠĠĠĠ": 2335,
      "ansp": 2336,
      "upport": 2337,
      "jsx": 2338,
      "qual": 2339,
      "Ġmetadata": 2340,
      "search": 2341,
      "Ġoverflow": 2342,
      "anspar": 2343,
      "AR": 2344,
      "ithub": 2345,
      "StylesNames": 2346,
      "izer": 2347,
      "Ġvari": 2348,
      "Ġparse": 2349,
      "Source": 2350,
      "Param": 2351,
      "×ķ": 2352,
      "]);": 2353,
      "ultiple": 2354,
      "Ġcenter": 2355,
      "ĠuseM": 2356,
      "emplate": 2357,
      "lint": 2358,
      "78": 2359,
      "Ġ40": 2360,
      "blue": 2361,
      "ansparent": 2362,
      "checked": 2363,
      "rand": 2364,
      "route": 2365,
      "STAT": 2366,
      "MM": 2367,
      "Ġneed": 2368,
      "29": 2369,
      "asic": 2370,
      "cor": 2371,
      "orage": 2372,
      "refetch": 2373,
      "transform": 2374,
      "dropdown": 2375,
      "NAME": 2376,
      "Ġbutton": 2377,
      "tegr": 2378,
      "Wrapper": 2379,
      "ignal": 2380,
      "ReactNode": 2381,
      "erties": 2382,
      "gister": 2383,
      "argin": 2384,
      "Ġtop": 2385,
      "65": 2386,
      "={`": 2387,
      "-(--": 2388,
      "etwe": 2389,
      "ategory": 2390,
      "etween": 2391,
      "other": 2392,
      "pendencies": 2393,
      "ager": 2394,
      "translate": 2395,
      "Skeleton": 2396,
      "Ġhave": 2397,
      "Ġleft": 2398,
      "AL": 2399,
      "Addon": 2400,
      "Ġ/>}": 2401,
      "ulti": 2402,
      "Loader": 2403,
      "arn": 2404,
      "Enabled": 2405,
      "gray": 2406,
      "endees": 2407,
      "SE": 2408,
      "Ġobject": 2409,
      "Ġlanguage": 2410,
      "ĠBox": 2411,
      "FnData": 2412,
      "erge": 2413,
      "router": 2414,
      "ripe": 2415,
      "/*": 2416,
      "ĠCon": 2417,
      "credential": 2418,
      "DO": 2419,
      "erender": 2420,
      "med": 2421,
      "='": 2422,
      "Height": 2423,
      "ersh": 2424,
      "imation": 2425,
      "StylesApi": 2426,
      "Ġhttps": 2427,
      "Ġallow": 2428,
      "ĠSet": 2429,
      "68": 2430,
      "ified": 2431,
      "shared": 2432,
      "ĠContextMenu": 2433,
      "Ġchange": 2434,
      "pon": 2435,
      "ĠTooltip": 2436,
      ".\",": 2437,
      "height": 2438,
      "eslint": 2439,
      "Fields": 2440,
      "subtle": 2441,
      "raph": 2442,
      "ĠItem": 2443,
      "Ġfiles": 2444,
      "clude": 2445,
      "Each": 2446,
      "sort": 2447,
      "assign": 2448,
      "Get": 2449,
      "OR": 2450,
      "month": 2451,
      "Ġlist": 2452,
      "Function": 2453,
      "Ġpr": 2454,
      "\").": 2455,
      "Ġinset": 2456,
      "ESS": 2457,
      "ativeSelect": 2458,
      "Div": 2459,
      "Ġbackground": 2460,
      "Read": 2461,
      "zod": 2462,
      "Ġclear": 2463,
      "cept": 2464,
      "params": 2465,
      "ific": 2466,
      "spacing": 2467,
      "ĠCommand": 2468,
      "chor": 2469,
      "ern": 2470,
      "info": 2471,
      "Ġfound": 2472,
      "ats": 2473,
      "ibility": 2474,
      "Ġ\"../../": 2475,
      "aw": 2476,
      "={<": 2477,
      "Person": 2478,
      "Ġtog": 2479,
      "ING": 2480,
      "ĠDrawer": 2481,
      "parse": 2482,
      "));": 2483,
      "IT": 2484,
      "Mobile": 2485,
      "Year": 2486,
      "Ġmatch": 2487,
      "finite": 2488,
      "Ġ['": 2489,
      "afe": 2490,
      "ueries": 2491,
      "temp": 2492,
      "gre": 2493,
      "component": 2494,
      "07": 2495,
      "Ġ'#": 2496,
      "Ġexample": 2497,
      "ock": 2498,
      "Ġbody": 2499,
      "ganizer": 2500,
      "Ġvar": 2501,
      "Import": 2502,
      "atchlist": 2503,
      "Loading": 2504,
      "Ġusers": 2505,
      "AC": 2506,
      "dark": 2507,
      "Ġcolumns": 2508,
      "Carousel": 2509,
      "Match": 2510,
      "Ġcontin": 2511,
      "sktop": 2512,
      "Json": 2513,
      "normal": 2514,
      "iddleware": 2515,
      "td": 2516,
      "Ġad": 2517,
      "ong": 2518,
      "Ġtoggle": 2519,
      "AlertDialog": 2520,
      "Ġclasses": 2521,
      "Ġduration": 2522,
      "Resolver": 2523,
      "video": 2524,
      "pages": 2525,
      "ĠteamId": 2526,
      "ĠDef": 2527,
      "Fallback": 2528,
      "ization": 2529,
      "lip": 2530,
      "ique": 2531,
      "ApiProperty": 2532,
      "rest": 2533,
      "Selector": 2534,
      "×ķ×": 2535,
      "<{": 2536,
      "pen": 2537,
      "transparent": 2538,
      "Ġdesktop": 2539,
      "izing": 2540,
      "Identifier": 2541,
      "STATUS": 2542,
      "ID": 2543,
      "Tab": 2544,
      "source": 2545,
      "validate": 2546,
      "ĠE": 2547,
      "Ġsp": 2548,
      "inner": 2549,
      "ĠAn": 2550,
      "Min": 2551,
      "AN": 2552,
      "Ġdocument": 2553,
      "ters": 2554,
      "closed": 2555,
      "DivElement": 2556,
      "ruct": 2557,
      "ĠEventType": 2558,
      "ĠsetValue": 2559,
      "44": 2560,
      "Record": 2561,
      "alert": 2562,
      "align": 2563,
      "Filters": 2564,
      "checkbox": 2565,
      "ĠuseEffect": 2566,
      "kip": 2567,
      "Ġexp": 2568,
      "Ġcursor": 2569,
      "head": 2570,
      "atom": 2571,
      "Ġfind": 2572,
      "Ġinstance": 2573,
      "/${": 2574,
      "sc": 2575,
      "Ġbefore": 2576,
      "ĠmakeData": 2577,
      "Ġparent": 2578,
      "Chevron": 2579,
      "Ġrouter": 2580,
      "ĠWe": 2581,
      "ĠclassNames": 2582,
      "ichText": 2583,
      "solid": 2584,
      "Details": 2585,
      "Not": 2586,
      ")/": 2587,
      "Css": 2588,
      "Calendars": 2589,
      "Tags": 2590,
      "ottom": 2591,
      "Timeout": 2592,
      "Ġ100": 2593,
      "ointer": 2594,
      "').": 2595,
      "ĠMenubar": 2596,
      "Duration": 2597,
      "Task": 2598,
      "Ġversion": 2599,
      "Ġmobile": 2600,
      "'),": 2601,
      "Ġheaders": 2602,
      "dx": 2603,
      "Drop": 2604,
      "github": 2605,
      "ank": 2606,
      "Stream": 2607,
      "Visible": 2608,
      "ict": 2609,
      "Ġusername": 2610,
      "Custom": 2611,
      "():": 2612,
      "ĠProps": 2613,
      "void": 2614,
      "Red": 2615,
      "ven": 2616,
      "Frame": 2617,
      "param": 2618,
      "Radius": 2619,
      "prop": 2620,
      "-${": 2621,
      "vide": 2622,
      "eps": 2623,
      "Ġenable": 2624,
      "Ġopts": 2625,
      "forEach": 2626,
      "Dis": 2627,
      "Test": 2628,
      "sure": 2629,
      "ception": 2630,
      "×Ļ": 2631,
      "Ġresolve": 2632,
      "editor": 2633,
      "Ġchecked": 2634,
      "Ġstatic": 2635,
      "Ġbreak": 2636,
      "resolve": 2637,
      "Palette": 2638,
      "Span": 2639,
      "ĠUser": 2640,
      "Shortcut": 2641,
      "post": 2642,
      "Leg": 2643,
      "testid": 2644,
      "Actions": 2645,
      "Ġâ": 2646,
      "Ġoff": 2647,
      "nextjs": 2648,
      "/_": 2649,
      "ĠAvatar": 2650,
      "values": 2651,
      "Ġnormal": 2652,
      "ssion": 2653,
      "Vis": 2654,
      "ĠSidebarMenu": 2655,
      "userId": 2656,
      "Ġtest": 2657,
      "AuthClient": 2658,
      "Cal": 2659,
      "http": 2660,
      "ĠForm": 2661,
      "66": 2662,
      "lation": 2663,
      "Ġhide": 2664,
      "lucide": 2665,
      "Ùħ": 2666,
      "={[": 2667,
      "CardContent": 2668,
      "stringify": 2669,
      "derline": 2670,
      "Ġevents": 2671,
      "ĠAlertDialog": 2672,
      "Ġ[&>": 2673,
      "Success": 2674,
      "ScrollArea": 2675,
      "clar": 2676,
      "Promise": 2677,
      "ĠMenu": 2678,
      "Delete": 2679,
      "HE": 2680,
      "ession": 2681,
      "UT": 2682,
      "combobox": 2683,
      "Expression": 2684,
      "ribute": 2685,
      "Observer": 2686,
      "reset": 2687,
      "ĠcolumnHelper": 2688,
      "``": 2689,
      "gb": 2690,
      "Headers": 2691,
      "InputGroupAddon": 2692,
      "ailed": 2693,
      "Ġlogger": 2694,
      "ernal": 2695,
      "mt": 2696,
      "disable": 2697,
      "45": 2698,
      "blocks": 2699,
      "Axis": 2700,
      "Ġver": 2701,
      "}`,": 2702,
      "ĠEx": 2703,
      "Ġweek": 2704,
      "terval": 2705,
      "Ġbuild": 2706,
      "useState": 2707,
      "navigation": 2708,
      "Ġvars": 2709,
      "dayjs": 2710,
      "Ġcomponents": 2711,
      "Ġbut": 2712,
      "SelectItem": 2713,
      "Mutation": 2714,
      "ted": 2715,
      "Ġshadow": 2716,
      "tings": 2717,
      "edia": 2718,
      "Manager": 2719,
      "classes": 2720,
      "Days": 2721,
      "Selection": 2722,
      "'],": 2723,
      "Us": 2724,
      "boolean": 2725,
      "Ġ```": 2726,
      "gap": 2727,
      "Sheet": 2728,
      "!:": 2729,
      "à¸": 2730,
      "alled": 2731,
      "ership": 2732,
      "vari": 2733,
      "andl": 2734,
      "ðŁĩ": 2735,
      "ec": 2736,
      "ors": 2737,
      "Ġauto": 2738,
      "username": 2739,
      "ichTextEditor": 2740,
      "(/": 2741,
      "tiv": 2742,
      "webhook": 2743,
      "stination": 2744,
      "request": 2745,
      "ches": 2746,
      "Switch": 2747,
      "Ġdynamic": 2748,
      "Procedure": 2749,
      "animate": 2750,
      "container": 2751,
      "YYYY": 2752,
      "500": 2753,
      "Alert": 2754,
      "ÙĬ": 2755,
      "inst": 2756,
      "Ġstore": 2757,
      "Ø§ÙĦ": 2758,
      "Audit": 2759,
      "split": 2760,
      "We": 2761,
      "23": 2762,
      "cret": 2763,
      "Ġkeyof": 2764,
      "300": 2765,
      "Ġmargin": 2766,
      "payload": 2767,
      "Controller": 2768,
      "=\"#": 2769,
      "Ġk": 2770,
      "Int": 2771,
      "Ġrange": 2772,
      "NEXT": 2773,
      "headers": 2774,
      "Ġregistry": 2775,
      "AG": 2776,
      "vailability": 2777,
      "Ro": 2778,
      "Ġeach": 2779,
      "cause": 2780,
      "Highlight": 2781,
      "Ġentry": 2782,
      "oday": 2783,
      "ĠuseRef": 2784,
      "Ġaccess": 2785,
      "ĠJSON": 2786,
      "emove": 2787,
      "Ġlg": 2788,
      "errors": 2789,
      "97": 2790,
      "96": 2791,
      "FieldDescription": 2792,
      "Øª": 2793,
      "Ġapi": 2794,
      "scribe": 2795,
      "uest": 2796,
      "Order": 2797,
      "DD": 2798,
      "Disabled": 2799,
      "Positioner": 2800,
      "Manifest": 2801,
      "Password": 2802,
      "ji": 2803,
      "Ġreq": 2804,
      "Ġclose": 2805,
      "TRPC": 2806,
      "gular": 2807,
      "88": 2808,
      "Shell": 2809,
      "Files": 2810,
      "Case": 2811,
      "respon": 2812,
      "Ġline": 2813,
      "displayName": 2814,
      "location": 2815,
      "ToggleGroup": 2816,
      "Ġ/>;": 2817,
      "ĠRead": 2818,
      "ĠAPI": 2819,
      "Ġredirect": 2820,
      "ĠNumber": 2821,
      "ĠTFeatures": 2822,
      "Ġauth": 2823,
      "ĠColumn": 2824,
      "/(": 2825,
      "calc": 2826,
      "artsWith": 2827,
      "Cancel": 2828,
      "libr": 2829,
      "ency": 2830,
      "EB": 2831,
      "Static": 2832,
      "secondary": 2833,
      "mental": 2834,
      "OTP": 2835,
      "offset": 2836,
      "Ġvis": 2837,
      "separator": 2838,
      "Booker": 2839,
      "lugin": 2840,
      "uffer": 2841,
      "Ġpathname": 2842,
      "frame": 2843,
      "mark": 2844,
      "html": 2845,
      "Ġ\"\",": 2846,
      "req": 2847,
      "Ġmo": 2848,
      "custom": 2849,
      "Pending": 2850,
      "Toast": 2851,
      "Ġoriginal": 2852,
      "'}": 2853,
      "exp": 2854,
      "unc": 2855,
      "Ġlocale": 2856,
      "80": 2857,
      "Ġhere": 2858,
      "ixed": 2859,
      "creen": 2860,
      "click": 2861,
      "ymb": 2862,
      "result": 2863,
      "Ġpayment": 2864,
      "Profile": 2865,
      "Session": 2866,
      "fade": 2867,
      "Return": 2868,
      "Ġspec": 2869,
      "ERRO": 2870,
      "ERROR": 2871,
      "show": 2872,
      "ested": 2873,
      "CO": 2874,
      "Ġrelative": 2875,
      "ready": 2876,
      "keys": 2877,
      "background": 2878,
      "Direction": 2879,
      "point": 2880,
      "JSX": 2881,
      "author": 2882,
      "entries": 2883,
      "Fetch": 2884,
      "ĠCheckbox": 2885,
      "CESS": 2886,
      "Font": 2887,
      "lat": 2888,
      "sr": 2889,
      "ĠuseForm": 2890,
      "tifications": 2891,
      "ays": 2892,
      "Ġorganization": 2893,
      "'])": 2894,
      "MRT": 2895,
      "Meta": 2896,
      "RightIcon": 2897,
      ":[": 2898,
      "]]:": 2899,
      "depth": 2900,
      "Ð¸": 2901,
      "output": 2902,
      "Ġcentered": 2903,
      "=${": 2904,
      "man": 2905,
      "Ġcall": 2906,
      "ĠPage": 2907,
      "Ġtot": 2908,
      "ĠRowData": 2909,
      "ĠMath": 2910,
      "Devtools": 2911,
      ")\"": 2912,
      "PO": 2913,
      "ĠPagination": 2914,
      "ĠIs": 2915,
      "attern": 2916,
      "allow": 2917,
      "Ġschedule": 2918,
      "lexRender": 2919,
      "radient": 2920,
      "ĠGroup": 2921,
      "match": 2922,
      "Ġtrack": 2923,
      "Ġleading": 2924,
      "Previous": 2925,
      "week": 2926,
      "ĠK": 2927,
      "Ġrun": 2928,
      "avail": 2929,
      "47": 2930,
      "Ġring": 2931,
      "Ġfooter": 2932,
      "Ġdev": 2933,
      "Ġradi": 2934,
      "ymbol": 2935,
      "dd": 2936,
      "ces": 2937,
      "Ġcontainer": 2938,
      "now": 2939,
      "delete": 2940,
      "Version": 2941,
      "dAt": 2942,
      "Children": 2943,
      "ĠmaxWidth": 2944,
      "OOK": 2945,
      "Ġmore": 2946,
      "Bound": 2947,
      "write": 2948,
      "Ġresolved": 2949,
      "Checked": 2950,
      ">({": 2951,
      "iter": 2952,
      "static": 2953,
      "Ġslot": 2954,
      "oom": 2955,
      "Ġ{},": 2956,
      "Ġerrors": 2957,
      "Ġ$": 2958,
      "Errors": 2959,
      "HoverCard": 2960,
      "Ġmethod": 2961,
      "andlers": 2962,
      "segment": 2963,
      "ĠBreadcrumb": 2964,
      "UC": 2965,
      "success": 2966,
      "used": 2967,
      "ther": 2968,
      "nected": 2969,
      "Expanded": 2970,
      "Ġwebhook": 2971,
      "ote": 2972,
      "tooltip": 2973,
      "Use": 2974,
      "drawer": 2975,
      "85": 2976,
      "apps": 2977,
      "meta": 2978,
      "Ġlocation": 2979,
      "startsWith": 2980,
      "Ġone": 2981,
      "Ġrole": 2982,
      "collapsible": 2983,
      "white": 2984,
      "tabs": 2985,
      "Ġ[],": 2986,
      "Media": 2987,
      "ĠfileName": 2988,
      "Payment": 2989,
      "ned": 2990,
      "ĠuseLocale": 2991,
      "ĠCarousel": 2992,
      "Ġenabled": 2993,
      "oauth": 2994,
      "Ġ\\`": 2995,
      "Ġblock": 2996,
      "rowser": 2997,
      "Ġinfer": 2998,
      "dates": 2999,
      "Ġusing": 3000,
      "Method": 3001,
      "ĠSheet": 3002,
      "Local": 3003,
      "Ġ'../../../": 3004,
      "section": 3005,
      "accessor": 3006,
      "Ġexisting": 3007,
      "ĠFile": 3008,
      "67": 3009,
      "Reschedule": 3010,
      "Ġnever": 3011,
      "fill": 3012,
      "Ġtrigger": 3013,
      "make": 3014,
      "Types": 3015,
      "classNames": 3016,
      "Ġchart": 3017,
      "mount": 3018,
      "ĠTableFeatures": 3019,
      "child": 3020,
      "ĠTrans": 3021,
      "Ġman": 3022,
      "olbar": 3023,
      "RadioItem": 3024,
      "SlotRecipe": 3025,
      "Ġconstruct": 3026,
      "Atom": 3027,
      "ĠLink": 3028,
      "Invalid": 3029,
      "embed": 3030,
      "Ġ--": 3031,
      "Ġfallback": 3032,
      "ĠTime": 3033,
      "element": 3034,
      "adcn": 3035,
      "Ġtotal": 3036,
      "Ð°": 3037,
      "metadata": 3038,
      ")]": 3039,
      "wd": 3040,
      "Ġ!!": 3041,
      "Unit": 3042,
      "others": 3043,
      "Display": 3044,
      "Video": 3045,
      "Ġ):": 3046,
      "slice": 3047,
      "Str": 3048,
      "Ġfull": 3049,
      "ĠTValue": 3050,
      "serv": 3051,
      "Ġproject": 3052,
      "Listener": 3053,
      "Ġmust": 3054,
      "++": 3055,
      "ĠProgress": 3056,
      "Tag": 3057,
      "payment": 3058,
      "ĠEvent": 3059,
      "SearchParams": 3060,
      "initial": 3061,
      "Ġdi": 3062,
      "Scope": 3063,
      "do": 3064,
      "hone": 3065,
      "getIs": 3066,
      "ĠColor": 3067,
      "ĠComponent": 3068,
      "hel": 3069,
      "radio": 3070,
      "locale": 3071,
      "emoji": 3072,
      "atches": 3073,
      "Controls": 3074,
      "NativeSelect": 3075,
      ")',": 3076,
      "shadow": 3077,
      "ĠPartial": 3078,
      "._": 3079,
      "infer": 3080,
      "usage": 3081,
      "Ġwhich": 3082,
      "quired": 3083,
      "orientation": 3084,
      "ĠMap": 3085,
      "Ġparsed": 3086,
      "Copy": 3087,
      "izable": 3088,
      "Arg": 3089,
      "Ø±": 3090,
      "ĠSh": 3091,
      "constants": 3092,
      "www": 3093,
      "NavigationMenu": 3094,
      "nel": 3095,
      "change": 3096,
      "Call": 3097,
      "ices": 3098,
      "Ġdelete": 3099,
      "Ġprevious": 3100,
      "Ġattendee": 3101,
      "×Ļ×": 3102,
      "Auto": 3103,
      "Post": 3104,
      "ĠCol": 3105,
      "InputProps": 3106,
      "Equal": 3107,
      "Ġage": 3108,
      "ĠScroll": 3109,
      "Enter": 3110,
      "ategories": 3111,
      "nav": 3112,
      "indicator": 3113,
      "KE": 3114,
      "More": 3115,
      "Nav": 3116,
      "ttp": 3117,
      "Limit": 3118,
      "Last": 3119,
      "ĠĠĠĠĠĠĠĠĠĠĠĠĠĠĠĠĠĠĠĠĠĠĠĠĠĠĠĠĠĠĠ": 3120,
      "users": 3121,
      "Heading": 3122,
      "xy": 3123,
      "dr": 3124,
      "toString": 3125,
      "peri": 3126,
      "prev": 3127,
      "Ġcss": 3128,
      "IC": 3129,
      "pathname": 3130,
      "Ġwas": 3131,
      "uard": 3132,
      "Access": 3133,
      "footer": 3134,
      "cheme": 3135,
      "Host": 3136,
      "Ġob": 3137,
      "pin": 3138,
      "termin": 3139,
      "Ġmb": 3140,
      "ĠTQueryFnData": 3141,
      "Vars": 3142,
      "Ġ{(": 3143,
      "Ġ''": 3144,
      "Ġavailable": 3145,
      "ĠdataKey": 3146,
      "Instance": 3147,
      "pagination": 3148,
      "aly": 3149,
      "Ġprovide": 3150,
      "viewer": 3151,
      "TION": 3152,
      "(...": 3153,
      "Back": 3154,
      "Ġlayout": 3155,
      "DAT": 3156,
      "ales": 3157,
      "ites": 3158,
      "ĠDefault": 3159,
      "Ġdirect": 3160,
      "chedul": 3161,
      "rows": 3162,
      "Ġ25": 3163,
      "94": 3164,
      "*='": 3165,
      "Ġdis": 3166,
      "----------------------------------------------------------------": 3167,
      "tegration": 3168,
      "-'])": 3169,
      "Do": 3170,
      "zy": 3171,
      "sets": 3172,
      "-'])]:": 3173,
      "Ġhandler": 3174,
      "ĠUp": 3175,
      "Ġchunk": 3176,
      "pn": 3177,
      "ydr": 3178,
      "Only": 3179,
      "Ġlength": 3180,
      "`.": 3181,
      "Ġtree": 3182,
      "edRowModel": 3183,
      "APP": 3184,
      "Ġimp": 3185,
      "Internal": 3186,
      "boun": 3187,
      "Ġoffset": 3188,
      "patch": 3189,
      "ĠFor": 3190,
      "Ġ[];": 3191,
      "Ġdoes": 3192,
      "Found": 3193,
      "Ġpublic": 3194,
      "77": 3195,
      "IS": 3196,
      "ifier": 3197,
      "Ġlimit": 3198,
      "position": 3199,
      "ĠTabs": 3200,
      "QueryOptions": 3201,
      "ifiers": 3202,
      "Initial": 3203,
      "ĠRes": 3204,
      "chedules": 3205,
      "Floating": 3206,
      "shadcn": 3207,
      "Bookings": 3208,
      "wardRef": 3209,
      "Script": 3210,
      "ĠZ": 3211,
      "Ġother": 3212,
      "Ġdon": 3213,
      "ĠToggle": 3214,
      "}/": 3215,
      "Without": 3216,
      "Ġ#": 3217,
      "Ġopacity": 3218,
      "Ġemoji": 3219,
      "Ġselector": 3220,
      "ĠApi": 3221,
      "ĠAccordion": 3222,
      "Ġload": 3223,
      "ĠeventTypeId": 3224,
      "Prefix": 3225,
      "remove": 3226,
      "Ġrows": 3227,
      "RichTextEditor": 3228,
      "=\"/": 3229,
      "CheckboxItem": 3230,
      "Ġmark": 3231,
      "InputSchema": 3232,
      "Ġ200": 3233,
      "Exception": 3234,
      "Mdx": 3235,
      "Queries": 3236,
      "mr": 3237,
      "tot": 3238,
      "TY": 3239,
      "ĠData": 3240,
      "lease": 3241,
      "Ġ'/": 3242,
      "Ġreset": 3243,
      "Ġinfo": 3244,
      "KEY": 3245,
      "direction": 3246,
      "Ġorg": 3247,
      "Kind": 3248,
      "Rule": 3249,
      "UCCESS": 3250,
      "03": 3251,
      "lags": 3252,
      "Ġag": 3253,
      "Ġhost": 3254,
      "orizontal": 3255,
      "Ġtooltip": 3256,
      "ĠsetOpen": 3257,
      "Mouse": 3258,
      "plit": 3259,
      "Ġ\"/": 3260,
      "submit": 3261,
      "Ġpost": 3262,
      "her": 3263,
      "CardHeader": 3264,
      "BaseProps": 3265,
      "lastName": 3266,
      "template": 3267,
      "Attendee": 3268,
      "Legend": 3269,
      "Ġ400": 3270,
      "nection": 3271,
      "makeData": 3272,
      "service": 3273,
      "Viewport": 3274,
      "ĠCell": 3275,
      "ugh": 3276,
      "scrib": 3277,
      "velop": 3278,
      "Ow": 3279,
      "ClassName": 3280,
      "SidebarGroup": 3281,
      "ower": 3282,
      "Routes": 3283,
      "google": 3284,
      "Ġvalidate": 3285,
      "single": 3286,
      "fit": 3287,
      "Boolean": 3288,
      "Ġlibr": 3289,
      "Max": 3290,
      "ĠString": 3291,
      "acy": 3292,
      "Ġsupport": 3293,
      "Storage": 3294,
      "21": 3295,
      "New": 3296,
      "ns": 3297,
      "Dependencies": 3298,
      "ById": 3299,
      "Ġhidden": 3300,
      "vers": 3301,
      "ĠSchedule": 3302,
      "Top": 3303,
      "Ġoption": 3304,
      "atis": 3305,
      "ookies": 3306,
      "Ġcontinue": 3307,
      "files": 3308,
      "ose": 3309,
      "ines": 3310,
      "usy": 3311,
      "ĠReturn": 3312,
      "Ġremove": 3313,
      "acet": 3314,
      "Ġloading": 3315,
      "Sorting": 3316,
      "tification": 3317,
      "Ġfs": 3318,
      "Ġpackage": 3319,
      "angular": 3320,
      "IsOptional": 3321,
      "ĠstartTime": 3322,
      "opts": 3323,
      "Slots": 3324,
      "ĠEmpty": 3325,
      "call": 3326,
      "Ġmemb": 3327,
      "Ð¾": 3328,
      "watch": 3329,
      "ĠInputGroup": 3330,
      "Ġalt": 3331,
      "TableCell": 3332,
      "à¥": 3333,
      "Ġ\"}": 3334,
      "ĠNextApi": 3335,
      "Ġchild": 3336,
      "API": 3337,
      "ĠCode": 3338,
      "Resize": 3339,
      "img": 3340,
      "400": 3341,
      "ÑĢ": 3342,
      "ĠY": 3343,
      "ET": 3344,
      "mx": 3345,
      "ĠOmit": 3346,
      "Ġrefresh": 3347,
      "memb": 3348,
      "Paths": 3349,
      "tect": 3350,
      "Org": 3351,
      "clo": 3352,
      "aged": 3353,
      "ferenc": 3354,
      "bop": 3355,
      "switch": 3356,
      "Ġab": 3357,
      "ĠTO": 3358,
      "?.(": 3359,
      "legation": 3360,
      "atisf": 3361,
      "bopack": 3362,
      "Ġ11": 3363,
      "Weight": 3364,
      "nest": 3365,
      "ored": 3366,
      "ours": 3367,
      "Confirm": 3368,
      "layout": 3369,
      "Redirect": 3370,
      "pers": 3371,
      "password": 3372,
      "schema": 3373,
      "Ġeslint": 3374,
      "Properties": 3375,
      "Ġgrid": 3376,
      "ĠNo": 3377,
      "prevent": 3378,
      "Ġdefine": 3379,
      "RI": 3380,
      "urrency": 3381,
      "locator": 3382,
      "Mark": 3383,
      "ND": 3384,
      "Ġimage": 3385,
      "Ġdebug": 3386,
      "Ġalready": 3387,
      "complete": 3388,
      "arge": 3389,
      "Ġ]": 3390,
      "Ġ'ðŁ": 3391,
      "imple": 3392,
      "Limits": 3393,
      "ename": 3394,
      "umer": 3395,
      "build": 3396,
      "clear": 3397,
      "ditional": 3398,
      "empty": 3399,
      "(\"/": 3400,
      "controlled": 3401,
      "Full": 3402,
      "tries": 3403,
      "register": 3404,
      "ĠDatePicker": 3405,
      "tab": 3406,
      "ĠUnstyled": 3407,
      "ection": 3408,
      "[])": 3409,
      "undefined": 3410,
      "QueryClient": 3411,
      "DownIcon": 3412,
      "Member": 3413,
      "ferencing": 3414,
      "KEN": 3415,
      "Ġsatisf": 3416,
      "calendars": 3417,
      "Ġframe": 3418,
      "Ġglobal": 3419,
      "Fns": 3420,
      "cheduling": 3421,
      "Global": 3422,
      "ColorPicker": 3423,
      "ÙĨ": 3424,
      "command": 3425,
      "ĠNavigationMenu": 3426,
      "conds": 3427,
      "Null": 3428,
      "story": 3429,
      "Reason": 3430,
      "90": 3431,
      "Credentials": 3432,
      "================": 3433,
      "NO": 3434,
      "Ġsend": 3435,
      "Ġgenerate": 3436,
      "CardDescription": 3437,
      "Ġmeta": 3438,
      "firstName": 3439,
      "Ġconstructor": 3440,
      "by": 3441,
      "ĠtextStyle": 3442,
      "tree": 3443,
      "Ġtypes": 3444,
      "ĠFactory": 3445,
      "FilterValue": 3446,
      "Pinning": 3447,
      "Remove": 3448,
      "uspen": 3449,
      "Reference": 3450,
      "ĠLog": 3451,
      "uction": 3452,
      "rot": 3453,
      "LT": 3454,
      "preview": 3455,
      "Virtual": 3456,
      "between": 3457,
      "CardTitle": 3458,
      "Formatter": 3459,
      "abase": 3460,
      "parent": 3461,
      "Ġradius": 3462,
      "scope": 3463,
      "lapse": 3464,
      "ification": 3465,
      "sive": 3466,
      "sizes": 3467,
      "uped": 3468,
      "={!": 3469,
      "Ġtrpc": 3470,
      "plic": 3471,
      "arning": 3472,
      "urator": 3473,
      "Users": 3474,
      "ĠTree": 3475,
      ")}>": 3476,
      "site": 3477,
      "Ġorder": 3478,
      "Track": 3479,
      "84": 3480,
      "after": 3481,
      "ĠWebhook": 3482,
      "Ġsatisfies": 3483,
      "claration": 3484,
      "Ġinter": 3485,
      "ĠuseMemo": 3486,
      "lf": 3487,
      "Current": 3488,
      "lations": 3489,
      "Ġpromise": 3490,
      "ghost": 3491,
      "otlight": 3492,
      "Bottom": 3493,
      "trim": 3494,
      "attendee": 3495,
      "This": 3496,
      "Visibility": 3497,
      "cale": 3498,
      "Ġprofile": 3499,
      "colorPalette": 3500,
      "ĠVariant": 3501,
      "TOKEN": 3502,
      "Ġinject": 3503,
      "ĠMet": 3504,
      "Ġbecause": 3505,
      "Attributes": 3506,
      "HTMLDivElement": 3507,
      "uspense": 3508,
      "Pick": 3509,
      "fetch": 3510,
      "wrap": 3511,
      "Ġown": 3512,
      "Groups": 3513,
      "actions": 3514,
      "\"}": 3515,
      "The": 3516,
      ".#": 3517,
      "py": 3518,
      "til": 3519,
      "((_": 3520,
      "ĠØ§ÙĦ": 3521,
      "ride": 3522,
      "ĠAction": 3523,
      "Ġ...(": 3524,
      "Attribute": 3525,
      "CH": 3526,
      "ĠStack": 3527,
      "tim": 3528,
      "Unique": 3529,
      "Ġattributes": 3530,
      "Ġargs": 3531,
      "ead": 3532,
      "getValue": 3533,
      "ĠSer": 3534,
      "older": 3535,
      "Upload": 3536,
      "Clear": 3537,
      "VER": 3538,
      "heading": 3539,
      "Ġdisable": 3540,
      "aption": 3541,
      "ĠâĢ": 3542,
      "FF": 3543,
      "Ġshrink": 3544,
      "HStack": 3545,
      "overlay": 3546,
      "Emb": 3547,
      "getCan": 3548,
      "////////////////////////////////////////////////////////////////": 3549,
      "ences": 3550,
      "issing": 3551,
      "Docs": 3552,
      "Pill": 3553,
      "lu": 3554,
      "ĠList": 3555,
      "\"))": 3556,
      "Availability": 3557,
      "vite": 3558,
      "annel": 3559,
      "underline": 3560,
      "apter": 3561,
      "////////////////////": 3562,
      "teamId": 3563,
      "Mod": 3564,
      "sem": 3565,
      "progress": 3566,
      "`)": 3567,
      "Ġproperty": 3568,
      "Lower": 3569,
      "Ġsession": 3570,
      "Ġusage": 3571,
      "package": 3572,
      "generate": 3573,
      "Ġnon": 3574,
      "Ġinstanceof": 3575,
      "fg": 3576,
      "wind": 3577,
      "getStyles": 3578,
      "language": 3579,
      "Ġmerge": 3580,
      "ssign": 3581,
      "Username": 3582,
      "viewport": 3583,
      "CssVariables": 3584,
      "31": 3585,
      "ailwind": 3586,
      "////////////////////////////////////////////////////////////////////////////////////": 3587,
      "MS": 3588,
      "Ġ30": 3589,
      "curringEvent": 3590,
      "ĠAny": 3591,
      "Dynamic": 3592,
      "Infinite": 3593,
      "rouped": 3594,
      "thing": 3595,
      "ĠuseCallback": 3596,
      "ĠBase": 3597,
      "Ġscope": 3598,
      "Ġ[...": 3599,
      "TMLE": 3600,
      "Ġprefix": 3601,
      "Ġcount": 3602,
      "preventDefault": 3603,
      "TMLElement": 3604,
      "'>": 3605,
      "drop": 3606,
      "}`}": 3607,
      "leted": 3608,
      "Collapsible": 3609,
      "lipboard": 3610,
      "Ġlibrary": 3611,
      "Hide": 3612,
      "pm": 3613,
      "Ġslots": 3614,
      "very": 3615,
      "Pointer": 3616,
      "uch": 3617,
      "Ġfeature": 3618,
      "Async": 3619,
      ">[": 3620,
      "Pop": 3621,
      "array": 3622,
      "Ġinline": 3623,
      "EST": 3624,
      "ĠtimeZone": 3625,
      "ĠTODO": 3626,
      "fil": 3627,
      "Ġlocal": 3628,
      "Template": 3629,
      "reference": 3630,
      "Ġarr": 3631,
      "ting": 3632,
      "dist": 3633,
      "ibold": 3634,
      "ging": 3635,
      "edge": 3636,
      "zoom": 3637,
      "Boundary": 3638,
      "wo": 3639,
      "Ġgo": 3640,
      "Account": 3641,
      "then": 3642,
      "placeholder": 3643,
      "imal": 3644,
      "Ġprogress": 3645,
      "Ġarray": 3646,
      "LO": 3647,
      "Multi": 3648,
      "ĠStylesApi": 3649,
      "actor": 3650,
      "ĠdefaultClassNames": 3651,
      "Length": 3652,
      "Outside": 3653,
      "Platform": 3654,
      "png": 3655,
      "76": 3656,
      "className": 3657,
      "Lu": 3658,
      "acer": 3659,
      "Report": 3660,
      "formed": 3661,
      "semibold": 3662,
      "Ġ50": 3663,
      "Ġsame": 3664,
      "ctx": 3665,
      "getBy": 3666,
      "settings": 3667,
      "'))": 3668,
      "SidebarMenuItem": 3669,
      "ByColumn": 3670,
      "local": 3671,
      "92": 3672,
      "System": 3673,
      "Ġts": 3674,
      "EventListener": 3675,
      "Ġinstead": 3676,
      "hen": 3677,
      "SelectPrimitive": 3678,
      "common": 3679,
      "Transition": 3680,
      "LowerCase": 3681,
      "ÙĪ": 3682,
      "AU": 3683,
      "Ðµ": 3684,
      "loy": 3685,
      "Chunk": 3686,
      "Ġupdated": 3687,
      "pur": 3688,
      "Ġinto": 3689,
      "toBe": 3690,
      "Class": 3691,
      "Entries": 3692,
      "ChakraProps": 3693,
      "shrink": 3694,
      "Align": 3695,
      "Side": 3696,
      "person": 3697,
      "system": 3698,
      "project": 3699,
      "devtools": 3700,
      "response": 3701,
      "46": 3702,
      "ways": 3703,
      "ĠRoot": 3704,
      "Ġ----------------------------------------------------------------": 3705,
      "uted": 3706,
      "Ġsolid": 3707,
      "Inter": 3708,
      "badge": 3709,
      "Ġcallback": 3710,
      "isArray": 3711,
      "ĠAdd": 3712,
      "Ġcombobox": 3713,
      "nestjs": 3714,
      "ple": 3715,
      "{\"": 3716,
      "CloseButton": 3717,
      "Mantine": 3718,
      "internal": 3719,
      "Ġcva": 3720,
      "Ġweb": 3721,
      "ĠHTMLChakraProps": 3722,
      "ĠScrollArea": 3723,
      "ĠfirstName": 3724,
      "ĠComp": 3725,
      "ĠOn": 3726,
      "some": 3727,
      "×Ķ": 3728,
      "assed": 3729,
      "ached": 3730,
      "perimental": 3731,
      "ĠendTime": 3732,
      "emphas": 3733,
      "aceted": 3734,
      "ĠØ": 3735,
      "typescript": 3736,
      "ĠVariantProps": 3737,
      "SidebarMenuButton": 3738,
      "Pinned": 3739,
      "uil": 3740,
      "Pr": 3741,
      "erences": 3742,
      "sert": 3743,
      "Ġfields": 3744,
      "Ġaccount": 3745,
      "ategy": 3746,
      "ement": 3747,
      "year": 3748,
      "Ġ((": 3749,
      "toLowerCase": 3750,
      "ĠTQueryKey": 3751,
      "fr": 3752,
      "exist": 3753,
      "cursor": 3754,
      "Bl": 3755,
      "ĠIt": 3756,
      "Ġfin": 3757,
      "Ġpages": 3758,
      "ums": 3759,
      "Ġunstyled": 3760,
      "FieldGroup": 3761,
      "Than": 3762,
      "ics": 3763,
      "ColumnDef": 3764,
      "ĠQueryClient": 3765,
      "ran": 3766,
      "Ġ**": 3767,
      "Guard": 3768,
      "dis": 3769,
      "ied": 3770,
      "Ġprev": 3771,
      "ArrowRight": 3772,
      "ily": 3773,
      "Ġattr": 3774,
      "dynamic": 3775,
      "KeyDown": 3776,
      "Role": 3777,
      "Ġimplement": 3778,
      "Web": 3779,
      "global": 3780,
      "tity": 3781,
      "oto": 3782,
      "Ġvariants": 3783,
      "Scheme": 3784,
      "AGE": 3785,
      "inter": 3786,
      "60": 3787,
      "Hidden": 3788,
      "Ġruntime": 3789,
      "Home": 3790,
      "my": 3791,
      "ĠElement": 3792,
      "ĠChevron": 3793,
      "ments": 3794,
      "ĠonSubmit": 3795,
      "}>{": 3796,
      "Handle": 3797,
      "Write": 3798,
      "Ġuid": 3799,
      "ĠSlider": 3800,
      "Many": 3801,
      "ful": 3802,
      "ĠsetIs": 3803,
      "Install": 3804,
      "Owner": 3805,
      ">()": 3806,
      "db": 3807,
      "Ġwant": 3808,
      "Thumb": 3809,
      "ĠType": 3810,
      "ĠfontWeight": 3811,
      "Ġindicator": 3812,
      "resolved": 3813,
      "ĠSUCCESS": 3814,
      "cwd": 3815,
      "teal": 3816,
      "Ġwithout": 3817,
      "Ġempty": 3818,
      "ItemIndicator": 3819,
      "DropdownMenuGroup": 3820,
      "ĠImage": 3821,
      "atted": 3822,
      "task": 3823,
      "InputOTP": 3824,
      "ĠmakeDataLevel": 3825,
      "Window": 3826,
      "ÑĤ": 3827,
      "Labels": 3828,
      "Anchor": 3829,
      "72": 3830,
      "profile": 3831,
      "ĠfontSize": 3832,
      "Collection": 3833,
      "ingle": 3834,
      "Ġ*/}": 3835,
      "lication": 3836,
      "ĠsideOffset": 3837,
      "Ġ{/*": 3838,
      "hether": 3839,
      "DATA": 3840,
      "await": 3841,
      "aterial": 3842,
      "ĠlastName": 3843,
      "Ġtask": 3844,
      "Ġwithin": 3845,
      "Ġ+=": 3846,
      "ĠĠĠĠĠĠ": 3847,
      "inition": 3848,
      "Ġswitch": 3849,
      "Ġexternal": 3850,
      "Del": 3851,
      "ĠFilter": 3852,
      "Ġcancel": 3853,
      "++)": 3854,
      "ensions": 3855,
      "uests": 3856,
      "mer": 3857,
      "}\"": 3858,
      "Ġ'',": 3859,
      "IsString": 3860,
      "Ġreschedule": 3861,
      "padding": 3862,
      "rough": 3863,
      "product": 3864,
      "aded": 3865,
      "Toolbar": 3866,
      "ains": 3867,
      "resent": 3868,
      "Ġthen": 3869,
      "DropdownMenuContent": 3870,
      "gex": 3871,
      "tivity": 3872,
      "ips": 3873,
      "Ġedit": 3874,
      "Ġanimation": 3875,
      "Attr": 3876,
      "ait": 3877,
      "}.": 3878,
      "unknown": 3879,
      "Apps": 3880,
      "loading": 3881,
      "ashboard": 3882,
      "iteral": 3883,
      "TYP": 3884,
      "cry": 3885,
      "just": 3886,
      "expanded": 3887,
      "Ġthere": 3888,
      "textarea": 3889,
      "ĠLu": 3890,
      "SER": 3891,
      "SubTrigger": 3892,
      "Mount": 3893,
      "purple": 3894,
      "Ġlevel": 3895,
      "ignore": 3896,
      ".</": 3897,
      "handler": 3898,
      "Lock": 3899,
      "Ġbookings": 3900,
      "iod": 3901,
      "Ġu": 3902,
      "uring": 3903,
      "sign": 3904,
      "Ġstep": 3905,
      "Ġ60": 3906,
      "TT": 3907,
      "ĠOr": 3908,
      "Ġaccessor": 3909,
      "DropdownMenuTrigger": 3910,
      "ĠJ": 3911,
      "Admin": 3912,
      "ension": 3913,
      "[],": 3914,
      "ates": 3915,
      "86": 3916,
      "Ø¯": 3917,
      "Failed": 3918,
      "ume": 3919,
      "Ġarg": 3920,
      "Ġerr": 3921,
      "atabase": 3922,
      "mode": 3923,
      "Ø©": 3924,
      "56": 3925,
      "return": 3926,
      "Ġskip": 3927,
      "mission": 3928,
      "green": 3929,
      "book": 3930,
      "ution": 3931,
      "Plugin": 3932,
      "ĠCSS": 3933,
      "calEvent": 3934,
      "spec": 3935,
      "ĠEn": 3936,
      "stable": 3937,
      "recharts": 3938,
      "Ġfl": 3939,
      "ĠDay": 3940,
      "MenubarItem": 3941,
      "Ð½": 3942,
      "ValueChange": 3943,
      "Project": 3944,
      "ĠArk": 3945,
      "Transform": 3946,
      "ĠBoxProps": 3947,
      "chunk": 3948,
      "queue": 3949,
      "quote": 3950,
      "EL": 3951,
      "TextInput": 3952,
      "Ġenv": 3953,
      "ause": 3954,
      "Ġ150": 3955,
      "connect": 3956,
      "600": 3957,
      "<'": 3958,
      "Ġ])": 3959,
      "Ġstack": 3960,
      "ĠSp": 3961,
      "dater": 3962,
      "step": 3963,
      "Ġdrag": 3964,
      "ComboboxPrimitive": 3965,
      "OpenChange": 3966,
      "Runtime": 3967,
      "}-": 3968,
      "ayer": 3969,
      "forwardRef": 3970,
      "tag": 3971,
      "Ġpreview": 3972,
      "RowData": 3973,
      "Ġrequire": 3974,
      "MA": 3975,
      "Signal": 3976,
      "rout": 3977,
      "Enum": 3978,
      "`}": 3979,
      "Ġtracking": 3980,
      "FlexRender": 3981,
      "material": 3982,
      "Ġsuccess": 3983,
      "less": 3984,
      "ĠUnstyledProp": 3985,
      "utate": 3986,
      "Registry": 3987,
      "Ġdocs": 3988,
      "ift": 3989,
      "ĠSlot": 3990,
      "Dates": 3991,
      "ĠQueryKey": 3992,
      "Ġfn": 3993,
      "Ġdropdown": 3994,
      "InputElement": 3995,
      "CheckIcon": 3996,
      "AB": 3997,
      "ĠAlert": 3998,
      "ButtonGroup": 3999,
      "currentColor": 4000,
      "atoms": 4001,
      "Horizontal": 4002,
      "document": 4003,
      "RootProvider": 4004,
      "cols": 4005,
      "Animation": 4006,
      "ĠHover": 4007,
      "ĠqueryClient": 4008,
      "accordion": 4009,
      "gest": 4010,
      "Ġinclude": 4011,
      "Ġaut": 4012,
      "toLocale": 4013,
      "EventData": 4014,
      "Ġsome": 4015,
      "91": 4016,
      "ĠuseProps": 4017,
      "keep": 4018,
      "87": 4019,
      "href": 4020,
      "\\/": 4021,
      "enable": 4022,
      "Inline": 4023,
      "ookie": 4024,
      "ĠsearchParams": 4025,
      "slots": 4026,
      "Ġcategory": 4027,
      "urbopack": 4028,
      "Basic": 4029,
      "ten": 4030,
      "SubContent": 4031,
      "EventTypes": 4032,
      "×ľ": 4033,
      "boarding": 4034,
      "ĠCollapsible": 4035,
      "Available": 4036,
      "CSS": 4037,
      "fs": 4038,
      "rgb": 4039,
      "Ġpassed": 4040,
      "track": 4041,
      "Ġbox": 4042,
      "Steps": 4043,
      "images": 4044,
      ">}": 4045,
      "ior": 4046,
      "}`;": 4047,
      "UB": 4048,
      "ish": 4049,
      "bounced": 4050,
      "ĠServer": 4051,
      "la": 4052,
      "UserId": 4053,
      "cms": 4054,
      "Ġtemplate": 4055,
      "ĠdataCode": 4056,
      "skeleton": 4057,
      "Ġ13": 4058,
      "AppData": 4059,
      "Ġkind": 4060,
      "Ġ*:": 4061,
      "ape": 4062,
      "ires": 4063,
      "ĠsetSelected": 4064,
      "Colors": 4065,
      "FAU": 4066,
      "Prev": 4067,
      "`);": 4068,
      "ving": 4069,
      "stripe": 4070,
      "Ġclick": 4071,
      "FAULT": 4072,
      "original": 4073,
      "ashed": 4074,
      "Ġpass": 4075,
      "ĠBadge": 4076,
      "Run": 4077,
      "Ġmultiple": 4078,
      "Preview": 4079,
      "ĠSub": 4080,
      "Ġsection": 4081,
      "TimePicker": 4082,
      "hav": 4083,
      "pop": 4084,
      "picker": 4085,
      "ures": 4086,
      "CardFooter": 4087,
      "services": 4088,
      "Work": 4089,
      "Ġcor": 4090,
      "Ġmutation": 4091,
      "Ġlight": 4092,
      "OfWeek": 4093,
      "AvatarFallback": 4094,
      "NODE": 4095,
      "After": 4096,
      "basic": 4097,
      "ica": 4098,
      "bold": 4099,
      "redirect": 4100,
      "Expand": 4101,
      "tected": 4102,
      "recipe": 4103,
      "Ġfactory": 4104,
      "MP": 4105,
      "Ġabsolute": 4106,
      "Ġwrap": 4107,
      "ĠValid": 4108,
      "={['": 4109,
      "Ġsup": 4110,
      "Ġ}).": 4111,
      "57": 4112,
      "IL": 4113,
      "TH": 4114,
      "?.[": 4115,
      "ĠLo": 4116,
      "enerated": 4117,
      "Logo": 4118,
      "available": 4119,
      "previous": 4120,
      "Ġdif": 4121,
      "Args": 4122,
      "Phone": 4123,
      "Ġ\"{": 4124,
      "Ġpe": 4125,
      "greg": 4126,
      "ĠHeader": 4127,
      "ĠSidebarGroup": 4128,
      "emphasis": 4129,
      "WEB": 4130,
      "break": 4131,
      "ship": 4132,
      "strong": 4133,
      "Center": 4134,
      "organization": 4135,
      "stor": 4136,
      "toast": 4137,
      "Ġkeys": 4138,
      "ĠBar": 4139,
      "ĠLabel": 4140,
      "Ġeditor": 4141,
      "Ġ\"ðŁĩ": 4142,
      "Ġ'}": 4143,
      "Ġsignal": 4144,
      "Ġmap": 4145,
      "Opened": 4146,
      "NextPage": 4147,
      "']}": 4148,
      "quare": 4149,
      "OAuthClient": 4150,
      "Pre": 4151,
      "Ġassign": 4152,
      "TagsInput": 4153,
      "Ġprovided": 4154,
      "ocused": 4155,
      "Ġ>=": 4156,
      "Ġensure": 4157,
      "quire": 4158,
      "yp": 4159,
      "erator": 4160,
      "Ġraw": 4161,
      "Ġtick": 4162,
      "Ġoutput": 4163,
      "cepted": 4164,
      "dom": 4165,
      "ĠSwitch": 4166,
      "ĠalignItems": 4167,
      "missions": 4168,
      "Watchlist": 4169,
      "âĶ": 4170,
      "apt": 4171,
      "Pathname": 4172,
      "}`);": 4173,
      "ĠorganizationId": 4174,
      "Sizes": 4175,
      "arac": 4176,
      "arque": 4177,
      "untry": 4178,
      "('[": 4179,
      "Export": 4180,
      "Attendees": 4181,
      "Ġnormalize": 4182,
      "Hook": 4183,
      "pts": 4184,
      "ameters": 4185,
      "Ġacc": 4186,
      "ĠSeparator": 4187,
      "arquee": 4188,
      "tbody": 4189,
      "ged": 4190,
      "ĠHTMLDivElement": 4191,
      "jsxIdentifier": 4192,
      "Sign": 4193,
      "slider": 4194,
      "ĠbookingUid": 4195,
      "atomy": 4196,
      "Ġrgb": 4197,
      "ĠWhen": 4198,
      "Impl": 4199,
      "Ġmodal": 4200,
      "rast": 4201,
      "today": 4202,
      "duction": 4203,
      "ves": 4204,
      "external": 4205,
      "vert": 4206,
      "columns": 4207,
      "BarChart": 4208,
      "ĠUpdate": 4209,
      "Document": 4210,
      "phosphor": 4211,
      "Reset": 4212,
      "Angular": 4213,
      "black": 4214,
      "NativeSelectOption": 4215,
      "version": 4216,
      "If": 4217,
      "Pack": 4218,
      "war": 4219,
      "entic": 4220,
      "agin": 4221,
      "Results": 4222,
      "routers": 4223,
      "Literal": 4224,
      "ud": 4225,
      "Ġq": 4226,
      "ĠCustom": 4227,
      "Ġresults": 4228,
      "ĠviewBox": 4229,
      "eventTypeId": 4230,
      "Html": 4231,
      "category": 4232,
      "Ø¹": 4233,
      "FieldValues": 4234,
      "mutation": 4235,
      "Ġ]}": 4236,
      "see": 4237,
      "ital": 4238,
      "Hosts": 4239,
      "}',": 4240,
      "ĠRadio": 4241,
      "Ġstream": 4242,
      "ĠID": 4243,
      "Emails": 4244,
      "menubar": 4245,
      "Adapter": 4246,
      "points": 4247,
      ".__": 4248,
      "ous": 4249,
      "pending": 4250,
      "ĠĠĠĠĠĠĠĠĠĠĠĠĠĠĠĠ": 4251,
      "debug": 4252,
      "uplic": 4253,
      "tract": 4254,
      "ĠinitialValue": 4255,
      "Ġreason": 4256,
      "Ġdown": 4257,
      "ĠNode": 4258,
      "panel": 4259,
      "CommandItem": 4260,
      "ually": 4261,
      "Ġ\"\"": 4262,
      "Plus": 4263,
      ".\"": 4264,
      "TQuery": 4265,
      "ĠWith": 4266,
      "Ġdb": 4267,
      "ĠPick": 4268,
      "Nested": 4269,
      "Ġnow": 4270,
      "imum": 4271,
      "ĠReadonly": 4272,
      "Spec": 4273,
      "native": 4274,
      "ql": 4275,
      "Ġpos": 4276,
      "aybe": 4277,
      "ĠonError": 4278,
      "Ġwhile": 4279,
      "Embed": 4280,
      ">â": 4281,
      "Memo": 4282,
      "Ġ/>,": 4283,
      "ĠHttp": 4284,
      "Ġlike": 4285,
      "TestId": 4286,
      "ploy": 4287,
      "×¨": 4288,
      "ones": 4289,
      "Ġ}>": 4290,
      "havior": 4291,
      "faker": 4292,
      "positories": 4293,
      "velte": 4294,
      "93": 4295,
      "Sizing": 4296,
      "Ġpointer": 4297,
      "Ġhel": 4298,
      "Subscription": 4299,
      "ĠChakra": 4300,
      "random": 4301,
      "Kbd": 4302,
      "tails": 4303,
      "Ġnamespace": 4304,
      "Ġparam": 4305,
      "Ġwhether": 4306,
      "ĠborderRadius": 4307,
      "ĠCellData": 4308,
      "aults": 4309,
      "ĠName": 4310,
      "acement": 4311,
      "aries": 4312,
      "ControlProps": 4313,
      "CON": 4314,
      "ĠRouter": 4315,
      "ĠRadioGroup": 4316,
      "stop": 4317,
      "ĠdefaultProps": 4318,
      "Ġcreated": 4319,
      "cancel": 4320,
      "Ġrel": 4321,
      "Ġforward": 4322,
      "(`${": 4323,
      "Delay": 4324,
      "kbd": 4325,
      "warn": 4326,
      "stinationCalendar": 4327,
      "Virtualizer": 4328,
      "UR": 4329,
      "ract": 4330,
      "ISO": 4331,
      "warded": 4332,
      "uce": 4333,
      "TimeSlot": 4334,
      "ĠwithContext": 4335,
      "ĠqueryKey": 4336,
      "Brand": 4337,
      "Ùģ": 4338,
      "eration": 4339,
      "Ġpassword": 4340,
      "Translation": 4341,
      "TTP": 4342,
      "ZM": 4343,
      "atched": 4344,
      "Ġorigin": 4345,
      "ĠToken": 4346,
      "SC": 4347,
      "thead": 4348,
      "700": 4349,
      "SI": 4350,
      "repository": 4351,
      "adar": 4352,
      "andom": 4353,
      "ĠMutation": 4354,
      "currentTarget": 4355,
      "58": 4356,
      "~/": 4357,
      "ĠRoute": 4358,
      "ĠHTMLElement": 4359,
      "TOKENS": 4360,
      "HO": 4361,
      "ĠDE": 4362,
      "parsed": 4363,
      "Ġ500": 4364,
      "vas": 4365,
      "alle": 4366,
      "Ġinvalid": 4367,
      "ĠUs": 4368,
      "legationCredential": 4369,
      "OAuth": 4370,
      "Ġvisible": 4371,
      "Refresh": 4372,
      "Ġseries": 4373,
      "El": 4374,
      "Ġold": 4375,
      "StringValue": 4376,
      "ingFeature": 4377,
      "Ġ300": 4378,
      "Ġtimezone": 4379,
      "cp": 4380,
      "avor": 4381,
      "Ġits": 4382,
      "MonthView": 4383,
      "velopment": 4384,
      "MI": 4385,
      "Ġregister": 4386,
      "highlight": 4387,
      "jection": 4388,
      "ucer": 4389,
      "/[": 4390,
      "QU": 4391,
      "ins": 4392,
      "ĠonSelect": 4393,
      "IconButton": 4394,
      "agn": 4395,
      "Textarea": 4396,
      "AppShell": 4397,
      "headerGroup": 4398,
      "tegrations": 4399,
      "aces": 4400,
      "ĠRequest": 4401,
      "days": 4402,
      "70": 4403,
      "Rel": 4404,
      "repositories": 4405,
      "Ġcolors": 4406,
      "Suspense": 4407,
      "vis": 4408,
      "atter": 4409,
      "limit": 4410,
      "MO": 4411,
      "Ġkeep": 4412,
      "amily": 4413,
      "illing": 4414,
      "subscribe": 4415,
      "ĠElementProps": 4416,
      "-\\": 4417,
      "UN": 4418,
      "Ġdist": 4419,
      "formation": 4420,
      "TableHead": 4421,
      "CT": 4422,
      "Includes": 4423,
      "wrapper": 4424,
      "origin": 4425,
      "Ġrevalidate": 4426,
      "Ġavatar": 4427,
      "ĠRef": 4428,
      "ĠPost": 4429,
      "ContextMenuPrimitive": 4430,
      "rit": 4431,
      "Ġprefetch": 4432,
      "aginated": 4433,
      "\"];": 4434,
      "ĠJSX": 4435,
      "ĠSort": 4436,
      "aily": 4437,
      "Variable": 4438,
      "controls": 4439,
      "Ġcontrols": 4440,
      "terminate": 4441,
      "herit": 4442,
      "runtime": 4443,
      "ColumnHelper": 4444,
      "LeftIcon": 4445,
      "Ġvertical": 4446,
      "%,": 4447,
      "logger": 4448,
      "Validation": 4449,
      "Ġbooker": 4450,
      "Ġtoast": 4451,
      "TooltipContent": 4452,
      "ĠDefaultError": 4453,
      "Handlers": 4454,
      "sync": 4455,
      "Ġpin": 4456,
      "Ġproduct": 4457,
      "RY": 4458,
      "session": 4459,
      "Ġcons": 4460,
      "ToggleGroupItem": 4461,
      "Ġvisits": 4462,
      "plicit": 4463,
      "stream": 4464,
      "determinate": 4465,
      "anStack": 4466,
      "TableInstance": 4467,
      "Blur": 4468,
      "âĶĢ": 4469,
      "anner": 4470,
      "ĠonOpenChange": 4471,
      "vaul": 4472,
      "uary": 4473,
      "access": 4474,
      "Ġsafe": 4475,
      "ĠSkeleton": 4476,
      "Ġplatform": 4477,
      "searchParams": 4478,
      "Ġthem": 4479,
      "ĠCalendarEvent": 4480,
      ":-": 4481,
      "FI": 4482,
      "Pages": 4483,
      "thumb": 4484,
      "istory": 4485,
      "Ġroutes": 4486,
      "ĠCardContent": 4487,
      "HEAD": 4488,
      "}\",": 4489,
      "Declaration": 4490,
      "force": 4491,
      "ApiPropertyOptional": 4492,
      "Ġembed": 4493,
      "Ġclean": 4494,
      "Ġwait": 4495,
      "ĠToast": 4496,
      "tig": 4497,
      "Ġscale": 4498,
      "iron": 4499,
      "columnDef": 4500,
      "carousel": 4501,
      "Ġcontinent": 4502,
      "Confirmation": 4503,
      "DI": 4504,
      "Navigation": 4505,
      "ling": 4506,
      "Ġo": 4507,
      "igr": 4508,
      "Ġmy": 4509,
      "Timezone": 4510,
      "ĠSegment": 4511,
      "corator": 4512,
      "74": 4513,
      "toLocaleString": 4514,
      "wardedRef": 4515,
      "secret": 4516,
      "cover": 4517,
      "Env": 4518,
      "filled": 4519,
      "vo": 4520,
      "virtual": 4521,
      "Ġcondition": 4522,
      "(\"./": 4523,
      "Ġ26": 4524,
      "Anatomy": 4525,
      "mdx": 4526,
      "Ġbottom": 4527,
      "Ġmenu": 4528,
      "Ġ}))": 4529,
      "OOKING": 4530,
      "ues": 4531,
      "startTime": 4532,
      "framework": 4533,
      "reschedule": 4534,
      "oint": 4535,
      "licated": 4536,
      "catch": 4537,
      "len": 4538,
      "×ŀ": 4539,
      "ĠExample": 4540,
      "Ġhttp": 4541,
      "cape": 4542,
      "Ġchanges": 4543,
      "Ġobserver": 4544,
      "Your": 4545,
      "]?.": 4546,
      "attr": 4547,
      "oly": 4548,
      "---": 4549,
      "tics": 4550,
      "ĠConfig": 4551,
      "callback": 4552,
      "ĠonClose": 4553,
      "ButtonProps": 4554,
      "ContextMenuItem": 4555,
      "webhooks": 4556,
      "allowed": 4557,
      "helpers": 4558,
      "getByTestId": 4559,
      "stamp": 4560,
      "ctor": 4561,
      "vercel": 4562,
      "Buffer": 4563,
      "Ġhook": 4564,
      "Ġlen": 4565,
      "ĠdefaultVariants": 4566,
      "ĠRender": 4567,
      "lationship": 4568,
      "Interval": 4569,
      "Ġdemo": 4570,
      "Ġsettings": 4571,
      "Refs": 4572,
      "ENV": 4573,
      "blank": 4574,
      "scriber": 4575,
      "Ms": 4576,
      "duration": 4577,
      "()}>": 4578,
      "ĠModal": 4579,
      "coming": 4580,
      "ĠcredentialId": 4581,
      "sheet": 4582,
      "loader": 4583,
      "Notification": 4584,
      "ĠstrokeWidth": 4585,
      "Methods": 4586,
      "Ag": 4587,
      "Screen": 4588,
      "ai": 4589,
      "Įĺ": 4590,
      "ĠCal": 4591,
      "umbers": 4592,
      "linear": 4593,
      "Ġapply": 4594,
      "allel": 4595,
      "lash": 4596,
      "TableRow": 4597,
      "Ġprice": 4598,
      "TQueryFnData": 4599,
      "Flags": 4600,
      "Main": 4601,
      "relationship": 4602,
      "Ġ(_": 4603,
      "Ġpagination": 4604,
      "Ġwould": 4605,
      "LIC": 4606,
      "Ġspace": 4607,
      "totype": 4608,
      "DX": 4609,
      "Prefetch": 4610,
      "RES": 4611,
      "br": 4612,
      "complicated": 4613,
      "Ġdirection": 4614,
      "54": 4615,
      "Chip": 4616,
      "prerender": 4617,
      "(_": 4618,
      "case": 4619,
      "safe": 4620,
      "×ª": 4621,
      "ĠERROR": 4622,
      "Leaf": 4623,
      "ActionIcon": 4624,
      "application": 4625,
      "ĠisActive": 4626,
      "sera": 4627,
      "Ġjoin": 4628,
      "ĠDev": 4629,
      "ĠKey": 4630,
      "Ġschema": 4631,
      "coded": 4632,
      "refresh": 4633,
      "TreeView": 4634,
      "ranch": 4635,
      "Busy": 4636,
      "Has": 4637,
      "eed": 4638,
      "ĠOptions": 4639,
      "account": 4640,
      "Ġstr": 4641,
      "eeded": 4642,
      "nowrap": 4643,
      "MultiSelect": 4644,
      "Hash": 4645,
      "PRO": 4646,
      "ble": 4647,
      "hsl": 4648,
      "ĠCredential": 4649,
      "Ġrendered": 4650,
      "lapsed": 4651,
      "Meeting": 4652,
      "ĠrightSection": 4653,
      "closure": 4654,
      "Ring": 4655,
      "breadcrumb": 4656,
      "ze": 4657,
      "arrow": 4658,
      "should": 4659,
      "\")}</": 4660,
      "rotate": 4661,
      "Assign": 4662,
      "rior": 4663,
      "Ġwrite": 4664,
      "MenuPrimitive": 4665,
      "ĠuseStyles": 4666,
      "Resizing": 4667,
      "Ġproperties": 4668,
      "Logger": 4669,
      "ĠHoverCard": 4670,
      "2000": 4671,
      "role": 4672,
      "ross": 4673,
      "Ġalways": 4674,
      "tokens": 4675,
      "ĠTRPCError": 4676,
      "Ġnavigation": 4677,
      "ssages": 4678,
      "Ġattendees": 4679,
      "Ġsorted": 4680,
      "FloatingPanel": 4681,
      "stories": 4682,
      "uncate": 4683,
      "screen": 4684,
      "ingElement": 4685,
      "Ġpattern": 4686,
      "unter": 4687,
      "Ġhead": 4688,
      "Ġali": 4689,
      "ired": 4690,
      "Ġreact": 4691,
      "Ġpart": 4692,
      "Ġmain": 4693,
      "ItemText": 4694,
      "motion": 4695,
      "Ø§Ø": 4696,
      "Ġauthor": 4697,
      "UnitStore": 4698,
      "AY": 4699,
      "Sc": 4700,
      "ux": 4701,
      "Rect": 4702,
      "ical": 4703,
      "RootProps": 4704,
      "logo": 4705,
      "media": 4706,
      "ragment": 4707,
      "DocsProperty": 4708,
      "Ġ202": 4709,
      "Ġtag": 4710,
      "ButtonElement": 4711,
      "Ġreference": 4712,
      "Scrollbar": 4713,
      "1000": 4714,
      "mediate": 4715,
      "Ġowner": 4716,
      "vue": 4717,
      "Ġentries": 4718,
      "ĠPrimitive": 4719,
      "Models": 4720,
      "uffix": 4721,
      "Equals": 4722,
      "enabled": 4723,
      "stroke": 4724,
      "Ġ{};": 4725,
      "experimental": 4726,
      "Ġ\"\";": 4727,
      "useEffect": 4728,
      "ĠBooker": 4729,
      "Organizer": 4730,
      "pageSize": 4731,
      "transition": 4732,
      "Svelte": 4733,
      "Ter": 4734,
      "Ġhighlight": 4735,
      "ĠMonth": 4736,
      "ĠsubRows": 4737,
      "ItemContent": 4738,
      "crement": 4739,
      "Parent": 4740,
      "Ġframework": 4741,
      "script": 4742,
      "Ðº": 4743,
      "iler": 4744,
      "ĠReactNode": 4745,
      "Complete": 4746,
      "ironment": 4747,
      "Ali": 4748,
      "ian": 4749,
      "public": 4750,
      "Ġthey": 4751,
      "Ġsuper": 4752,
      "Required": 4753,
      "ersist": 4754,
      "ĠOpen": 4755,
      "attendees": 4756,
      "ĠTransform": 4757,
      "floating": 4758,
      "self": 4759,
      "setValue": 4760,
      "...\"": 4761,
      "preset": 4762,
      "Ġdomain": 4763,
      "pendency": 4764,
      "Disclosure": 4765,
      "install": 4766,
      "Padding": 4767,
      "onChange": 4768,
      "orph": 4769,
      "utf": 4770,
      "Respon": 4771,
      "oop": 4772,
      "ĠonSuccess": 4773,
      "ĠOut": 4774,
      "Domain": 4775,
      "ALE": 4776,
      "Ùĥ": 4777,
      "level": 4778,
      "ulate": 4779,
      "DialogContent": 4780,
      "ServerSide": 4781,
      "Tasker": 4782,
      "alytics": 4783,
      "Popup": 4784,
      "ktop": 4785,
      "Ġspan": 4786,
      "ĠSystem": 4787,
      "ĠWEB": 4788,
      "Validate": 4789,
      "âĶĢâĶĢ": 4790,
      "Middleware": 4791,
      "Td": 4792,
      "drag": 4793,
      "=\"${": 4794,
      "Ġcredentials": 4795,
      "ĠColorPicker": 4796,
      "tap": 4797,
      "yan": 4798,
      "Ġlens": 4799,
      "provider": 4800,
      "Stepper": 4801,
      "Strategy": 4802,
      "ĠToggleGroup": 4803,
      "Li": 4804,
      "Math": 4805,
      "Ġ1000": 4806,
      "ĠsetTimeout": 4807,
      "Ġexpanded": 4808,
      "Ġ'./_": 4809,
      "AppCard": 4810,
      "ĠComboboxPrimitive": 4811,
      "Ġvariable": 4812,
      "Ġnormalized": 4813,
      "ĠNextApiRequest": 4814,
      "Folder": 4815,
      "Pos": 4816,
      "Que": 4817,
      "Vue": 4818,
      "kit": 4819,
      "Ġpref": 4820,
      "opened": 4821,
      "Ġyear": 4822,
      "}`)": 4823,
      "middleware": 4824,
      "schedules": 4825,
      "Ġ22": 4826,
      "Ġalso": 4827,
      "ydration": 4828,
      "Ġdoesn": 4829,
      "][": 4830,
      "gra": 4831,
      "=\"_": 4832,
      "ĠNativeSelect": 4833,
      "Ġexists": 4834,
      "SION": 4835,
      "middle": 4836,
      "Ġqu": 4837,
      "Ġval": 4838,
      "ĠonValueChange": 4839,
      "ĠcolumnId": 4840,
      "Ġperform": 4841,
      "*/": 4842,
      "Utils": 4843,
      "orange": 4844,
      "getAll": 4845,
      "ources": 4846,
      "ensity": 4847,
      "Ġlinks": 4848,
      "Ġprevent": 4849,
      "ĠMetadata": 4850,
      "CRE": 4851,
      "Posts": 4852,
      "kg": 4853,
      "entity": 4854,
      "Ġ\"&": 4855,
      "Ġfiltered": 4856,
      "={`${": 4857,
      "ĠYou": 4858,
      "HEADER": 4859,
      "Clipboard": 4860,
      "\\\\": 4861,
      "ĠX": 4862,
      "ĠStart": 4863,
      "umm": 4864,
      "ĠClose": 4865,
      "Timeline": 4866,
      "availability": 4867,
      "ĠâĢĶ": 4868,
      "Ġinit": 4869,
      "ĠFlexRender": 4870,
      "Ġact": 4871,
      "Recurring": 4872,
      "useLocale": 4873,
      "Ġavoid": 4874,
      "ServerSideProps": 4875,
      "52": 4876,
      "-[>[": 4877,
      "AppKeys": 4878,
      "Raw": 4879,
      "multiple": 4880,
      "uide": 4881,
      "Ġ\"${": 4882,
      "rip": 4883,
      "Times": 4884,
      "Ġdirectory": 4885,
      "$/": 4886,
      "Ġreject": 4887,
      "unstable": 4888,
      "ĠModule": 4889,
      "Ġdelay": 4890,
      "NumberInput": 4891,
      "\\${": 4892,
      "ral": 4893,
      "Ġplugin": 4894,
      "Story": 4895,
      "jectable": 4896,
      "Cells": 4897,
      "ĠButtonGroup": 4898,
      "Ġxml": 4899,
      "ĠReturnType": 4900,
      "uilt": 4901,
      "OP": 4902,
      "Ġboth": 4903,
      "ĠTeam": 4904,
      "Ġtimeout": 4905,
      "ĠCardHeader": 4906,
      "ĠvarsResolver": 4907,
      "palette": 4908,
      "uz": 4909,
      "organizer": 4910,
      "Ġcopy": 4911,
      "Ġselection": 4912,
      "TriggerProps": 4913,
      "Editable": 4914,
      "rong": 4915,
      "before": 4916,
      "UBLIC": 4917,
      "ĠDEFAULT": 4918,
      "ummary": 4919,
      "IDE": 4920,
      "send": 4921,
      "{'": 4922,
      "required": 4923,
      "Ġreport": 4924,
      "Contrast": 4925,
      "ĠMemb": 4926,
      "SelectTrigger": 4927,
      "ply": 4928,
      "Links": 4929,
      "Ġdays": 4930,
      "Ġinstall": 4931,
      "DOM": 4932,
      "ness": 4933,
      "Desc": 4934,
      "ActionService": 4935,
      "ĠlibraryValue": 4936,
      "Ġour": 4937,
      "Ġfeatures": 4938,
      "Ġduring": 4939,
      "lips": 4940,
      "Ġlogo": 4941,
      "Prisma": 4942,
      "dashboard": 4943,
      "ire": 4944,
      "sx": 4945,
      "Ġ'')": 4946,
      "Ġpending": 4947,
      "Ġbetween": 4948,
      "SelectContent": 4949,
      "ContextValue": 4950,
      "Managed": 4951,
      "AsChild": 4952,
      "ocket": 4953,
      "chedulingType": 4954,
      ".`": 4955,
      "}${": 4956,
      "Ġ*:[": 4957,
      "DataSchema": 4958,
      "Ġ}));": 4959,
      "ĠMDX": 4960,
      "Ġmeeting": 4961,
      "startOf": 4962,
      "ieChart": 4963,
      "[&": 4964,
      "fixed": 4965,
      "promise": 4966,
      "[]>": 4967,
      "moved": 4968,
      "Load": 4969,
      "Office": 4970,
      "ulk": 4971,
      "ĠuseDisclosure": 4972,
      "endsWith": 4973,
      "login": 4974,
      "Ġvalidation": 4975,
      "init": 4976,
      "Ġinternal": 4977,
      "0000": 4978,
      "Ġ21": 4979,
      "END": 4980,
      "BreadcrumbItem": 4981,
      "Skip": 4982,
      "ligh": 4983,
      "ĠPortal": 4984,
      "Ġ23": 4985,
      "eventTypes": 4986,
      "existing": 4987,
      "Ġxmlns": 4988,
      "lipsis": 4989,
      "ĠAl": 4990,
      "timeZone": 4991,
      "vid": 4992,
      "Ġ\"~/": 4993,
      "Ġinside": 4994,
      "Ġ340": 4995,
      "uplicate": 4996,
      "ULE": 4997,
      "gradient": 4998,
      "Ġaspect": 4999,
      ")}</": 5000,
      "Ġbeen": 5001,
      "vars": 5002,
      "RouterState": 5003,
      "Ġopened": 5004,
      "returns": 5005,
      "Ð²": 5006,
      "ograph": 5007,
      "Http": 5008,
      "itors": 5009,
      "spacer": 5010,
      "otp": 5011,
      "ĠjustifyContent": 5012,
      "((_,": 5013,
      "ABLE": 5014,
      "Preset": 5015,
      "TFieldValues": 5016,
      "]>": 5017,
      "mui": 5018,
      "Ġbrowser": 5019,
      "dim": 5020,
      "ĠNon": 5021,
      "NoShow": 5022,
      "aper": 5023,
      "odo": 5024,
      "Ġfilters": 5025,
      "aret": 5026,
      "scale": 5027,
      "Ġ'ðŁį": 5028,
      "tes": 5029,
      "},": 5030,
      "Ġ\"-": 5031,
      "CodeBlock": 5032,
      "credentials": 5033,
      "ĠforwardAsChild": 5034,
      "Dto": 5035,
      "dge": 5036,
      "Ġcause": 5037,
      "Vertical": 5038,
      "apture": 5039,
      "Src": 5040,
      "Some": 5041,
      "Wh": 5042,
      "hide": 5043,
      "Ġtags": 5044,
      "ĠMdx": 5045,
      "Faceted": 5046,
      "Ñģ": 5047,
      "ĠNot": 5048,
      "ighligh": 5049,
      "Ġdiffer": 5050,
      "Swatch": 5051,
      "exit": 5052,
      "olate": 5053,
      "Ġstripe": 5054,
      "Ġvia": 5055,
      "plug": 5056,
      "ĠstatusCode": 5057,
      "79": 5058,
      "cer": 5059,
      "ured": 5060,
      "reating": 5061,
      "Ġsign": 5062,
      "Ġmay": 5063,
      "ĠuseRouter": 5064,
      "Ġ>,": 5065,
      "DialogPrimitive": 5066,
      "uments": 5067,
      "enums": 5068,
      "elte": 5069,
      "addEventListener": 5070,
      "svelte": 5071,
      "ĠArrow": 5072,
      "Ġallowed": 5073,
      "ĠaccessorKey": 5074,
      "Zod": 5075,
      "ik": 5076,
      "ĠContent": 5077,
      "ellow": 5078,
      "());": 5079,
      "ĠCache": 5080,
      "icky": 5081,
      "ialize": 5082,
      "Ġcould": 5083,
      "Ġcategories": 5084,
      "anchor": 5085,
      "Ġbel": 5086,
      "Ġdependencies": 5087,
      "ĠcreateContext": 5088,
      "Ġ[]);": 5089,
      "plitter": 5090,
      "Ġcorrect": 5091,
      "Lib": 5092,
      "Multiple": 5093,
      "Ġbound": 5094,
      "ĠsetData": 5095,
      "ĠFieldLabel": 5096,
      "Ġ80": 5097,
      "ĠshowToast": 5098,
      "ĠStylesApiProps": 5099,
      "uzzy": 5100,
      "900": 5101,
      "Ab": 5102,
      "CAL": 5103,
      "Uri": 5104,
      "ding": 5105,
      "flat": 5106,
      "pto": 5107,
      "private": 5108,
      "method": 5109,
      "useCallback": 5110,
      "Secret": 5111,
      "ĠWeb": 5112,
      "cremental": 5113,
      "Verify": 5114,
      "riority": 5115,
      ")[": 5116,
      "run": 5117,
      "ĠĠĠĠĠĠĠĠĠĠĠĠĠĠĠĠĠĠĠĠĠĠĠĠĠĠĠĠĠĠĠĠĠ": 5118,
      "Ġfil": 5119,
      "peat": 5120,
      "ĠCan": 5121,
      "apping": 5122,
      "Ġ`/": 5123,
      "Ġrtl": 5124,
      "ature": 5125,
      "Ark": 5126,
      "Organization": 5127,
      "ferr": 5128,
      "Responses": 5129,
      "vt": 5130,
      "Ġconnect": 5131,
      "Ġvirtual": 5132,
      "ItemProps": 5133,
      "Ġrequires": 5134,
      "TYPE": 5135,
      "ighlighter": 5136,
      "IF": 5137,
      "selector": 5138,
      "findFirst": 5139,
      "×©": 5140,
      "AppDir": 5141,
      "fields": 5142,
      "PUBLIC": 5143,
      "utm": 5144,
      "Conferencing": 5145,
      "Stringify": 5146,
      "bookingUid": 5147,
      "desc": 5148,
      "witter": 5149,
      "modal": 5150,
      "LocationType": 5151,
      "Before": 5152,
      "corative": 5153,
      "impleGrid": 5154,
      "Ġpeer": 5155,
      "82": 5156,
      "Safe": 5157,
      "]\"": 5158,
      "mm": 5159,
      "Ġgi": 5160,
      "redit": 5161,
      "Ġtranslate": 5162,
      "ĠDateStringValue": 5163,
      "Ġsegments": 5164,
      "Minutes": 5165,
      "ĠNextApiResponse": 5166,
      "49": 5167,
      "Ġpt": 5168,
      "ĠuseIs": 5169,
      "inputs": 5170,
      "Origin": 5171,
      "CircleIcon": 5172,
      "Members": 5173,
      "ography": 5174,
      "AS": 5175,
      "identifier": 5176,
      "Ġstop": 5177,
      "ĠonMouse": 5178,
      "toISO": 5179,
      "TimeZone": 5180,
      "Ġextract": 5181,
      "Spacing": 5182,
      "Ġcalled": 5183,
      "Ġviewport": 5184,
      "aginatedRowModel": 5185,
      "anced": 5186,
      "confirm": 5187,
      "opied": 5188,
      "------------": 5189,
      "holid": 5190,
      "Opts": 5191,
      "ĠgoTo": 5192,
      "'re": 5193,
      "Ġass": 5194,
      "ĠPl": 5195,
      "Ġunique": 5196,
      "emails": 5197,
      "Ġ147": 5198,
      "webpack": 5199,
      "Ġsorting": 5200,
      "orphic": 5201,
      "Mutate": 5202,
      "Non": 5203,
      "window": 5204,
      "Ġet": 5205,
      "rides": 5206,
      "Ġmissing": 5207,
      "Ġhex": 5208,
      "ĠFloating": 5209,
      "Resizable": 5210,
      "Ġcontains": 5211,
      "ĠCardTitle": 5212,
      "Ġbased": 5213,
      "Ġperiod": 5214,
      "Verified": 5215,
      "800": 5216,
      "Ġsidebar": 5217,
      "ĠclientId": 5218,
      "cards": 5219,
      "Legacy": 5220,
      "variable": 5221,
      "Queue": 5222,
      "reason": 5223,
      "Ġ120": 5224,
      "Ġ[])": 5225,
      "cei": 5226,
      "observer": 5227,
      "cluded": 5228,
      "Ġcommand": 5229,
      "Ġprerender": 5230,
      "Matcher": 5231,
      "CSSProperties": 5232,
      "Package": 5233,
      "TRouter": 5234,
      "Ġrect": 5235,
      "getInputProps": 5236,
      "ĠRed": 5237,
      "findUnique": 5238,
      "ArrowUp": 5239,
      "Sm": 5240,
      "go": 5241,
      "Ġnavig": 5242,
      "ArrowLeft": 5243,
      "à¥į": 5244,
      "avorite": 5245,
      "(({": 5246,
      ")'": 5247,
      "Rem": 5248,
      "Ġdatabase": 5249,
      "ĠDis": 5250,
      "Product": 5251,
      "ColorScheme": 5252,
      "Ġsubmit": 5253,
      "ince": 5254,
      "Repo": 5255,
      "QueryResult": 5256,
      "Ġ():": 5257,
      "FormValues": 5258,
      "180": 5259,
      "ĠcustomClassNames": 5260,
      "(${": 5261,
      "CTION": 5262,
      "shift": 5263,
      "ĠVer": 5264,
      "ĠChartConfig": 5265,
      "CE": 5266,
      "ming": 5267,
      "External": 5268,
      "ListItem": 5269,
      "AndS": 5270,
      "Ġthan": 5271,
      "Ġunder": 5272,
      "ĠCardDescription": 5273,
      "Ġadded": 5274,
      "Nullable": 5275,
      "Specifier": 5276,
      "Like": 5277,
      "×Ĳ": 5278,
      "atest": 5279,
      "Ġforce": 5280,
      "Controlled": 5281,
      "tailwind": 5282,
      "ÙĤ": 5283,
      "storage": 5284,
      "Ġbl": 5285,
      "Stage": 5286,
      "endTime": 5287,
      "Ġ`,": 5288,
      "ĠeventId": 5289,
      "Verification": 5290,
      "Autocomplete": 5291,
      "WithoutRef": 5292,
      "Book": 5293,
      "merge": 5294,
      "nap": 5295,
      "ooo": 5296,
      "Ġmiddleware": 5297,
      "reduce": 5298,
      "omatic": 5299,
      "Ġmember": 5300,
      "recipes": 5301,
      "ping": 5302,
      "leme": 5303,
      "Ġneeded": 5304,
      "ĠHome": 5305,
      "ATION": 5306,
      "ReturnType": 5307,
      "lemetry": 5308,
      "Ġfailed": 5309,
      "Inner": 5310,
      "ĠTheme": 5311,
      "bound": 5312,
      "ĠResponse": 5313,
      "ynt": 5314,
      "Parser": 5315,
      "pose": 5316,
      "PreviousPage": 5317,
      "Ġbar": 5318,
      "ComponentPropsWithoutRef": 5319,
      "TabsTrigger": 5320,
      "Fetching": 5321,
      "Ø¨": 5322,
      "Seat": 5323,
      "verted": 5324,
      "Connected": 5325,
      "ĠWatchlist": 5326,
      "Ġemails": 5327,
      "Ġimports": 5328,
      "Layouts": 5329,
      "legend": 5330,
      "lis": 5331,
      "Ġqueue": 5332,
      "aced": 5333,
      "append": 5334,
      "365": 5335,
      "Spinner": 5336,
      "total": 5337,
      "HomePage": 5338,
      "ItemGroup": 5339,
      "overflow": 5340,
      "ĠbookingId": 5341,
      "Teams": 5342,
      "Ġelements": 5343,
      "mono": 5344,
      "property": 5345,
      "Background": 5346,
      "Ø³": 5347,
      "âĢ": 5348,
      "Seconds": 5349,
      "ryRun": 5350,
      "ĠcreatedAt": 5351,
      "Direct": 5352,
      "Obj": 5353,
      "ĠleftSection": 5354,
      "Usage": 5355,
      "ĠOnly": 5356,
      ">âĮĺ": 5357,
      "Im": 5358,
      "MR": 5359,
      "acts": 5360,
      "cade": 5361,
      "Gener": 5362,
      "Guests": 5363,
      "Pattern": 5364,
      "ĠOAuth": 5365,
      "ĠInst": 5366,
      "findMany": 5367,
      "Dirty": 5368,
      "001": 5369,
      "Ġrandom": 5370,
      "Move": 5371,
      "ĠShow": 5372,
      "umeric": 5373,
      "59": 5374,
      "Build": 5375,
      "ableStream": 5376,
      "Ġhosts": 5377,
      "ĠUI": 5378,
      "Ġ->": 5379,
      "ĠcalEvent": 5380,
      "rel": 5381,
      "Ġsystem": 5382,
      "Ġsingle": 5383,
      "Ġhow": 5384,
      "ĠAuth": 5385,
      "scrollbar": 5386,
      "pha": 5387,
      "ALEND": 5388,
      "Ctx": 5389,
      "Pol": 5390,
      "Warning": 5391,
      "Init": 5392,
      "TableBody": 5393,
      "eep": 5394,
      "strument": 5395,
      "ĠPrismaClient": 5396,
      "89": 5397,
      "ster": 5398,
      "OfOffice": 5399,
      "entication": 5400,
      "Age": 5401,
      "ASE": 5402,
      "\\`,": 5403,
      "Ġconfirm": 5404,
      "dio": 5405,
      "Inputs": 5406,
      "Ġhash": 5407,
      "Ġactions": 5408,
      "booker": 5409,
      "admin": 5410,
      "Regex": 5411,
      "validation": 5412,
      "ITE": 5413,
      "Ġexpand": 5414,
      "53": 5415,
      "Tim": 5416,
      "fallback": 5417,
      "Ġinterval": 5418,
      "orders": 5419,
      "Ġease": 5420,
      "Tokens": 5421,
      "AuditActionService": 5422,
      "LocalNames": 5423,
      "tight": 5424,
      "42": 5425,
      "isPending": 5426,
      "copy": 5427,
      "verse": 5428,
      "SelectGroup": 5429,
      "Ġevery": 5430,
      "ĠtableFeatures": 5431,
      "filePath": 5432,
      "Parsed": 5433,
      "variance": 5434,
      "authority": 5435,
      "%\",": 5436,
      "iction": 5437,
      "Ġmatches": 5438,
      "ĠFetch": 5439,
      "ĠCalled": 5440,
      "CodeHighlight": 5441,
      "PickerInput": 5442,
      "attributes": 5443,
      "filters": 5444,
      "FileSync": 5445,
      "InputGroupButton": 5446,
      "Ġcached": 5447,
      "Layer": 5448,
      "Ġ{!": 5449,
      "Ġcookies": 5450,
      "reser": 5451,
      "Proxy": 5452,
      "ĠcolorPalette": 5453,
      "PageParam": 5454,
      "Ġpaths": 5455,
      "struct": 5456,
      "packages": 5457,
      "Ready": 5458,
      "itesp": 5459,
      "Ġonce": 5460,
      "DropdownMenuSeparator": 5461,
      "CalendarService": 5462,
      "tives": 5463,
      "toBeVisible": 5464,
      "Assignment": 5465,
      "itespace": 5466,
      ")),": 5467,
      "Part": 5468,
      "TER": 5469,
      "mobile": 5470,
      "rab": 5471,
      "Ġsave": 5472,
      "FieldContent": 5473,
      "Connection": 5474,
      "DropdownMenuPrimitive": 5475,
      "Opacity": 5476,
      "ĠWrapper": 5477,
      "Ġpb": 5478,
      "Ġaxis": 5479,
      "ĠuseQuery": 5480,
      "Ġexec": 5481,
      "Ġprotected": 5482,
      "AreaChart": 5483,
      "ĠalignOffset": 5484,
      "ĠScheduleEventData": 5485,
      "Ġdifferent": 5486,
      "toISOString": 5487,
      "71": 5488,
      "MB": 5489,
      "iff": 5490,
      "ressed": 5491,
      "ĠappId": 5492,
      "ĠBoolean": 5493,
      "lyra": 5494,
      "InputGroupInput": 5495,
      "Ġ151": 5496,
      "WeekView": 5497,
      "'];": 5498,
      "Ġ<=": 5499,
      "adRequest": 5500,
      "icy": 5501,
      "ĠClient": 5502,
      "Resolved": 5503,
      "ĠRemove": 5504,
      "%)\",": 5505,
      "iness": 5506,
      "ĠNew": 5507,
      "Ġ180": 5508,
      "cessed": 5509,
      "Missing": 5510,
      "curr": 5511,
      "wise": 5512,
      "ameter": 5513,
      "Ġsync": 5514,
      "setPage": 5515,
      "Ext": 5516,
      "hold": 5517,
      "Ġspecific": 5518,
      "69": 5519,
      "Dem": 5520,
      "currency": 5521,
      "prefix": 5522,
      "messages": 5523,
      "ubble": 5524,
      "ĠSelectPrimitive": 5525,
      "ĠbackgroundColor": 5526,
      "ĠregistryDependencies": 5527,
      "Ġgiven": 5528,
      "Func": 5529,
      "Ġtoday": 5530,
      "Ġenum": 5531,
      "tify": 5532,
      "Ġ145": 5533,
      "Ġtransformer": 5534,
      "Membership": 5535,
      "templates": 5536,
      "MENT": 5537,
      "ĠĠĠĠĠĠĠĠĠĠĠĠĠĠĠĠĠĠĠĠĠĠĠĠĠĠĠĠĠĠĠĠĠĠĠ": 5538,
      "record": 5539,
      "Ġsee": 5540,
      "gistries": 5541,
      "tiptap": 5542,
      "alk": 5543,
      "odd": 5544,
      "ĠScope": 5545,
      "queryClient": 5546,
      "configurator": 5547,
      "Ġoutside": 5548,
      "ĠcalendarId": 5549,
      "=\"#\">": 5550,
      "Ġabout": 5551,
      "Gradient": 5552,
      "IE": 5553,
      "LL": 5554,
      "Parts": 5555,
      "square": 5556,
      "Ġstill": 5557,
      "Contact": 5558,
      "ĠisMobile": 5559,
      "toDate": 5560,
      "waitFor": 5561,
      "validator": 5562,
      "ĠDropdownMenuContent": 5563,
      "Ġcontroller": 5564,
      "instant": 5565,
      "lag": 5566,
      "tice": 5567,
      "Ġ/>}>": 5568,
      "aller": 5569,
      "ĠappConfig": 5570,
      "ĠborderColor": 5571,
      "ĠSearch": 5572,
      "Ġinstant": 5573,
      "aterThan": 5574,
      "crypt": 5575,
      "Ġutils": 5576,
      "Ġsizes": 5577,
      "useRef": 5578,
      "83": 5579,
      "ltr": 5580,
      "preact": 5581,
      "Ġsure": 5582,
      "ĠzIndex": 5583,
      "Ġ146": 5584,
      "ights": 5585,
      "Ġteams": 5586,
      "Ġneeds": 5587,
      "aracters": 5588,
      "Ġqueries": 5589,
      "Border": 5590,
      "TS": 5591,
      "ium": 5592,
      "sw": 5593,
      "Ð¿": 5594,
      "ero": 5595,
      "ato": 5596,
      "Ġhsl": 5597,
      "Ġlines": 5598,
      "TableOptions": 5599,
      "ĠIN": 5600,
      "ĠfilterFn": 5601,
      "Shadow": 5602,
      "ĠChange": 5603,
      "Ġ156": 5604,
      "ACK": 5605,
      "justify": 5606,
      "Mounted": 5607,
      "63": 5608,
      "azy": 5609,
      "ollow": 5610,
      "Ġwrapper": 5611,
      "Listbox": 5612,
      "updated": 5613,
      "ĠqueryFn": 5614,
      "ĠInputOTP": 5615,
      "Spotlight": 5616,
      "Ġfinal": 5617,
      "deps": 5618,
      "otal": 5619,
      "OrEqual": 5620,
      "Setup": 5621,
      "Aut": 5622,
      "UP": 5623,
      "cated": 5624,
      "×Ĺ": 5625,
      "eral": 5626,
      "plan": 5627,
      "Ġleg": 5628,
      "ĠstartDate": 5629,
      "HTMLInputElement": 5630,
      "Ġdisplayed": 5631,
      "cellation": 5632,
      "Collapse": 5633,
      "where": 5634,
      "ALI": 5635,
      "FOR": 5636,
      "Play": 5637,
      "categories": 5638,
      "Ġ{})": 5639,
      "ret": 5640,
      "alic": 5641,
      "expect": 5642,
      "Ġreturns": 5643,
      "portal": 5644,
      "ĠTags": 5645,
      "cripts": 5646,
      "Ġdepth": 5647,
      "IsBoolean": 5648,
      "Viewer": 5649,
      "ployment": 5650,
      "caption": 5651,
      "even": 5652,
      "rites": 5653,
      "={({": 5654,
      "reshold": 5655,
      "Ġgrouped": 5656,
      "ĠsetActive": 5657,
      "storybook": 5658,
      "HiddenInput": 5659,
      "81": 5660,
      "Graph": 5661,
      "VENT": 5662,
      "goto": 5663,
      "Ġjson": 5664,
      "inherit": 5665,
      "ĠAtt": 5666,
      "Ġrx": 5667,
      "Plan": 5668,
      "Hours": 5669,
      "cyan": 5670,
      "ĨĴ": 5671,
      "orem": 5672,
      "anger": 5673,
      "Ġred": 5674,
      "ĠgetDefault": 5675,
      "ĠOver": 5676,
      "ĠfilterValue": 5677,
      "Unstyled": 5678,
      "StackFrame": 5679,
      "Ġ149": 5680,
      "Installed": 5681,
      "Ġ×Ķ": 5682,
      "×ķ×ª": 5683,
      "Ġspacing": 5684,
      "(:": 5685,
      "Support": 5686,
      "routes": 5687,
      "Ġrecord": 5688,
      "Ġms": 5689,
      "DataTable": 5690,
      "Ġprovider": 5691,
      "ensitive": 5692,
      "ArrowRightIcon": 5693,
      "Ġnotifications": 5694,
      "ĠTextInput": 5695,
      "ĠMeta": 5696,
      "Modules": 5697,
      "You": 5698,
      "yellow": 5699,
      "hea": 5700,
      "ĠFlight": 5701,
      "ases": 5702,
      "Ġ}):": 5703,
      "Ġ`<": 5704,
      "ContentProps": 5705,
      "avel": 5706,
      "Ġ160": 5707,
      "ĠContextMenuPrimitive": 5708,
      "Ġmove": 5709,
      "Dots": 5710,
      "Ġagain": 5711,
      "Price": 5712,
      "Caret": 5713,
      "ØŃ": 5714,
      "Ġsymbol": 5715,
      "}>;": 5716,
      "DropdownMenuLabel": 5717,
      "merica": 5718,
      "CLI": 5719,
      "dot": 5720,
      "free": 5721,
      "feature": 5722,
      "mic": 5723,
      "Ġrespon": 5724,
      "ĠuseCombobox": 5725,
      "agation": 5726,
      "Ġparts": 5727,
      "ĠLayout": 5728,
      "ĠDropdownMenuTrigger": 5729,
      "Ġadditional": 5730,
      "Ġdispatch": 5731,
      "Fragment": 5732,
      "Symbol": 5733,
      "\\.": 5734,
      "ĠisValid": 5735,
      "FilteredRowModel": 5736,
      "notifications": 5737,
      "Parse": 5738,
      "ĠTextarea": 5739,
      "ĠNumberInput": 5740,
      "ĠMembership": 5741,
      "part": 5742,
      "ĠEmail": 5743,
      "Ġtake": 5744,
      "Ġ/*": 5745,
      "Ġthrough": 5746,
      "Channel": 5747,
      "../../": 5748,
      "Ġ148": 5749,
      "ĠMenuPrimitive": 5750,
      "domain": 5751,
      "Branding": 5752,
      "corators": 5753,
      "OrEqualTo": 5754,
      "gers": 5755,
      "usiness": 5756,
      "Ġ'@/": 5757,
      "Connect": 5758,
      "Ġ157": 5759,
      "NavigationMenuPrimitive": 5760,
      "cc": 5761,
      "cimal": 5762,
      "onSubmit": 5763,
      "Ġcurrency": 5764,
      "selection": 5765,
      "Ġ));": 5766,
      "Nodes": 5767,
      "ĠInfinite": 5768,
      "Ġsubscription": 5769,
      "ICE": 5770,
      "!.": 5771,
      "tags": 5772,
      "Ġedge": 5773,
      "Icons": 5774,
      "ird": 5775,
      "ĠGoogle": 5776,
      "LineChart": 5777,
      "InputOTPSlot": 5778,
      "MutateResult": 5779,
      "HOOK": 5780,
      "×ĳ": 5781,
      "enari": 5782,
      "ĠTVariables": 5783,
      "Ġrendering": 5784,
      "Override": 5785,
      "Send": 5786,
      "Typ": 5787,
      "meeting": 5788,
      "pear": 5789,
      "coss": 5790,
      "Ġ[{": 5791,
      "ĠappKeys": 5792,
      "QueryKey": 5793,
      "Ġcalc": 5794,
      "rhea": 5795,
      "Ġcard": 5796,
      "Ġmx": 5797,
      "Ġuses": 5798,
      "('/": 5799,
      "Ġlabels": 5800,
      "Unknown": 5801,
      "quires": 5802,
      "Ġattribute": 5803,
      "RowsSelected": 5804,
      "Login": 5805,
      "Ġmount": 5806,
      "%\"": 5807,
      "Banner": 5808,
      "iggers": 5809,
      "Seated": 5810,
      "Exist": 5811,
      "ĠNav": 5812,
      "ĠNextResponse": 5813,
      "skip": 5814,
      "phone": 5815,
      "ĠlineHeight": 5816,
      "viders": 5817,
      "eners": 5818,
      "Ġbeing": 5819,
      ">([": 5820,
      "Address": 5821,
      "CheckedChange": 5822,
      "Ġperformance": 5823,
      "ĠNonNullable": 5824,
      "BOOKING": 5825,
      "Past": 5826,
      "Rating": 5827,
      "]\",": 5828,
      "ga": 5829,
      "non": 5830,
      "npm": 5831,
      "Ġprimary": 5832,
      "ĠRegistry": 5833,
      "Ġseats": 5834,
      "ĠBadRequest": 5835,
      "TableDevtools": 5836,
      "ference": 5837,
      "Ġmanifest": 5838,
      "MAN": 5839,
      "apple": 5840,
      "ColumnFilter": 5841,
      "Undefined": 5842,
      "Ġ140": 5843,
      "ĠAPP": 5844,
      "bounce": 5845,
      "grade": 5846,
      "ĠBadRequestException": 5847,
      "Edge": 5848,
      "Gre": 5849,
      "TE": 5850,
      "Ġim": 5851,
      "ands": 5852,
      "Ġ255": 5853,
      "raft": 5854,
      "SelectedCalendar": 5855,
      "Expose": 5856,
      "precated": 5857,
      "Ġcalendars": 5858,
      ")</": 5859,
      "TI": 5860,
      "Ġconnection": 5861,
      "ĠNEXT": 5862,
      "HeaderGroups": 5863,
      "collection": 5864,
      "ĠhandleSubmit": 5865,
      "Ġ**:": 5866,
      "rm": 5867,
      "ĠTOn": 5868,
      "...</": 5869,
      "ĠMan": 5870,
      "lying": 5871,
      "Opt": 5872,
      "One": 5873,
      "Scheduled": 5874,
      "Ġarrow": 5875,
      "ĠStylesApiData": 5876,
      "Ġ--------------------------------------------------------------------------------": 5877,
      "Es": 5878,
      "Ġoptional": 5879,
      "Ġvideo": 5880,
      "GroupProps": 5881,
      "Ġheading": 5882,
      "ĠCardFooter": 5883,
      "985": 5884,
      "ĠResizable": 5885,
      "GlobalFilter": 5886,
      "holiday": 5887,
      "ber": 5888,
      "cap": 5889,
      "andard": 5890,
      "ItemTitle": 5891,
      "ĠAd": 5892,
      "prismaClient": 5893,
      "ferrer": 5894,
      "evenodd": 5895,
      "DryRun": 5896,
      "mas": 5897,
      "Ã¤": 5898,
      "Ġà¤": 5899,
      "Ġoklch": 5900,
      "integrations": 5901,
      "Ġintegration": 5902,
      "Ġtrace": 5903,
      "TriggerEvents": 5904,
      "2050": 5905,
      "FromValues": 5906,
      "ĠDropdownMenuItem": 5907,
      "Notifications": 5908,
      "(-": 5909,
      "43": 5910,
      "Cookies": 5911,
      "Schedules": 5912,
      "Tick": 5913,
      "pref": 5914,
      "erred": 5915,
      "Ġcwd": 5916,
      "Revalidate": 5917,
      "istic": 5918,
      "ĠisPending": 5919,
      "sideOffset": 5920,
      "transformer": 5921,
      "Ġ--------------------------------------------------------------------------------------------": 5922,
      "41": 5923,
      ":${": 5924,
      "Vary": 5925,
      "uro": 5926,
      "Ġtemp": 5927,
      "Ġreplace": 5928,
      "apos": 5929,
      "esian": 5930,
      "artesian": 5931,
      "Ġlock": 5932,
      "ĠHandle": 5933,
      "ChartContainer": 5934,
      "ĠQueryObserver": 5935,
      "member": 5936,
      ")`,": 5937,
      "present": 5938,
      "the": 5939,
      "require": 5940,
      "ĠrecurringEvent": 5941,
      "Ġtheir": 5942,
      "ĠuseRender": 5943,
      "ĠmaxW": 5944,
      "Ġ143": 5945,
      "UnstyledButton": 5946,
      "BAR": 5947,
      "()).": 5948,
      "ĠDocument": 5949,
      "resize": 5950,
      "oreferrer": 5951,
      "Ġorganizer": 5952,
      "Ġwhitespace": 5953,
      "ApiKey": 5954,
      "strict": 5955,
      "filterValue": 5956,
      "Ġ144": 5957,
      "Ġcollect": 5958,
      "Ġ',": 5959,
      "Ġ(...": 5960,
      "ĠFeature": 5961,
      "Ġcannot": 5962,
      "999": 5963,
      "ĠDialogPrimitive": 5964,
      "Ġmonths": 5965,
      "Attrs": 5966,
      "utc": 5967,
      "Ġexplicit": 5968,
      "ĠendDate": 5969,
      "ĠKbd": 5970,
      "termines": 5971,
      "ĠTokens": 5972,
      "yntax": 5973,
      "ĠTOnMutateResult": 5974,
      "lice": 5975,
      "oh": 5976,
      "Ñĥ": 5977,
      "wag": 5978,
      "RadioCard": 5979,
      "Transformed": 5980,
      "oliday": 5981,
      "Ġcollection": 5982,
      "Ġdirectly": 5983,
      "WEBAPP": 5984,
      "Ùĩ": 5985,
      "spinner": 5986,
      "Editing": 5987,
      "SectionMode": 5988,
      "literal": 5989,
      "price": 5990,
      "Lines": 5991,
      "cmd": 5992,
      "Ġxl": 5993,
      "anuary": 5994,
      "ĠonCheckedChange": 5995,
      "2025": 5996,
      "ĠHttpError": 5997,
      "ĠTagsInput": 5998,
      "Go": 5999,
      "hot": 6000,
      "rary": 6001,
      "ĠIconPlaceholder": 6002,
      "ira": 6003,
      "Ġdesc": 6004,
      "undle": 6005,
      "ippe": 6006,
      "Ġminutes": 6007,
      "arsList": 6008,
      "AvatarImage": 6009,
      "Ġvariables": 6010,
      "sorting": 6011,
      "wagger": 6012,
      "Fixed": 6013,
      "nippe": 6014,
      "rich": 6015,
      "ye": 6016,
      "decl": 6017,
      "Ġconse": 6018,
      "Ġbook": 6019,
      "oft": 6020,
      "trace": 6021,
      "agraph": 6022,
      "ĠNOT": 6023,
      "OrFunc": 6024,
      "Ġatom": 6025,
      "ĠProject": 6026,
      "Promises": 6027,
      "POST": 6028,
      "Strict": 6029,
      "FromValuesOrFunc": 6030,
      "Iter": 6031,
      "Save": 6032,
      "pa": 6033,
      "Interface": 6034,
      "Ġ).": 6035,
      "ĠACTION": 6036,
      "clamp": 6037,
      "indexOf": 6038,
      "timezone": 6039,
      "Ġplan": 6040,
      "uffle": 6041,
      "Rescheduled": 6042,
      "veloper": 6043,
      "gregation": 6044,
      "Ġbelow": 6045,
      "Directory": 6046,
      "*:": 6047,
      ">>,": 6048,
      "gn": 6049,
      "inc": 6050,
      "rie": 6051,
      "Ġhapp": 6052,
      "etter": 6053,
      "ĠBlock": 6054,
      "ressTest": 6055,
      "fully": 6056,
      "ĠborderWidth": 6057,
      "mutate": 6058,
      "Ġparallel": 6059,
      "found": 6060,
      "VarsResolver": 6061,
      "MemberExpression": 6062,
      "voice": 6063,
      "Branch": 6064,
      "Factor": 6065,
      "Total": 6066,
      "pb": 6067,
      "vh": 6068,
      "getRowModel": 6069,
      "ĠMo": 6070,
      "ĠWork": 6071,
      "HTMLButtonElement": 6072,
      "Detection": 6073,
      "ĠâĨĴ": 6074,
      "manifest": 6075,
      "Fil": 6076,
      "Numbers": 6077,
      "PR": 6078,
      "Ġremoved": 6079,
      "conferencing": 6080,
      "verify": 6081,
      "[]):": 6082,
      "ĠRichTextEditor": 6083,
      "Ġoverride": 6084,
      "urope": 6085,
      "](": 6086,
      "iti": 6087,
      "acc": 6088,
      "Ġdrop": 6089,
      "ĠuseChart": 6090,
      "ĠAuto": 6091,
      "ĠArea": 6092,
      "ĠMaybe": 6093,
      "Segments": 6094,
      "Ġdevtools": 6095,
      "removeEventListener": 6096,
      "FC": 6097,
      "Family": 6098,
      "Normal": 6099,
      "Public": 6100,
      "nb": 6101,
      "ores": 6102,
      "integration": 6103,
      "Ġreg": 6104,
      "Ġconnected": 6105,
      "Idx": 6106,
      "ĠisLoading": 6107,
      "pcSession": 6108,
      "ĠReturns": 6109,
      "================================": 6110,
      "ALENDAR": 6111,
      "pcSessionUser": 6112,
      "IAL": 6113,
      "TanStack": 6114,
      "seats": 6115,
      "Ġphone": 6116,
      "ife": 6117,
      "Ġinformation": 6118,
      "Ġthese": 6119,
      "ItemDescription": 6120,
      "osite": 6121,
      "Ġself": 6122,
      "PORT": 6123,
      "organizationId": 6124,
      "agnost": 6125,
      "ĠdistDir": 6126,
      "Actor": 6127,
      "gen": 6128,
      "sInput": 6129,
      "inue": 6130,
      "Ġnested": 6131,
      "console": 6132,
      "Tools": 6133,
      "FieldArray": 6134,
      "Depth": 6135,
      "Ġlook": 6136,
      "ĠflexDirection": 6137,
      "UpIcon": 6138,
      "ĠstylesNames": 6139,
      "ydrate": 6140,
      "signup": 6141,
      "Language": 6142,
      "onner": 6143,
      "arter": 6144,
      "Ġrest": 6145,
      "Inset": 6146,
      "ĠTPageParam": 6147,
      "Ġavailability": 6148,
      "ĠDi": 6149,
      "ĠAssign": 6150,
      "ĠPer": 6151,
      "truncate": 6152,
      "]:-": 6153,
      "modifiers": 6154,
      "ĠChartTooltip": 6155,
      "staticSelector": 6156,
      "products": 6157,
      "ĠUsage": 6158,
      "LeafColumns": 6159,
      "focused": 6160,
      "ulator": 6161,
      "Ġsplit": 6162,
      "Ġthumb": 6163,
      "Trace": 6164,
      "uggest": 6165,
      "Ġchakra": 6166,
      "axed": 6167,
      "Ġ{}),": 6168,
      "Ġ158": 6169,
      "ĠFieldGroup": 6170,
      "ĠworkUnitStore": 6171,
      "UTH": 6172,
      "ously": 6173,
      "napsh": 6174,
      "CLIENT": 6175,
      "ĠQ": 6176,
      "ĠYear": 6177,
      "report": 6178,
      "ĠSpan": 6179,
      "ĠSkip": 6180,
      "QueryObserver": 6181,
      "**:": 6182,
      "ĠDetermines": 6183,
      "Allow": 6184,
      "relaxed": 6185,
      "Flight": 6186,
      "az": 6187,
      "fn": 6188,
      "Î±": 6189,
      "Ð´": 6190,
      "Ġclip": 6191,
      "come": 6192,
      "rowModels": 6193,
      "ToDelete": 6194,
      "Ġsecondary": 6195,
      "Ġshared": 6196,
      "Elements": 6197,
      "ĠcolumnDef": 6198,
      "Leave": 6199,
      "within": 6200,
      "PinInput": 6201,
      "FullScreen": 6202,
      "ĠSpotlight": 6203,
      "DB": 6204,
      "ld": 6205,
      "osed": 6206,
      "rIncludes": 6207,
      "ense": 6208,
      "char": 6209,
      "Ġamount": 6210,
      "ĠHMR": 6211,
      "ĠSee": 6212,
      "ĠfilePath": 6213,
      "PopoverContent": 6214,
      "Ġ'ðŁ¥": 6215,
      "Agent": 6216,
      ")?.": 6217,
      "Core": 6218,
      "ru": 6219,
      "atio": 6220,
      "details": 6221,
      "ĠTitle": 6222,
      "ĠSymbol": 6223,
      "ĠcreateVarsResolver": 6224,
      "Ġpreset": 6225,
      "Google": 6226,
      "men": 6227,
      "sumer": 6228,
      "Ð»": 6229,
      "Ġoc": 6230,
      "ĠHead": 6231,
      "Ġcx": 6232,
      "uture": 6233,
      "Ġstale": 6234,
      "ĠMulti": 6235,
      "ĠAppShell": 6236,
      "ĠFieldDescription": 6237,
      "teams": 6238,
      "olym": 6239,
      "Ġ-----------------------------------------------------------------------------------------------": 6240,
      "loat": 6241,
      "RowSelection": 6242,
      "\")).": 6243,
      "ĠLine": 6244,
      "Divider": 6245,
      "Ġ154": 6246,
      "Overflow": 6247,
      "ThemeColor": 6248,
      "ĠLoader": 6249,
      "ĠsafeStringify": 6250,
      "Between": 6251,
      "Mon": 6252,
      "Ġes": 6253,
      "ĠDo": 6254,
      "resence": 6255,
      "ither": 6256,
      "-[>": 6257,
      "Ġloader": 6258,
      "ĠHTTP": 6259,
      "Ġ600": 6260,
      "Permission": 6261,
      "canvas": 6262,
      "corativeBox": 6263,
      "MIN": 6264,
      "peer": 6265,
      "ilent": 6266,
      "ĠuseTable": 6267,
      "ĠtextAlign": 6268,
      "subscription": 6269,
      "ATE": 6270,
      "REQU": 6271,
      "ĠAttendee": 6272,
      "nbsp": 6273,
      "!,": 6274,
      "GLE": 6275,
      "flic": 6276,
      "Ġremain": 6277,
      "=\"-": 6278,
      "ĠAST": 6279,
      "Ġbehavior": 6280,
      "ixt": 6281,
      "Ġ[&_.": 6282,
      "erships": 6283,
      "Ġactual": 6284,
      "aut": 6285,
      "rule": 6286,
      "swagger": 6287,
      "Ã¡": 6288,
      "Ġ\"ðŁ": 6289,
      "Ġgener": 6290,
      "ĠHStack": 6291,
      "Propagation": 6292,
      "Angle": 6293,
      "ĠApiProperty": 6294,
      "currence": 6295,
      "pink": 6296,
      "posts": 6297,
      "toc": 6298,
      "zz": 6299,
      "Ġ'`": 6300,
      "icial": 6301,
      "loaded": 6302,
      "Ġdolor": 6303,
      "ĠMe": 6304,
      "avicon": 6305,
      "ĠBuild": 6306,
      "compiled": 6307,
      "Ġformatted": 6308,
      "Throw": 6309,
      "SortedRowModel": 6310,
      "cmdk": 6311,
      ".'": 6312,
      "Ġignore": 6313,
      "ely": 6314,
      "()`": 6315,
      "connected": 6316,
      "Ġhandlers": 6317,
      "ValueText": 6318,
      "roller": 6319,
      "Declar": 6320,
      "ClientError": 6321,
      "Ġinstalled": 6322,
      "Ġaddress": 6323,
      "Ġ90": 6324,
      "ĠWebhookTriggerEvents": 6325,
      "Where": 6326,
      "olymorphic": 6327,
      "PaginatedRowModel": 6328,
      "recurringEvent": 6329,
      "asc": 6330,
      "aspect": 6331,
      "HeaderComponents": 6332,
      "Radial": 6333,
      "createdAt": 6334,
      "clientId": 6335,
      "ĠDropdownMenuPrimitive": 6336,
      "ĠCheckIcon": 6337,
      "Ġ\\`\\${": 6338,
      "ositeChart": 6339,
      "Flex": 6340,
      "Marquee": 6341,
      "useMemo": 6342,
      "Ġlang": 6343,
      "ĠsetDate": 6344,
      "minutes": 6345,
      "SelectedOption": 6346,
      "othing": 6347,
      "nullable": 6348,
      "Ġchunks": 6349,
      "reditCard": 6350,
      ">((": 6351,
      "URI": 6352,
      "browser": 6353,
      "à¹": 6354,
      "Ġap": 6355,
      "stro": 6356,
      "utral": 6357,
      "Ġresize": 6358,
      "Ġclone": 6359,
      "ĠTest": 6360,
      "ĠStep": 6361,
      "ĠCommandPrimitive": 6362,
      "ĠSidebarMenuSub": 6363,
      "ĠCodeBlock": 6364,
      "uilder": 6365,
      "Demos": 6366,
      "ARE": 6367,
      "Europe": 6368,
      "shell": 6369,
      "Ġfixed": 6370,
      "Ġ\"\")": 6371,
      "Ġ('": 6372,
      "Ġpresent": 6373,
      "owner": 6374,
      "ĠgetStyles": 6375,
      "ailing": 6376,
      "mantinedev": 6377,
      "Ġparameter": 6378,
      "FileUpload": 6379,
      "blur": 6380,
      "Ġ190": 6381,
      "COL": 6382,
      "Ġimplements": 6383,
      "Ġ-----------------------------------------------------------------------------------------------*/": 6384,
      ".*": 6385,
      "gExp": 6386,
      "uD": 6387,
      "Ġ%": 6388,
      "tick": 6389,
      "une": 6390,
      "Ġreturned": 6391,
      "ĠuseSidebar": 6392,
      "Ġiss": 6393,
      "ĠgetServer": 6394,
      "psum": 6395,
      "FilteringFeature": 6396,
      "Learn": 6397,
      "FilePath": 6398,
      "DayOfWeek": 6399,
      "NotEmpty": 6400,
      ".',": 6401,
      ">();": 6402,
      "Cursor": 6403,
      "mos": 6404,
      "Õ¡": 6405,
      "isMobile": 6406,
      "Ġmigr": 6407,
      "setOpen": 6408,
      "Ġsecret": 6409,
      "Ġ!=": 6410,
      "Changes": 6411,
      "ColumnFilters": 6412,
      "ĠHTMLInputElement": 6413,
      "icture": 6414,
      "Localization": 6415,
      "Chunks": 6416,
      "dimmed": 6417,
      "ConferencingApp": 6418,
      "FO": 6419,
      "circle": 6420,
      "lum": 6421,
      "wright": 6422,
      "Ġfavorite": 6423,
      "Ġmulti": 6424,
      "ĠCl": 6425,
      "Ġgradient": 6426,
      "Keyboard": 6427,
      "ClientId": 6428,
      "ContextMenuGroup": 6429,
      "PopoverTrigger": 6430,
      "Space": 6431,
      "Created": 6432,
      "ĠSidebarMenuItem": 6433,
      "ĠSidebarMenuButton": 6434,
      "membership": 6435,
      "exists": 6436,
      "IFEST": 6437,
      "Iss": 6438,
      "dProps": 6439,
      "Ġ}]": 6440,
      "orth": 6441,
      "isActive": 6442,
      "Ġsince": 6443,
      "(\"\\": 6444,
      "ĠgetUser": 6445,
      "ĠforwardRef": 6446,
      "Locations": 6447,
      "SidebarMenuSub": 6448,
      "PerTimeSlot": 6449,
      "×¤": 6450,
      "Ġ]);": 6451,
      "Ġfollow": 6452,
      "Ġrecurring": 6453,
      "isValid": 6454,
      "Ġ})),": 6455,
      "FieldInput": 6456,
      "shuffle": 6457,
      "ĠApples": 6458,
      "CheckboxCard": 6459,
      "ROW": 6460,
      "TreeSelect": 6461,
      "Ġresponses": 6462,
      "Ġtokens": 6463,
      "ChevronDownIcon": 6464,
      "62": 6465,
      ">>;": 6466,
      "PAT": 6467,
      "VG": 6468,
      "]+": 6469,
      "ĠStore": 6470,
      "tled": 6471,
      "TimeFormat": 6472,
      "MenubarPrimitive": 6473,
      "Ġplain": 6474,
      "Webhooks": 6475,
      "BookerStore": 6476,
      "Ġuuid": 6477,
      "Ġautomatic": 6478,
      "Library": 6479,
      "61": 6480,
      "73": 6481,
      "CN": 6482,
      "Pref": 6483,
      "dri": 6484,
      "itives": 6485,
      "rec": 6486,
      "orepo": 6487,
      "Ġdetails": 6488,
      "park": 6489,
      "aining": 6490,
      "ĠOAuthClient": 6491,
      "Ġcurrently": 6492,
      "SelectedCalendars": 6493,
      "ModuleLoader": 6494,
      "ĠnextConfig": 6495,
      "woFactor": 6496,
      "Ġcleanup": 6497,
      "MANIFEST": 6498,
      ")`": 6499,
      "Grouped": 6500,
      "Ġte": 6501,
      "Ġwarn": 6502,
      "Ġexit": 6503,
      "ĠWeek": 6504,
      "CalendarEvent": 6505,
      "Shape": 6506,
      "desktop": 6507,
      "weight": 6508,
      "ĠAccessor": 6509,
      "Ġmodifier": 6510,
      "Term": 6511,
      "napshot": 6512,
      ".,": 6513,
      "lined": 6514,
      "Ġ00": 6515,
      "Ġ}[]": 6516,
      "development": 6517,
      "Ġsw": 6518,
      "Secondary": 6519,
      "ĠCached": 6520,
      "(([": 6521,
      "ĠBuffer": 6522,
      "Ġidentifier": 6523,
      "ĠIS": 6524,
      "OnChange": 6525,
      "Ġoverlay": 6526,
      "ĠshowHide": 6527,
      "ĠSteps": 6528,
      "ĠworkStore": 6529,
      "Ġsupported": 6530,
      "Popper": 6531,
      "atoes": 6532,
      "Browser": 6533,
      "Category": 6534,
      "Radar": 6535,
      "Socket": 6536,
      "UND": 6537,
      "foo": 6538,
      "ĠContainer": 6539,
      "anity": 6540,
      "Ġnav": 6541,
      "ĠTHeaderComponents": 6542,
      "Ġinner": 6543,
      "Ġunderline": 6544,
      "Trash": 6545,
      "ĠnewEnd": 6546,
      "SheetPrimitive": 6547,
      "ĠFileUpload": 6548,
      "SidebarGroupContent": 6549,
      "watchlist": 6550,
      "Stats": 6551,
      "RowCount": 6552,
      "Ġanchor": 6553,
      "ĠOR": 6554,
      "Ġtranslations": 6555,
      "Prerender": 6556,
      "HTTP": 6557,
      "IP": 6558,
      "Private": 6559,
      "air": 6560,
      "Ġenter": 6561,
      "ĠtRPC": 6562,
      "={[\"": 6563,
      "Stripe": 6564,
      "defaultValue": 6565,
      "ĠMore": 6566,
      "Deps": 6567,
      "columnId": 6568,
      "Ġtransformed": 6569,
      "Onboarding": 6570,
      "ĠeventTypes": 6571,
      "à¤¾": 6572,
      "ĠstrokeLine": 6573,
      "Ġmodules": 6574,
      "Ġdefinition": 6575,
      "Atoms": 6576,
      "tabler": 6577,
      "lucent": 6578,
      "TYPES": 6579,
      "plugin": 6580,
      "/.": 6581,
      "Cor": 6582,
      "PRE": 6583,
      "Paper": 6584,
      "Ġ\"[": 6585,
      "term": 6586,
      "placement": 6587,
      "Deep": 6588,
      "[]>(": 6589,
      "hash": 6590,
      "ĠSettings": 6591,
      "Ġ153": 6592,
      "Instant": 6593,
      "VERSION": 6594,
      "ĠValidate": 6595,
      "TIME": 6596,
      "51": 6597,
      "Doc": 6598,
      "Less": 6599,
      "ĠCo": 6600,
      "Ġxs": 6601,
      "ali": 6602,
      "Ġsit": 6603,
      "anda": 6604,
      "Ġlatest": 6605,
      "rimitives": 6606,
      "Debounced": 6607,
      "ĠnewStart": 6608,
      "Ġmemo": 6609,
      "Ġeven": 6610,
      "undler": 6611,
      "DayView": 6612,
      "ĠreadOnly": 6613,
      "ĠexternalId": 6614,
      "ĠScopedProps": 6615,
      "REQUEST": 6616,
      "PTION": 6617,
      "pis": 6618,
      "×¢": 6619,
      "Ø´": 6620,
      "atur": 6621,
      "reject": 6622,
      "anan": 6623,
      "Ġconvert": 6624,
      "Ġstored": 6625,
      "Ġdemos": 6626,
      "Ġseconds": 6627,
      "Defined": 6628,
      "Ġcomputed": 6629,
      "Ġvisitors": 6630,
      "Responder": 6631,
      "ĠWEBAPP": 6632,
      "ĠStyle": 6633,
      "Ġter": 6634,
      "unts": 6635,
      "edData": 6636,
      "Require": 6637,
      "Ġlayer": 6638,
      "(\"@": 6639,
      "ĠforwardedRef": 6640,
      "tasker": 6641,
      "crementalCache": 6642,
      "artesianGrid": 6643,
      "added": 6644,
      "getTime": 6645,
      "getElement": 6646,
      "SelectValue": 6647,
      "Ġsetup": 6648,
      "clsx": 6649,
      "Ġloop": 6650,
      "VideoSettings": 6651,
      "legationCredentialId": 6652,
      "eedback": 6653,
      "mira": 6654,
      "uched": 6655,
      "udio": 6656,
      "writes": 6657,
      "Ã©": 6658,
      "Ġpanel": 6659,
      "ĠCss": 6660,
      "namespace": 6661,
      "ArrIncludes": 6662,
      "ĠerrorMessage": 6663,
      "ĠfilterArrIncludes": 6664,
      "AuthGuard": 6665,
      "Ġsupports": 6666,
      "distDir": 6667,
      "MOD": 6668,
      ".${": 6669,
      "Batch": 6670,
      "Gap": 6671,
      "×ĵ": 6672,
      "ĠOption": 6673,
      "steps": 6674,
      "isPlaceholder": 6675,
      "ĠTask": 6676,
      "Ġhours": 6677,
      "ĠDes": 6678,
      "Ġ32": 6679,
      "ĠGrid": 6680,
      "Ġ155": 6681,
      "ScheduleId": 6682,
      "Ġchanged": 6683,
      "authorized": 6684,
      "rgba": 6685,
      "PlusIcon": 6686,
      "Alias": 6687,
      "zzle": 6688,
      "Have": 6689,
      "pal": 6690,
      "reation": 6691,
      "etched": 6692,
      "serve": 6693,
      "ĠsetError": 6694,
      "ĠdefaultExpanded": 6695,
      "Ġanimate": 6696,
      "Definition": 6697,
      "256": 6698,
      "ThemeProvider": 6699,
      "ĠTreeView": 6700,
      "allery": 6701,
      "blog": 6702,
      "rCode": 6703,
      "Ġbuffer": 6704,
      "oreground": 6705,
      "ĠPassword": 6706,
      "Comb": 6707,
      "ĠBMI": 6708,
      "Ġcharacters": 6709,
      "Classes": 6710,
      "codeURI": 6711,
      "locations": 6712,
      "Recording": 6713,
      "alyze": 6714,
      "ĠdefineSlotRecipe": 6715,
      "ĠâĢĵ": 6716,
      "strumentation": 6717,
      "getElementById": 6718,
      "SimpleGrid": 6719,
      "vg": 6720,
      "zm": 6721,
      "Ġdialog": 6722,
      "ĠPages": 6723,
      "ĠonKeyDown": 6724,
      "ĠSource": 6725,
      "ĠSIDE": 6726,
      "plor": 6727,
      "FieldSet": 6728,
      "Comment": 6729,
      "Ġleaf": 6730,
      "ĠHH": 6731,
      "Ġgroups": 6732,
      "Hovered": 6733,
      "outputs": 6734,
      "Navbar": 6735,
      "crypto": 6736,
      ">):": 6737,
      "Free": 6738,
      "]\">": 6739,
      "inux": 6740,
      "alance": 6741,
      "Ġretry": 6742,
      "Ġport": 6743,
      "Integration": 6744,
      "ĠAll": 6745,
      "agent": 6746,
      "DateTimePicker": 6747,
      "')}>": 6748,
      "AppPath": 6749,
      "Ġaccept": 6750,
      "PageProps": 6751,
      "official": 6752,
      "ĠuseMantine": 6753,
      "Dismiss": 6754,
      "plorer": 6755,
      "noop": 6756,
      "×§": 6757,
      "Ġ==": 6758,
      "Ġbadge": 6759,
      "aypal": 6760,
      "vega": 6761,
      "ĠuseTranslation": 6762,
      "Ġalert": 6763,
      "BookingInput": 6764,
      "CommandShortcut": 6765,
      "Dropzone": 6766,
      "luma": 6767,
      "NOT": 6768,
      "reverse": 6769,
      "Ġcreating": 6770,
      "Ġevt": 6771,
      "ĠTableOptions": 6772,
      "forwardedRef": 6773,
      "HTMLAttributes": 6774,
      "ĠDialogContent": 6775,
      "PaginationFeature": 6776,
      "ĠAlertDialogPrimitive": 6777,
      "ĠActionIcon": 6778,
      "timistic": 6779,
      "ĠBarChart": 6780,
      "stopPropagation": 6781,
      "ĠStartIcon": 6782,
      "enario": 6783,
      ".\");": 6784,
      "Scale": 6785,
      "interval": 6786,
      "Ġ{'": 6787,
      "repeat": 6788,
      "oci": 6789,
      "Grouping": 6790,
      "tra": 6791,
      "LabelProps": 6792,
      "Behavior": 6793,
      "Ġexpires": 6794,
      "IM": 6795,
      "blob": 6796,
      "clip": 6797,
      "fl": 6798,
      "}/${": 6799,
      "Stale": 6800,
      "ĠFind": 6801,
      "resolver": 6802,
      "Debug": 6803,
      "Process": 6804,
      "Exit": 6805,
      "ColumnOrder": 6806,
      "Operator": 6807,
      "Ġrequests": 6808,
      "ĠCreates": 6809,
      "Ġmarks": 6810,
      "AsyncStorage": 6811,
      "HorizontalIcon": 6812,
      "breakpoint": 6813,
      ">>(": 6814,
      "Density": 6815,
      "Ph": 6816,
      "bind": 6817,
      "brand": 6818,
      "Ġimages": 6819,
      "Ġdeps": 6820,
      "Ġleast": 6821,
      "147": 6822,
      "ĠformMethods": 6823,
      "ĠDelete": 6824,
      "Ġ186": 6825,
      "Partial": 6826,
      "ĠBookingStatus": 6827,
      "ĠbuttonVariants": 6828,
      "ĠDefined": 6829,
      "alignOffset": 6830,
      "ĠboxSize": 6831,
      "uides": 6832,
      "hugeicons": 6833,
      "Ġdefined": 6834,
      "recurring": 6835,
      "Ġcur": 6836,
      "Ġcookie": 6837,
      "asure": 6838,
      "descri": 6839,
      "TooltipPrimitive": 6840,
      "FromSlug": 6841,
      "ESSAGE": 6842,
      "AND": 6843,
      "UniqueValues": 6844,
      "iki": 6845,
      "ĠSIDEBAR": 6846,
      ".\")": 6847,
      "MES": 6848,
      "dashed": 6849,
      "pipe": 6850,
      "dependencies": 6851,
      "asset": 6852,
      "Ġpersist": 6853,
      "Into": 6854,
      "andbox": 6855,
      "ĠcreateColumnHelper": 6856,
      "ĠnotFound": 6857,
      "Ġcheckbox": 6858,
      "ĠDropdownMenuSeparator": 6859,
      "Ġwindows": 6860,
      "SECRE": 6861,
      "StaticProps": 6862,
      "ĠTranslations": 6863,
      "MAIL": 6864,
      "Policy": 6865,
      "retch": 6866,
      "ĠMembershipRole": 6867,
      "SECRET": 6868,
      "150": 6869,
      ">((_": 6870,
      "CEL": 6871,
      "EVENT": 6872,
      "pass": 6873,
      "=\"@": 6874,
      "Chips": 6875,
      "Ġunit": 6876,
      "percase": 6877,
      "SidebarContent": 6878,
      "ĠInter": 6879,
      "Ġadmin": 6880,
      "ChevronRightIcon": 6881,
      "Cancelled": 6882,
      "Ġprojects": 6883,
      "AccessToken": 6884,
      "InfiniteQuery": 6885,
      "Playground": 6886,
      "camp": 6887,
      "flags": 6888,
      "prefetch": 6889,
      "vie": 6890,
      "wide": 6891,
      "onut": 6892,
      "Ġfail": 6893,
      "getToggle": 6894,
      "maia": 6895,
      "ĠMin": 6896,
      "Destination": 6897,
      "ĠnewPerson": 6898,
      "RootBaseProps": 6899,
      "9999": 6900,
      "Ġservice": 6901,
      "ĠshowCloseButton": 6902,
      "Ġrescheduled": 6903,
      "AndSms": 6904,
      "Ġimmediate": 6905,
      ")).": 6906,
      "Same": 6907,
      "Ġkn": 6908,
      "sticky": 6909,
      "Ġmight": 6910,
      "comment": 6911,
      "Ġdevelopment": 6912,
      "-[-": 6913,
      "pageIndex": 6914,
      "Ġupdates": 6915,
      "offcanvas": 6916,
      "Ġcommon": 6917,
      "TORY": 6918,
      "Ġ\"../../_": 6919,
      "Ġplugins": 6920,
      "KER": 6921,
      "MESSAGE": 6922,
      "Today": 6923,
      "XIcon": 6924,
      "aN": 6925,
      "etur": 6926,
      "nd": 6927,
      "nums": 6928,
      "Ġscript": 6929,
      "Ġstorage": 6930,
      "andid": 6931,
      "ĠPr": 6932,
      "etwork": 6933,
      "Ġproxy": 6934,
      "collapsed": 6935,
      "Ġipsum": 6936,
      "links": 6937,
      "Ġcomment": 6938,
      "firmed": 6939,
      "Ġupdater": 6940,
      "ĠparseInt": 6941,
      "Imports": 6942,
      "ĠDataTable": 6943,
      "GreaterThan": 6944,
      "Copied": 6945,
      "Ä±": 6946,
      "ĠValue": 6947,
      "activity": 6948,
      "Ġposts": 6949,
      "uncontrolled": 6950,
      "edControl": 6951,
      "Ġwatch": 6952,
      "getPage": 6953,
      "Apples": 6954,
      "ĠLit": 6955,
      "Ġ159": 6956,
      "ĠStatic": 6957,
      "Dragging": 6958,
      "Ġclearable": 6959,
      "Ġabort": 6960,
      "ĠSpinner": 6961,
      "ĠSlotRecipe": 6962,
      "kind": 6963,
      "lens": 6964,
      "support": 6965,
      "ĠInputGroupAddon": 6966,
      "Stat": 6967,
      "DateChange": 6968,
      "Changed": 6969,
      "ColumnHeader": 6970,
      "Share": 6971,
      "newPerson": 6972,
      "READ": 6973,
      "Ġoperation": 6974,
      "à¤°": 6975,
      "Ġ×ľ": 6976,
      "handled": 6977,
      "Ġmodifiers": 6978,
      "ĠTreeNode": 6979,
      "Ġauthed": 6980,
      "aracter": 6981,
      "AM": 6982,
      "Pm": 6983,
      "ĠState": 6984,
      "Ġtabs": 6985,
      "upload": 6986,
      "ĠcreateTable": 6987,
      "ĠNormal": 6988,
      "ĠHel": 6989,
      "backdrop": 6990,
      "production": 6991,
      "StartDate": 6992,
      "Ġdefaults": 6993,
      "Ġ])[": 6994,
      "atterChart": 6995,
      "setPageIndex": 6996,
      "015": 6997,
      "Ġsc": 6998,
      "Ġclamp": 6999,
      "Ġ)}>": 7000,
      "ĠAb": 7001,
      "ĠdefaultChecked": 7002,
      "Ġcontact": 7003,
      "SidebarProvider": 7004,
      "invalidate": 7005,
      "Ġworker": 7006,
      "Ġverify": 7007,
      "Ġknow": 7008,
      "(\",": 7009,
      "Href": 7010,
      "ev": 7011,
      "ets": 7012,
      "zones": 7013,
      "atmap": 7014,
      "stretch": 7015,
      "Ġfw": 7016,
      "igo": 7017,
      "ĠstressTest": 7018,
      "()),": 7019,
      "getUser": 7020,
      "Ġ[`": 7021,
      "Triggers": 7022,
      "obj": 7023,
      "CloseTrigger": 7024,
      "Ġcollapse": 7025,
      "ĠrefreshData": 7026,
      "ĠUsers": 7027,
      "ĠoAuthClient": 7028,
      "existsSync": 7029,
      "LessThan": 7030,
      "Flag": 7031,
      "Rank": 7032,
      "handlers": 7033,
      "als": 7034,
      "Ġrecur": 7035,
      "Ġbind": 7036,
      "Ġ130": 7037,
      "queryKey": 7038,
      "IsInt": 7039,
      "translucent": 7040,
      "Ġtimestamp": 7041,
      "']>([": 7042,
      "controller": 7043,
      "ĠStory": 7044,
      "ReturnValue": 7045,
      "SidebarGroupLabel": 7046,
      "CALENDAR": 7047,
      "]_": 7048,
      "foot": 7049,
      "pol": 7050,
      "}\\`": 7051,
      "amet": 7052,
      "romatic": 7053,
      "enders": 7054,
      "coder": 7055,
      "ĠgetAll": 7056,
      "('');": 7057,
      "Activity": 7058,
      "Until": 7059,
      "IndicatorProps": 7060,
      "Ġ152": 7061,
      "REPO": 7062,
      "DEV": 7063,
      "ĠSheetPrimitive": 7064,
      "ritten": 7065,
      "entityProvider": 7066,
      "stroy": 7067,
      "flip": 7068,
      "favicon": 7069,
      "Ġ];": 7070,
      "Ġperson": 7071,
      "turbopack": 7072,
      "ĠPayment": 7073,
      "ceed": 7074,
      "Tom": 7075,
      "TextField": 7076,
      "Subscribe": 7077,
      "ĠTableState": 7078,
      "clients": 7079,
      "ĠmoduleLoader": 7080,
      "Ġobj": 7081,
      "Ġflag": 7082,
      "yntaxKind": 7083,
      "404": 7084,
      "Break": 7085,
      "SY": 7086,
      "bit": 7087,
      "}-${": 7088,
      "ints": 7089,
      "rocer": 7090,
      "emit": 7091,
      "Ġdependency": 7092,
      "('.": 7093,
      "struction": 7094,
      "MenubarGroup": 7095,
      "gram": 7096,
      "SSR": 7097,
      "Updated": 7098,
      "neutral": 7099,
      "Ġenvironment": 7100,
      "ĠRadioCard": 7101,
      "Relative": 7102,
      "Ġautomatically": 7103,
      "Uint": 7104,
      "fa": 7105,
      "signal": 7106,
      "warning": 7107,
      "×ĺ": 7108,
      "á»": 7109,
      "ollo": 7110,
      "setup": 7111,
      "andles": 7112,
      "ublis": 7113,
      "ĠMark": 7114,
      "Common": 7115,
      "EmailVerification": 7116,
      "MenubarShortcut": 7117,
      "StartTime": 7118,
      "ĠFieldValues": 7119,
      "Download": 7120,
      "Ġtabular": 7121,
      "ĠStripe": 7122,
      "Permissions": 7123,
      "Ġcollapsible": 7124,
      "Locked": 7125,
      "ĠCancel": 7126,
      "roceries": 7127,
      "IG": 7128,
      "Slide": 7129,
      "sans": 7130,
      "tc": 7131,
      "×ł": 7132,
      "Ġsite": 7133,
      "ctetur": 7134,
      "ĠDrag": 7135,
      "ĠgetSchema": 7136,
      "fff": 7137,
      "125": 7138,
      "255": 7139,
      "Ġendpoint": 7140,
      "handleSubmit": 7141,
      "ACHE": 7142,
      "AGES": 7143,
      ".\\": 7144,
      "><": 7145,
      "CS": 7146,
      "January": 7147,
      "March": 7148,
      "PieChart": 7149,
      "Ġsummary": 7150,
      "oose": 7151,
      "EventDrop": 7152,
      "waited": 7153,
      "OnClick": 7154,
      "latest": 7155,
      "Ø§Øª": 7156,
      "ĠProfile": 7157,
      "legacy": 7158,
      "normalized": 7159,
      "variants": 7160,
      "variables": 7161,
      "Ġconsectetur": 7162,
      "Categories": 7163,
      "LY": 7164,
      "cx": 7165,
      "×Ľ": 7166,
      "ĠId": 7167,
      "Restor": 7168,
      "Ġbatch": 7169,
      "dia": 7170,
      "getText": 7171,
      "getSub": 7172,
      "\">,": 7173,
      "MenuItem": 7174,
      "ĠCopy": 7175,
      "Ġdestination": 7176,
      "formState": 7177,
      "aving": 7178,
      "ĠBasic": 7179,
      "indigo": 7180,
      "Ġshape": 7181,
      "ĠMantineColor": 7182,
      "timeout": 7183,
      "Ġ142": 7184,
      "CellComponents": 7185,
      "FeatureRepository": 7186,
      "PaginationLink": 7187,
      "BreadcrumbLink": 7188,
      "credentialId": 7189,
      "normalize": 7190,
      "Note": 7191,
      "ĠautoContrast": 7192,
      "Intent": 7193,
      "frica": 7194,
      "nippet": 7195,
      "ĠgetSchemaPath": 7196,
      "Dash": 7197,
      "PT": 7198,
      "Splitter": 7199,
      "Ġhorizontal": 7200,
      "ĠDeep": 7201,
      "Ġnames": 7202,
      "Rescheduling": 7203,
      "CommandPrimitive": 7204,
      "Asia": 7205,
      "ĠColumnDef": 7206,
      "InitialData": 7207,
      "ĠNavigationMenuPrimitive": 7208,
      "ĠNotFound": 7209,
      "Single": 7210,
      "ront": 7211,
      "ãģ": 7212,
      "Ġcaption": 7213,
      "isOpen": 7214,
      "emap": 7215,
      "Ġnone": 7216,
      "Ġdone": 7217,
      "ContextProps": 7218,
      "ĠappType": 7219,
      "lated": 7220,
      "ĠRange": 7221,
      "CommandGroup": 7222,
      "TokenObject": 7223,
      "Ġsubscriber": 7224,
      "Asset": 7225,
      "ĠLogger": 7226,
      "vingFocus": 7227,
      "popup": 7228,
      "Ġalias": 7229,
      "Ġetc": 7230,
      "ĠAutocomplete": 7231,
      "Ġremaining": 7232,
      "Clo": 7233,
      "HTMLElement": 7234,
      "Mask": 7235,
      "TValue": 7236,
      "flo": 7237,
      "sTo": 7238,
      "Ġ'{": 7239,
      "Ġpur": 7240,
      "Ġsales": 7241,
      "Ġinsert": 7242,
      "ExampleWrapper": 7243,
      "Ġexpected": 7244,
      "Ġallows": 7245,
      "Ġmatching": 7246,
      "CODE": 7247,
      "WEBHOOK": 7248,
      "ĠToaster": 7249,
      "Ġboundary": 7250,
      "(!": 7251,
      "Ġamet": 7252,
      "apters": 7253,
      "Injectable": 7254,
      "osize": 7255,
      "Ġgenerated": 7256,
      "Contents": 7257,
      "Ġsepar": 7258,
      "ignored": 7259,
      "Ġcountry": 7260,
      "stylesApi": 7261,
      "openingElement": 7262,
      "Ġelit": 7263,
      "Notice": 7264,
      "RiArrowRight": 7265,
      "Ġscrollbar": 7266,
      "Ġmembership": 7267,
      "ĠAnyRouter": 7268,
      "Ġlocalization": 7269,
      "ĠOrganizer": 7270,
      "ValidateNested": 7271,
      "Timer": 7272,
      "angerously": 7273,
      "America": 7274,
      "Bold": 7275,
      "JE": 7276,
      "RR": 7277,
      "ah": 7278,
      "uuid": 7279,
      "Ð·": 7280,
      "ĠContext": 7281,
      "Ġpopover": 7282,
      "akes": 7283,
      "ialized": 7284,
      "ĠcreateApp": 7285,
      "ĠInjectable": 7286,
      "TooltipTrigger": 7287,
      "fieldset": 7288,
      "servable": 7289,
      "ÑĢÐ°": 7290,
      "ÑĤÐ¸": 7291,
      "FILE": 7292,
      "Hmr": 7293,
      "NaN": 7294,
      "SL": 7295,
      "Ġtw": 7296,
      "Ġcli": 7297,
      "ĠRegExp": 7298,
      "(\"[": 7299,
      "Ġexact": 7300,
      "DialogHeader": 7301,
      "Sortable": 7302,
      "Jsx": 7303,
      "ĠDrawerPrimitive": 7304,
      "(/^": 7305,
      "ĠpublicProcedure": 7306,
      "PointerDown": 7307,
      "Ellipsis": 7308,
      "MODULE": 7309,
      "Pipe": 7310,
      "UID": 7311,
      "audit": 7312,
      "tro": 7313,
      "Ø¬": 7314,
      "deg": 7315,
      "Italic": 7316,
      "('\\": 7317,
      "Consumer": 7318,
      "strap": 7319,
      "ember": 7320,
      "Asc": 7321,
      "ockFeatures": 7322,
      "hello": 7323,
      "ĠmergeProps": 7324,
      ">`": 7325,
      "Bubble": 7326,
      "Db": 7327,
      "Ġooo": 7328,
      "ĠĠĠĠĠĠĠĠĠĠĠĠĠĠĠĠĠĠĠĠĠĠĠĠĠĠĠĠĠĠĠĠĠĠĠĠĠ": 7329,
      "deprecated": 7330,
      "Ġturbopack": 7331,
      "={-": 7332,
      "ĠTCellComponents": 7333,
      "eventtypes": 7334,
      "Ġ28": 7335,
      "StateAction": 7336,
      "Any": 7337,
      "minimal": 7338,
      "Uncontrolled": 7339,
      "ĠRating": 7340,
      "created": 7341,
      "ROUT": 7342,
      "ScheduleHeader": 7343,
      "ĠmarginTop": 7344,
      "Ġmerged": 7345,
      "MantineProvider": 7346,
      "SERVER": 7347,
      "pearance": 7348,
      ")]:": 7349,
      "GER": 7350,
      "History": 7351,
      "Primary": 7352,
      "SUCCESS": 7353,
      "guard": 7354,
      "tate": 7355,
      "Ġ}],": 7356,
      "olution": 7357,
      "ĠPin": 7358,
      "ĠonDrag": 7359,
      "Ġ29": 7360,
      "Heatmap": 7361,
      "DateString": 7362,
      "DropdownMenuShortcut": 7363,
      "subtract": 7364,
      "anging": 7365,
      "InputGroupText": 7366,
      "statusCode": 7367,
      "storeId": 7368,
      "à¤¨": 7369,
      "OOGLE": 7370,
      "ĠEmb": 7371,
      "expires": 7372,
      "ĠpackageJson": 7373,
      "Ø®": 7374,
      "ĠÙħ": 7375,
      "Ġfloating": 7376,
      "Ġpriority": 7377,
      "extensions": 7378,
      "ĠTurbopack": 7379,
      "serted": 7380,
      "(\"-": 7381,
      "DecorativeBox": 7382,
      "Configurator": 7383,
      "layer": 7384,
      "Ġsubject": 7385,
      "TabsContent": 7386,
      "Ġcomplete": 7387,
      "Ġlistener": 7388,
      "RedirectUrl": 7389,
      "Ġ]),": 7390,
      "getPageCount": 7391,
      "%',": 7392,
      "Caption": 7393,
      "doc": 7394,
      "ities": 7395,
      "sup": 7396,
      "vanced": 7397,
      "ticle": 7398,
      "Ġfade": 7399,
      "Ġrecei": 7400,
      "unit": 7401,
      "edOptions": 7402,
      "getHeaderGroups": 7403,
      "Seats": 7404,
      "ĠPill": 7405,
      "ĠisOpen": 7406,
      "Ġseparator": 7407,
      "ffec": 7408,
      "Ġzod": 7409,
      "ĠrowPaginationFeature": 7410,
      "checkout": 7411,
      "notNull": 7412,
      "vals": 7413,
      "Ġpromises": 7414,
      "InfiniteQueryOptions": 7415,
      "SITORY": 7416,
      "tocol": 7417,
      "PATH": 7418,
      "Combined": 7419,
      "REPOSITORY": 7420,
      "CreditCard": 7421,
      "onboarding": 7422,
      "enum": 7423,
      "requires": 7424,
      "Ġflat": 7425,
      "idle": 7426,
      "Ġmac": 7427,
      "Ġmatched": 7428,
      "ĠFunction": 7429,
      "ĠPlease": 7430,
      "served": 7431,
      "leanup": 7432,
      "curity": 7433,
      "(`/": 7434,
      "ĠsearchTags": 7435,
      "={[{": 7436,
      "expression": 7437,
      "Ġnonce": 7438,
      "Ġ------------------------------------------------------------------------------------------------": 7439,
      "MPLE": 7440,
      "reserve": 7441,
      "Escape": 7442,
      "320": 7443,
      "Sem": 7444,
      "SENT": 7445,
      "Ġcover": 7446,
      "channel": 7447,
      "revalid": 7448,
      "ĠbookingFields": 7449,
      "ProviderProps": 7450,
      "EndDate": 7451,
      "Ranges": 7452,
      "ĠCalendars": 7453,
      "Ġ\"../../../": 7454,
      "PointerEvents": 7455,
      "SERV": 7456,
      "AppKeysFromSlug": 7457,
      "floor": 7458,
      "Ġ-------------------------------------------------------------------------------------------------": 7459,
      "BO": 7460,
      "Mar": 7461,
      "RSC": 7462,
      "multi": 7463,
      "ruary": 7464,
      "asis": 7465,
      "Ġstruct": 7466,
      "itemap": 7467,
      "ĠsetShow": 7468,
      "ebruary": 7469,
      ")))": 7470,
      "IsOpen": 7471,
      "Ġweight": 7472,
      "IndicatorGroup": 7473,
      "Metr": 7474,
      "ĠListbox": 7475,
      "Ġwebpack": 7476,
      "ĠAuthor": 7477,
      "Restoring": 7478,
      "250": 7479,
      "May": 7480,
      "OM": 7481,
      "Rtl": 7482,
      "Õ¸": 7483,
      "leading": 7484,
      "Ġregular": 7485,
      "ĠReset": 7486,
      "ĠcreateTRPC": 7487,
      "ootstrap": 7488,
      "Ġwhite": 7489,
      "axis": 7490,
      "ĠinitialValues": 7491,
      "RadioGroupItem": 7492,
      "ĠsourceFile": 7493,
      "Ġmodel": 7494,
      "SkeletonText": 7495,
      "ĠMenubarPrimitive": 7496,
      "Ġrunning": 7497,
      "comingMessage": 7498,
      "/__": 7499,
      "panda": 7500,
      "lee": 7501,
      "ĠuseComp": 7502,
      "ĠPreview": 7503,
      "Ġrank": 7504,
      "Ġcomb": 7505,
      "Ġaccepted": 7506,
      "EmailAndSms": 7507,
      "minal": 7508,
      "ĠLucide": 7509,
      "remium": 7510,
      "words": 7511,
      "PopoverPrimitive": 7512,
      "DrawerPrimitive": 7513,
      "=\"#\"": 7514,
      "DisplayMode": 7515,
      "SortingFeature": 7516,
      "Hub": 7517,
      "dating": 7518,
      "pattern": 7519,
      "save": 7520,
      "solute": 7521,
      "zinc": 7522,
      "ĠIndex": 7523,
      "ĠðŁ": 7524,
      "room": 7525,
      "Ġrecipe": 7526,
      "Information": 7527,
      "opt": 7528,
      "Ġinv": 7529,
      "ĠgetValue": 7530,
      "RefObject": 7531,
      "ĠUsed": 7532,
      "Ġloaded": 7533,
      "Ġwhat": 7534,
      "Operation": 7535,
      "compose": 7536,
      "ORD": 7537,
      "ĠPropsProvider": 7538,
      "Backdrop": 7539,
      "plication": 7540,
      "termine": 7541,
      "noopener": 7542,
      "getSubLogger": 7543,
      "%-": 7544,
      "bidden": 7545,
      "cat": 7546,
      "cli": 7547,
      "mory": 7548,
      "sonner": 7549,
      "ĠLocation": 7550,
      "Ġindeterminate": 7551,
      "Ġ135": 7552,
      "apply": 7553,
      "iry": 7554,
      "ĠgetBooking": 7555,
      "keyof": 7556,
      "-[[": 7557,
      "Ġexclude": 7558,
      "ĠInternal": 7559,
      "Transfer": 7560,
      "\"][\"": 7561,
      "Blocked": 7562,
      "ĠEmbed": 7563,
      "120": 7564,
      "}):": 7565,
      "ĠTanStack": 7566,
      "Continue": 7567,
      "setFilterValue": 7568,
      "toMatch": 7569,
      "ĠcreateModule": 7570,
      "Ġacross": 7571,
      "Design": 7572,
      "Ġselectors": 7573,
      "Bytes": 7574,
      "Ġlocations": 7575,
      "ĠresponseBody": 7576,
      "ĠcolSpan": 7577,
      "AlertDialogPrimitive": 7578,
      "ScrollAreaPrimitive": 7579,
      "MdxCode": 7580,
      "tility": 7581,
      "PhoneNumber": 7582,
      ">`,": 7583,
      "Disable": 7584,
      "Mut": 7585,
      "Please": 7586,
      "Rejection": 7587,
      "Ġbuilt": 7588,
      "Ġarea": 7589,
      "ĠReactDOM": 7590,
      "Ġnullable": 7591,
      "shortcut": 7592,
      "Accessor": 7593,
      "Period": 7594,
      "properties": 7595,
      "ĠExtract": 7596,
      "dbRead": 7597,
      "âĶĢâĶĢâĶĢâĶĢ": 7598,
      "Ġfilename": 7599,
      "crypted": 7600,
      "ĠAreaChart": 7601,
      "PER": 7602,
      "VAL": 7603,
      "ĠView": 7604,
      "destination": 7605,
      "Ġmost": 7606,
      "Ġiframe": 7607,
      "ĠvalueFormatter": 7608,
      "sertion": 7609,
      "Ġresolver": 7610,
      "[]);": 7611,
      "ONT": 7612,
      "atten": 7613,
      "AvatarGroup": 7614,
      "Ġ2024": 7615,
      "ĠComponentType": 7616,
      "Ġhelper": 7617,
      "ĠOutput": 7618,
      "SERVICE": 7619,
      "CACHE": 7620,
      "Tip": 7621,
      "Utc": 7622,
      "highlighter": 7623,
      "}%": 7624,
      "ĠStatus": 7625,
      "inary": 7626,
      "Ġ}[];": 7627,
      "Ġtur": 7628,
      "updater": 7629,
      "Ġml": 7630,
      "chemas": 7631,
      "serialize": 7632,
      "toHave": 7633,
      "ĠcreatePaginatedRowModel": 7634,
      "Ġchannel": 7635,
      "Const": 7636,
      "248": 7637,
      "DialogTitle": 7638,
      "OnHover": 7639,
      "Author": 7640,
      "chartsPrimitive": 7641,
      "Ġexports": 7642,
      "ĠTrack": 7643,
      "ĠURLSearchParams": 7644,
      "PaginationItem": 7645,
      "VariantProps": 7646,
      "ĠTRPCClientError": 7647,
      "Notes": 7648,
      "Visits": 7649,
      "ĠmarginBottom": 7650,
      "ĠorgId": 7651,
      "ĠInputGroupInput": 7652,
      "generateMetadata": 7653,
      "ĠtickLine": 7654,
      "ĠReadonlyArray": 7655,
      "ĠDevtools": 7656,
      "Abort": 7657,
      "IEW": 7658,
      "232": 7659,
      "Dim": 7660,
      "Dark": 7661,
      "Flat": 7662,
      "Mail": 7663,
      "Matches": 7664,
      "SVG": 7665,
      "aur": 7666,
      "graph": 7667,
      "lang": 7668,
      "Õ¥": 7669,
      "reemap": 7670,
      "ria": 7671,
      "uses": 7672,
      "useContext": 7673,
      "ĠsetState": 7674,
      "aking": 7675,
      "Prototype": 7676,
      "imated": 7677,
      "alett": 7678,
      "createContext": 7679,
      "Ġ×ŀ": 7680,
      "Ġ179": 7681,
      "singElement": 7682,
      "ĠdebugTable": 7683,
      "ĠChevronDownIcon": 7684,
      "ĠLineChart": 7685,
      "alettes": 7686,
      "Margin": 7687,
      "Merge": 7688,
      "]))": 7689,
      "fe": 7690,
      "Ġ'${": 7691,
      "hes": 7692,
      "ished": 7693,
      "Stop": 7694,
      "ĠDynamic": 7695,
      "ToClass": 7696,
      "Ġseat": 7697,
      "Ġfunctions": 7698,
      "Fieldset": 7699,
      "Ġextensions": 7700,
      "Ġproduction": 7701,
      "CacheEntry": 7702,
      "initialState": 7703,
      "visits": 7704,
      "Ġunderlying": 7705,
      "Exists": 7706,
      "osedRefs": 7707,
      "Amount": 7708,
      "Bulk": 7709,
      "NC": 7710,
      "angle": 7711,
      "abort": 7712,
      "ilation": 7713,
      "uple": 7714,
      "Ġwatchlist": 7715,
      "throw": 7716,
      "resizable": 7717,
      "odos": 7718,
      "ĠSign": 7719,
      "Ġexperimental": 7720,
      "Ġequal": 7721,
      "OnError": 7722,
      "Ġ141": 7723,
      "ĠAppHeader": 7724,
      "Ġconfiguration": 7725,
      "ĠDropdownMenuGroup": 7726,
      "Sorted": 7727,
      "ĠAPIs": 7728,
      "tempt": 7729,
      "ĠapiKey": 7730,
      "libraries": 7731,
      "ĠscheduleId": 7732,
      "PillsInput": 7733,
      "Ġpossible": 7734,
      "Responsive": 7735,
      "ĠFloatingPanel": 7736,
      "Ġresponsive": 7737,
      "raftMode": 7738,
      ":**:": 7739,
      "tail": 7740,
      "Ġicons": 7741,
      "Ġstrip": 7742,
      "Include": 7743,
      "Ġ128": 7744,
      "ToClipboard": 7745,
      "LabelFormat": 7746,
      "Underline": 7747,
      "OutOfOffice": 7748,
      "specifiers": 7749,
      "MAX": 7750,
      "externalId": 7751,
      "ResizablePanel": 7752,
      "StrictMode": 7753,
      "'ll": 7754,
      "Africa": 7755,
      "BU": 7756,
      "ÐŁ": 7757,
      "delay": 7758,
      "developer": 7759,
      "Ġ'.": 7760,
      "Ġdim": 7761,
      "country": 7762,
      "Ġwere": 7763,
      "Ġincluded": 7764,
      "ĠAs": 7765,
      "tric": 7766,
      "contact": 7767,
      "ĠpageSize": 7768,
      "Ġfiltering": 7769,
      "ChartTooltip": 7770,
      "Ġnodes": 7771,
      "SetInner": 7772,
      "ENTIAL": 7773,
      "Ġ×©": 7774,
      "Ġpermission": 7775,
      "Ġsections": 7776,
      "IncludesString": 7777,
      "angerouslySetInner": 7778,
      "MIT": 7779,
      "SH": 7780,
      "`',": 7781,
      "cs": 7782,
      "ateLimit": 7783,
      "isLoading": 7784,
      "extend": 7785,
      "Ġnative": 7786,
      "Ġnoreferrer": 7787,
      "PropsProvider": 7788,
      "ĠuseContext": 7789,
      "ĠonFocus": 7790,
      "ĠdestinationCalendar": 7791,
      "demod": 7792,
      "'));": 7793,
      "ByUserId": 7794,
      "182": 7795,
      "Ġdates": 7796,
      "iolet": 7797,
      "\"]').": 7798,
      "issues": 7799,
      "ContainerRef": 7800,
      "Ġpresets": 7801,
      "AccordionPrimitive": 7802,
      "installed": 7803,
      "ĠShould": 7804,
      "cloud": 7805,
      "Marker": 7806,
      "ĠanimationDuration": 7807,
      "Ġproducts": 7808,
      "ROWSER": 7809,
      "codeURIComponent": 7810,
      "BROWSER": 7811,
      "PAGE": 7812,
      "Turbopack": 7813,
      "cookies": 7814,
      "ym": 7815,
      "rome": 7816,
      "exec": 7817,
      "Ġ\"\"}": 7818,
      "unstyled": 7819,
      "ĠFocus": 7820,
      "(\"\");": 7821,
      "Ġuntil": 7822,
      "formatted": 7823,
      "ĠsetEvents": 7824,
      "ĠdefaultValues": 7825,
      "Ġprocedure": 7826,
      "DialogDescription": 7827,
      "labels": 7828,
      "Ġrefetch": 7829,
      "123": 7830,
      "ScrollNext": 7831,
      "ScrollPrev": 7832,
      "Ġ192": 7833,
      "Ġwebhooks": 7834,
      "NavLink": 7835,
      "MaxValues": 7836,
      "Guards": 7837,
      "tasks": 7838,
      "CONT": 7839,
      "ffective": 7840,
      "(__": 7841,
      "Slash": 7842,
      "YAxis": 7843,
      "ae": 7844,
      "nown": 7845,
      "rup": 7846,
      "tire": 7847,
      "Ġtwo": 7848,
      "Ġflight": 7849,
      "ĠTS": 7850,
      "ĠTemplate": 7851,
      "Ġ137": 7852,
      "ĠCurrent": 7853,
      "ĠParams": 7854,
      "InputBase": 7855,
      "Char": 7856,
      "emotion": 7857,
      "QueryData": 7858,
      "ColumnSizing": 7859,
      "apiKey": 7860,
      "128": 7861,
      "ĠInfo": 7862,
      "Ġminimum": 7863,
      "Outline": 7864,
      "CellProps": 7865,
      "ĠhandleKeyDown": 7866,
      "ArrowDown": 7867,
      "ĠtabIndex": 7868,
      "à¤¸": 7869,
      "ĠBookingAudit": 7870,
      "OOO": 7871,
      "avatars": 7872,
      "Readonly": 7873,
      "ĠAvatarGroup": 7874,
      "ĠstoreId": 7875,
      "Ġotherwise": 7876,
      "Ġmembers": 7877,
      "ĠDayjs": 7878,
      "Iterable": 7879,
      "Ġoccur": 7880,
      "ĠNotFoundException": 7881,
      "!\",": 7882,
      "AMPLE": 7883,
      "CP": 7884,
      "Hour": 7885,
      "cookie": 7886,
      "more": 7887,
      "num": 7888,
      "ners": 7889,
      "your": 7890,
      "Ã¼": 7891,
      "Øµ": 7892,
      "ãĥ": 7893,
      "Ġge": 7894,
      "orld": 7895,
      "umulator": 7896,
      "Invite": 7897,
      "ĠTFunction": 7898,
      "Ġmutate": 7899,
      "ĠAsync": 7900,
      "EventHandlers": 7901,
      "Ġeither": 7902,
      "Ġanything": 7903,
      "colSpan": 7904,
      "Ġlogin": 7905,
      "ĠNextRequest": 7906,
      "Ġ185": 7907,
      "ĠTimeline": 7908,
      "ĠcssCode": 7909,
      "ĠResolved": 7910,
      "ĠavatarUrl": 7911,
      "cellationReason": 7912,
      "Õ¡Õ": 7913,
      "Dasharray": 7914,
      "FE": 7915,
      "Git": 7916,
      "Qu": 7917,
      "VALI": 7918,
      "way": 7919,
      "ĠÐ¿": 7920,
      "Ġ\"$": 7921,
      "Ġregex": 7922,
      "Ġnum": 7923,
      "amo": 7924,
      "spaces": 7925,
      "splash": 7926,
      "ĠisPlatform": 7927,
      "ĠappName": 7928,
      "small": 7929,
      "columnFilters": 7930,
      "BookingOutput": 7931,
      "playwright": 7932,
      "variantError": 7933,
      "Ġsubscribe": 7934,
      "Ġ×Ĳ": 7935,
      "Ġuppercase": 7936,
      "ĠPopoverContent": 7937,
      "ĠtoggleSidebar": 7938,
      "(/\\": 7939,
      "expand": 7940,
      "ĠfullWidth": 7941,
      "×¡": 7942,
      "áº": 7943,
      "onical": 7944,
      "inder": 7945,
      "Ġtailwind": 7946,
      "Ġ(()": 7947,
      "unnel": 7948,
      "lied": 7949,
      "...\",": 7950,
      "Ġ`@": 7951,
      "starting": 7952,
      "ĠRE": 7953,
      "ĠInvariantError": 7954,
      "Ġ182": 7955,
      "ĠfirstDayOfWeek": 7956,
      "ĠPopoverPrimitive": 7957,
      "Ġexpression": 7958,
      "Customer": 7959,
      "à¥ĭ": 7960,
      "ĠChevronRightIcon": 7961,
      "WriteTo": 7962,
      "InputOTPGroup": 7963,
      "ĠDirection": 7964,
      "ASS": 7965,
      "SMS": 7966,
      "Suffix": 7967,
      "ros": 7968,
      "mpt": 7969,
      "Ġ(${": 7970,
      "Ġportal": 7971,
      "Ġhour": 7972,
      "divid": 7973,
      "DataCache": 7974,
      "usercontent": 7975,
      "RowIndex": 7976,
      "address": 7977,
      "Completed": 7978,
      "Parameters": 7979,
      "Ġhovered": 7980,
      "DatePickerInput": 7981,
      "ChevronRight": 7982,
      "ĠReadableStream": 7983,
      "QueryClientProvider": 7984,
      "Embla": 7985,
      "Reports": 7986,
      "umeDataCache": 7987,
      "VaryPath": 7988,
      "ohn": 7989,
      "JECT": 7990,
      "116": 7991,
      "CK": 7992,
      "dk": 7993,
      "mix": 7994,
      "Ġ\".": 7995,
      "Ġlarge": 7996,
      "Ġunpin": 7997,
      "adipis": 7998,
      "names": 7999
    },
    "merges": [
      [
        "Ġ",
        "Ġ"
      ],
      [
        "ĠĠ",
        "ĠĠ"
      ],
      [
        "o",
        "n"
      ],
      [
        "ĠĠ",
        "Ġ"
      ],
      [
        "ĠĠĠĠ",
        "ĠĠĠĠ"
      ],
      [
        "e",
        "r"
      ],
      [
        "o",
        "r"
      ],
      [
        "e",
        "n"
      ],
      [
        "a",
        "t"
      ],
      [
        "i",
        "n"
      ],
      [
        "r",
        "o"
      ],
      [
        "l",
        "e"
      ],
      [
        "s",
        "t"
      ],
      [
        "Ġ",
        "{"
      ],
      [
        "r",
        "e"
      ],
      [
        "Ġ",
        "c"
      ],
      [
        "ĠĠĠĠ",
        "Ġ"
      ],
      [
        "Ġ",
        "}"
      ],
      [
        "a",
        "l"
      ],
      [
        "a",
        "r"
      ],
      [
        "Ġ",
        "<"
      ],
      [
        "t",
        "i"
      ],
      [
        "Ġ",
        "="
      ],
      [
        "s",
        "e"
      ],
      [
        "d",
        "e"
      ],
      [
        "en",
        "t"
      ],
      [
        "ĠĠĠĠ",
        "ĠĠĠ"
      ],
      [
        "Ġ",
        "t"
      ],
      [
        "a",
        "n"
      ],
      [
        "Ġ",
        "f"
      ],
      [
        "e",
        "x"
      ],
      [
        "m",
        "e"
      ],
      [
        "Ġ",
        "\""
      ],
      [
        "u",
        "t"
      ],
      [
        "or",
        "t"
      ],
      [
        "m",
        "p"
      ],
      [
        "a",
        "c"
      ],
      [
        "in",
        "g"
      ],
      [
        "i",
        "t"
      ],
      [
        "a",
        "s"
      ],
      [
        "g",
        "e"
      ],
      [
        "ĠĠĠĠĠĠĠĠ",
        "Ġ"
      ],
      [
        "/",
        "/"
      ],
      [
        "Ġ",
        "'"
      ],
      [
        "ti",
        "on"
      ],
      [
        "h",
        "e"
      ],
      [
        "Ġ",
        "("
      ],
      [
        "a",
        "me"
      ],
      [
        "u",
        "r"
      ],
      [
        "Ġ",
        "re"
      ],
      [
        "a",
        "b"
      ],
      [
        "=",
        "\""
      ],
      [
        "Ġ",
        "p"
      ],
      [
        "p",
        "e"
      ],
      [
        "Ġc",
        "on"
      ],
      [
        "o",
        "l"
      ],
      [
        "at",
        "e"
      ],
      [
        "u",
        "e"
      ],
      [
        "ro",
        "m"
      ],
      [
        "u",
        "n"
      ],
      [
        "i",
        "s"
      ],
      [
        "a",
        "d"
      ],
      [
        "ro",
        "p"
      ],
      [
        "ex",
        "t"
      ],
      [
        "e",
        "l"
      ],
      [
        "Ġf",
        "rom"
      ],
      [
        "e",
        "m"
      ],
      [
        "y",
        "pe"
      ],
      [
        "e",
        "d"
      ],
      [
        "i",
        "d"
      ],
      [
        ".",
        "."
      ],
      [
        "Ġcon",
        "st"
      ],
      [
        "at",
        "a"
      ],
      [
        "i",
        "mp"
      ],
      [
        "=",
        "{"
      ],
      [
        "R",
        "e"
      ],
      [
        "u",
        "l"
      ],
      [
        "imp",
        "ort"
      ],
      [
        "\"",
        ","
      ],
      [
        "ĠĠĠĠĠĠĠĠ",
        "ĠĠĠ"
      ],
      [
        "Ġ",
        "n"
      ],
      [
        "-",
        "-"
      ],
      [
        "i",
        "c"
      ],
      [
        "l",
        "o"
      ],
      [
        "i",
        "g"
      ],
      [
        "i",
        "l"
      ],
      [
        "Ġ<",
        "/"
      ],
      [
        "N",
        "ame"
      ],
      [
        "on",
        "t"
      ],
      [
        "Ġ",
        "d"
      ],
      [
        "Ġ",
        "s"
      ],
      [
        ")",
        ";"
      ],
      [
        "a",
        "p"
      ],
      [
        "as",
        "s"
      ],
      [
        "o",
        "o"
      ],
      [
        "c",
        "t"
      ],
      [
        "rop",
        "s"
      ],
      [
        "i",
        "on"
      ],
      [
        "al",
        "ue"
      ],
      [
        "Ġc",
        "l"
      ],
      [
        "t",
        "ur"
      ],
      [
        "tur",
        "n"
      ],
      [
        "u",
        "m"
      ],
      [
        "ab",
        "le"
      ],
      [
        "Ġ",
        "st"
      ],
      [
        "Ġ",
        "b"
      ],
      [
        "e",
        "s"
      ],
      [
        "Ġre",
        "turn"
      ],
      [
        "I",
        "n"
      ],
      [
        "S",
        "t"
      ],
      [
        "a",
        "ge"
      ],
      [
        "Ġ=",
        ">"
      ],
      [
        "p",
        "ort"
      ],
      [
        "(",
        ")"
      ],
      [
        "u",
        "s"
      ],
      [
        "ass",
        "Name"
      ],
      [
        "en",
        "d"
      ],
      [
        "t",
        "er"
      ],
      [
        "Ġ",
        "/"
      ],
      [
        "Ġ}",
        ","
      ],
      [
        "i",
        "f"
      ],
      [
        "r",
        "ing"
      ],
      [
        "Ġ",
        "v"
      ],
      [
        "c",
        "tion"
      ],
      [
        "o",
        "w"
      ],
      [
        "r",
        "i"
      ],
      [
        "a",
        "y"
      ],
      [
        "Ġcl",
        "assName"
      ],
      [
        "u",
        "p"
      ],
      [
        "ex",
        "port"
      ],
      [
        "c",
        "o"
      ],
      [
        "c",
        "on"
      ],
      [
        "'",
        ","
      ],
      [
        "ĠĠĠĠĠĠĠĠ",
        "ĠĠĠĠĠ"
      ],
      [
        "at",
        "ion"
      ],
      [
        "c",
        "h"
      ],
      [
        "u",
        "se"
      ],
      [
        "t",
        "s"
      ],
      [
        "Ġ",
        "w"
      ],
      [
        "ac",
        "t"
      ],
      [
        "Ġ",
        "T"
      ],
      [
        "Ġ",
        "*"
      ],
      [
        "o",
        "p"
      ],
      [
        "d",
        "i"
      ],
      [
        "Ġ",
        "m"
      ],
      [
        "i",
        "z"
      ],
      [
        "Ġ/",
        ">"
      ],
      [
        "v",
        "ent"
      ],
      [
        "v",
        "e"
      ],
      [
        "ge",
        "t"
      ],
      [
        "S",
        "e"
      ],
      [
        "v",
        "er"
      ],
      [
        "C",
        "ont"
      ],
      [
        "p",
        "ut"
      ],
      [
        "Ġ",
        "in"
      ],
      [
        "Ġ",
        ")"
      ],
      [
        "C",
        "o"
      ],
      [
        "Ġ",
        "|"
      ],
      [
        "Ġ",
        "a"
      ],
      [
        "Ġ",
        "1"
      ],
      [
        "P",
        "rops"
      ],
      [
        "in",
        "e"
      ],
      [
        "Ġt",
        "ype"
      ],
      [
        "Ġ",
        "h"
      ],
      [
        "ac",
        "k"
      ],
      [
        "l",
        "i"
      ],
      [
        "t",
        "on"
      ],
      [
        "\"",
        ">"
      ],
      [
        "b",
        "o"
      ],
      [
        "se",
        "t"
      ],
      [
        "le",
        "s"
      ],
      [
        "de",
        "f"
      ],
      [
        "Ġ",
        "if"
      ],
      [
        "ro",
        "up"
      ],
      [
        "oo",
        "k"
      ],
      [
        "en",
        "u"
      ],
      [
        "an",
        "t"
      ],
      [
        "Ġ",
        "F"
      ],
      [
        "ul",
        "t"
      ],
      [
        "Ġ",
        "["
      ],
      [
        "ut",
        "ton"
      ],
      [
        "i",
        "de"
      ],
      [
        "un",
        "ction"
      ],
      [
        "or",
        "m"
      ],
      [
        "t",
        "h"
      ],
      [
        "ĠĠĠĠĠĠĠĠ",
        "ĠĠĠĠĠĠĠ"
      ],
      [
        "..",
        "."
      ],
      [
        "le",
        "ct"
      ],
      [
        "Ġt",
        "he"
      ],
      [
        "e",
        "w"
      ],
      [
        "Ġd",
        "ata"
      ],
      [
        "an",
        "d"
      ],
      [
        "r",
        "or"
      ],
      [
        "--",
        "--"
      ],
      [
        "//",
        "//"
      ],
      [
        "di",
        "v"
      ],
      [
        "Ġ",
        "D"
      ],
      [
        "(",
        "{"
      ],
      [
        "re",
        "s"
      ],
      [
        "=",
        "="
      ],
      [
        "p",
        "tion"
      ],
      [
        "I",
        "d"
      ],
      [
        "on",
        "ent"
      ],
      [
        "mp",
        "onent"
      ],
      [
        "M",
        "enu"
      ],
      [
        "e",
        "y"
      ],
      [
        "Ġ",
        "use"
      ],
      [
        "or",
        "e"
      ],
      [
        "Ġ",
        "C"
      ],
      [
        "m",
        "ent"
      ],
      [
        "Ġst",
        "ring"
      ],
      [
        "Ġ",
        "as"
      ],
      [
        "a",
        "m"
      ],
      [
        "\"",
        ";"
      ],
      [
        "ab",
        "el"
      ],
      [
        "o",
        "de"
      ],
      [
        "I",
        "t"
      ],
      [
        "ul",
        "l"
      ],
      [
        "o",
        "d"
      ],
      [
        "iz",
        "e"
      ],
      [
        "0",
        "0"
      ],
      [
        "h",
        "t"
      ],
      [
        "s",
        "p"
      ],
      [
        "ar",
        "t"
      ],
      [
        "ap",
        "p"
      ],
      [
        "Ġ",
        "l"
      ],
      [
        "o",
        "c"
      ],
      [
        "Ġ\"",
        "@"
      ],
      [
        "Ġ",
        "Re"
      ],
      [
        "It",
        "em"
      ],
      [
        "o",
        "ut"
      ],
      [
        "Ġt",
        "r"
      ],
      [
        "m",
        "a"
      ],
      [
        "ar",
        "i"
      ],
      [
        "Ġ",
        "//"
      ],
      [
        "Ġ",
        "A"
      ],
      [
        "Ġ",
        "P"
      ],
      [
        "o",
        "f"
      ],
      [
        "er",
        "s"
      ],
      [
        "ol",
        "or"
      ],
      [
        "it",
        "h"
      ],
      [
        "Ġt",
        "o"
      ],
      [
        "a",
        "ult"
      ],
      [
        "e",
        "t"
      ],
      [
        "d",
        "er"
      ],
      [
        "Ġt",
        "h"
      ],
      [
        "ow",
        "n"
      ],
      [
        "i",
        "st"
      ],
      [
        "V",
        "alue"
      ],
      [
        "D",
        "ata"
      ],
      [
        "Ġ",
        "is"
      ],
      [
        "o",
        "s"
      ],
      [
        "i",
        "el"
      ],
      [
        "iel",
        "d"
      ],
      [
        "um",
        "b"
      ],
      [
        "L",
        "E"
      ],
      [
        "Ġv",
        "alue"
      ],
      [
        "G",
        "roup"
      ],
      [
        "o",
        "t"
      ],
      [
        "Ġ",
        "on"
      ],
      [
        "c",
        "k"
      ],
      [
        "In",
        "put"
      ],
      [
        "a",
        "se"
      ],
      [
        "c",
        "he"
      ],
      [
        "Ġ}",
        ")"
      ],
      [
        "um",
        "n"
      ],
      [
        "I",
        "con"
      ],
      [
        "ol",
        "umn"
      ],
      [
        "t",
        "r"
      ],
      [
        "'",
        ";"
      ],
      [
        "<",
        "/"
      ],
      [
        "?",
        ":"
      ],
      [
        "ti",
        "ve"
      ],
      [
        "ar",
        "d"
      ],
      [
        "at",
        "h"
      ],
      [
        "p",
        "rops"
      ],
      [
        "t",
        "ype"
      ],
      [
        "e",
        "vent"
      ],
      [
        "it",
        "em"
      ],
      [
        "o",
        "g"
      ],
      [
        "b",
        "ar"
      ],
      [
        "Ġ",
        "?"
      ],
      [
        "Ġ",
        "S"
      ],
      [
        "ig",
        "ht"
      ],
      [
        "C",
        "h"
      ],
      [
        "B",
        "utton"
      ],
      [
        "u",
        "er"
      ],
      [
        "T",
        "ype"
      ],
      [
        "def",
        "ault"
      ],
      [
        "Ġ",
        "`"
      ],
      [
        "ĠĠĠĠĠĠĠĠ",
        "ĠĠĠĠĠĠĠĠĠ"
      ],
      [
        "c",
        "al"
      ],
      [
        "ro",
        "w"
      ],
      [
        "c",
        "e"
      ],
      [
        "ac",
        "e"
      ],
      [
        "u",
        "b"
      ],
      [
        "I",
        "LE"
      ],
      [
        "ook",
        "ing"
      ],
      [
        "s",
        "er"
      ],
      [
        "ro",
        "l"
      ],
      [
        "uer",
        "y"
      ],
      [
        "(",
        "\""
      ],
      [
        "ĠF",
        "ILE"
      ],
      [
        "Ġ",
        "&"
      ],
      [
        "i",
        "le"
      ],
      [
        "e",
        "ct"
      ],
      [
        "$",
        "{"
      ],
      [
        "c",
        "ri"
      ],
      [
        "Ġ",
        "M"
      ],
      [
        "u",
        "i"
      ],
      [
        "umb",
        "er"
      ],
      [
        "i",
        "r"
      ],
      [
        "t",
        "o"
      ],
      [
        "ad",
        "er"
      ],
      [
        "E",
        "vent"
      ],
      [
        "g",
        "er"
      ],
      [
        "em",
        "o"
      ],
      [
        "Se",
        "lect"
      ],
      [
        "Ġ",
        "g"
      ],
      [
        "Ġ",
        "0"
      ],
      [
        "d",
        "ata"
      ],
      [
        "T",
        "o"
      ],
      [
        "le",
        "x"
      ],
      [
        "re",
        "ate"
      ],
      [
        "us",
        "er"
      ],
      [
        "co",
        "m"
      ],
      [
        "Ġ",
        "2"
      ],
      [
        "Ġ",
        "un"
      ],
      [
        "t",
        "e"
      ],
      [
        "Ġ",
        "de"
      ],
      [
        "Ġ=",
        "=="
      ],
      [
        "Ġ",
        "r"
      ],
      [
        "ro",
        "un"
      ],
      [
        "il",
        "ter"
      ],
      [
        "o",
        "ver"
      ],
      [
        "ĠRe",
        "act"
      ],
      [
        "w",
        "a"
      ],
      [
        "al",
        "l"
      ],
      [
        "..",
        "/"
      ],
      [
        "T",
        "r"
      ],
      [
        "ic",
        "k"
      ],
      [
        "es",
        "s"
      ],
      [
        "Ġ",
        "get"
      ],
      [
        "]",
        ":"
      ],
      [
        "Cont",
        "ent"
      ],
      [
        "f",
        "orm"
      ],
      [
        "a",
        "mp"
      ],
      [
        "y",
        "les"
      ],
      [
        "ad",
        "i"
      ],
      [
        "ri",
        "m"
      ],
      [
        "bo",
        "x"
      ],
      [
        "re",
        "act"
      ],
      [
        "}",
        ">"
      ],
      [
        "con",
        "st"
      ],
      [
        "a",
        "g"
      ],
      [
        "E",
        "r"
      ],
      [
        "u",
        "le"
      ],
      [
        "f",
        "unction"
      ],
      [
        "Ġ",
        ":"
      ],
      [
        "ant",
        "ine"
      ],
      [
        "Ġn",
        "ull"
      ],
      [
        "Er",
        "ror"
      ],
      [
        "an",
        "ge"
      ],
      [
        "a",
        "il"
      ],
      [
        ".",
        "/"
      ],
      [
        "k",
        "ey"
      ],
      [
        "il",
        "d"
      ],
      [
        "Ġ",
        "set"
      ],
      [
        "Ġ",
        "se"
      ],
      [
        "Ġ",
        "..."
      ],
      [
        "lo",
        "t"
      ],
      [
        "d",
        "own"
      ],
      [
        "r",
        "c"
      ],
      [
        "at",
        "or"
      ],
      [
        "n",
        "ame"
      ],
      [
        "p",
        "l"
      ],
      [
        "j",
        "s"
      ],
      [
        "A",
        "p"
      ],
      [
        "-",
        "["
      ],
      [
        ")",
        ","
      ],
      [
        "////",
        "////"
      ],
      [
        "wa",
        "it"
      ],
      [
        "----",
        "----"
      ],
      [
        "?",
        "."
      ],
      [
        "ts",
        "x"
      ],
      [
        "Ġtr",
        "ue"
      ],
      [
        "er",
        "ror"
      ],
      [
        "O",
        "ption"
      ],
      [
        "Ġf",
        "unction"
      ],
      [
        "Ġ",
        ">"
      ],
      [
        "y",
        "n"
      ],
      [
        "ĠĠĠĠĠĠĠĠ",
        "ĠĠĠĠĠĠĠĠĠĠĠ"
      ],
      [
        "F",
        "ield"
      ],
      [
        "Ġ&",
        "&"
      ],
      [
        "D",
        "e"
      ],
      [
        "an",
        "s"
      ],
      [
        "de",
        "x"
      ],
      [
        "re",
        "d"
      ],
      [
        "in",
        "k"
      ],
      [
        "H",
        "e"
      ],
      [
        "age",
        "s"
      ],
      [
        "Ġn",
        "ame"
      ],
      [
        "rop",
        "down"
      ],
      [
        "l",
        "ine"
      ],
      [
        "end",
        "er"
      ],
      [
        "at",
        "u"
      ],
      [
        ")",
        "}"
      ],
      [
        "v",
        "alue"
      ],
      [
        "Ġ",
        "default"
      ],
      [
        "ide",
        "bar"
      ],
      [
        "ig",
        "ger"
      ],
      [
        "ic",
        "on"
      ],
      [
        "on",
        "e"
      ],
      [
        "le",
        "ment"
      ],
      [
        "(",
        "("
      ],
      [
        "c",
        "l"
      ],
      [
        "Cont",
        "ext"
      ],
      [
        "e",
        "atu"
      ],
      [
        "cri",
        "ption"
      ],
      [
        "Ġth",
        "is"
      ],
      [
        "Ġa",
        "wait"
      ],
      [
        "t",
        "le"
      ],
      [
        "St",
        "ate"
      ],
      [
        "j",
        "ect"
      ],
      [
        "or",
        "y"
      ],
      [
        "s",
        "s"
      ],
      [
        "de",
        "m"
      ],
      [
        "i",
        "tion"
      ],
      [
        "y",
        "le"
      ],
      [
        "a",
        "k"
      ],
      [
        "Ġ",
        "@"
      ],
      [
        "i",
        "tive"
      ],
      [
        "l",
        "er"
      ],
      [
        "ari",
        "ant"
      ],
      [
        "c",
        "ent"
      ],
      [
        "(",
        "'"
      ],
      [
        "Ġ",
        "ti"
      ],
      [
        "i",
        "ew"
      ],
      [
        "s",
        "rc"
      ],
      [
        "de",
        "d"
      ],
      [
        "i",
        "al"
      ],
      [
        "Ġ",
        "app"
      ],
      [
        "t",
        "ext"
      ],
      [
        "r",
        "a"
      ],
      [
        "f",
        "ig"
      ],
      [
        "rim",
        "itive"
      ],
      [
        "mponent",
        "s"
      ],
      [
        "Ġn",
        "ew"
      ],
      [
        "K",
        "ey"
      ],
      [
        "in",
        "ed"
      ],
      [
        "a",
        "v"
      ],
      [
        "end",
        "ar"
      ],
      [
        "Ġt",
        "ext"
      ],
      [
        "r",
        "y"
      ],
      [
        "Ġf",
        "or"
      ],
      [
        "Ġ{",
        "..."
      ],
      [
        "or",
        "der"
      ],
      [
        "ur",
        "r"
      ],
      [
        "P",
        "ro"
      ],
      [
        "Co",
        "m"
      ],
      [
        "le",
        "an"
      ],
      [
        "re",
        "f"
      ],
      [
        "i",
        "m"
      ],
      [
        "Ġ",
        "ex"
      ],
      [
        "P",
        "rimitive"
      ],
      [
        "E",
        "x"
      ],
      [
        "Ġ",
        "B"
      ],
      [
        "c",
        "ess"
      ],
      [
        "ti",
        "al"
      ],
      [
        "ig",
        "n"
      ],
      [
        "in",
        "d"
      ],
      [
        "Ġ*",
        "/"
      ],
      [
        "Re",
        "f"
      ],
      [
        "l",
        "y"
      ],
      [
        "Ġ'",
        "@"
      ],
      [
        "Ġ}",
        ");"
      ],
      [
        "al",
        "se"
      ],
      [
        "i",
        "me"
      ],
      [
        "ar",
        "am"
      ],
      [
        "d",
        "ate"
      ],
      [
        "Q",
        "uery"
      ],
      [
        "*",
        "*"
      ],
      [
        "Ġc",
        "o"
      ],
      [
        "al",
        "id"
      ],
      [
        "or",
        "d"
      ],
      [
        "li",
        "ent"
      ],
      [
        "he",
        "ck"
      ],
      [
        "u",
        "st"
      ],
      [
        "Ġ",
        ");"
      ],
      [
        "able",
        "d"
      ],
      [
        "Ġ\"@",
        "/"
      ],
      [
        "yn",
        "c"
      ],
      [
        "Ġn",
        "umber"
      ],
      [
        "oo",
        "lean"
      ],
      [
        "]",
        ","
      ],
      [
        "def",
        "ined"
      ],
      [
        "op",
        "tion"
      ],
      [
        "urr",
        "ent"
      ],
      [
        "Ġl",
        "abel"
      ],
      [
        "L",
        "abel"
      ],
      [
        ")",
        "."
      ],
      [
        "Ġ",
        "item"
      ],
      [
        "T",
        "ext"
      ],
      [
        "c",
        "ont"
      ],
      [
        "Ġ",
        "id"
      ],
      [
        "Ġ",
        "!"
      ],
      [
        "Ġ",
        "U"
      ],
      [
        "R",
        "ow"
      ],
      [
        "roun",
        "d"
      ],
      [
        "id",
        "er"
      ],
      [
        "Tr",
        "igger"
      ],
      [
        "Ġ",
        "an"
      ],
      [
        "o",
        "ur"
      ],
      [
        "at",
        "ch"
      ],
      [
        "g",
        "ist"
      ],
      [
        "T",
        "ime"
      ],
      [
        "che",
        "d"
      ],
      [
        "t",
        "y"
      ],
      [
        "Ġ'",
        "./"
      ],
      [
        "Co",
        "mponent"
      ],
      [
        "ial",
        "og"
      ],
      [
        "2",
        "0"
      ],
      [
        "i",
        "b"
      ],
      [
        "Ġ",
        "user"
      ],
      [
        "Ġ",
        "."
      ],
      [
        "s",
        "ize"
      ],
      [
        "u",
        "g"
      ],
      [
        "Ġp",
        "ack"
      ],
      [
        "li",
        "b"
      ],
      [
        "C",
        "ard"
      ],
      [
        "Ġ",
        "ext"
      ],
      [
        "s",
        "lot"
      ],
      [
        "n",
        "ext"
      ],
      [
        "q",
        "ue"
      ],
      [
        "m",
        "antine"
      ],
      [
        "Ġc",
        "reate"
      ],
      [
        "Ġ",
        "event"
      ],
      [
        "Ġ",
        "N"
      ],
      [
        "oo",
        "t"
      ],
      [
        "T",
        "able"
      ],
      [
        "Ġ",
        "lo"
      ],
      [
        "E",
        "n"
      ],
      [
        "r",
        "ay"
      ],
      [
        "o",
        "st"
      ],
      [
        "Ġw",
        "ith"
      ],
      [
        "Ġ",
        "of"
      ],
      [
        "b",
        "utton"
      ],
      [
        "u",
        "c"
      ],
      [
        "Ġ|",
        "|"
      ],
      [
        "Ġ(",
        ")"
      ],
      [
        "}",
        ";"
      ],
      [
        "el",
        "l"
      ],
      [
        "g",
        "round"
      ],
      [
        "ic",
        "e"
      ],
      [
        "Ġc",
        "h"
      ],
      [
        "ropdown",
        "Menu"
      ],
      [
        "it",
        "y"
      ],
      [
        "R",
        "oot"
      ],
      [
        "cent",
        "er"
      ],
      [
        "s",
        "m"
      ],
      [
        "Ġun",
        "defined"
      ],
      [
        "Ġs",
        "ize"
      ],
      [
        "co",
        "mponents"
      ],
      [
        "cal",
        "com"
      ],
      [
        "W",
        "ith"
      ],
      [
        "Ġpack",
        "ages"
      ],
      [
        "al",
        "endar"
      ],
      [
        "i",
        "ent"
      ],
      [
        "C",
        "l"
      ],
      [
        "o",
        "m"
      ],
      [
        "Ġ",
        "or"
      ],
      [
        "bo",
        "box"
      ],
      [
        "ti",
        "p"
      ],
      [
        "eatu",
        "res"
      ],
      [
        "Option",
        "s"
      ],
      [
        "un",
[...]
