{
  "version": "1.0",
  "truncation": null,
  "padding": null,
  "added_tokens": [
    {
      "id": 0,
      "content": "<|pad|>",
      "single_word": false,
      "lstrip": false,
      "rstrip": false,
      "normalized": false,
      "special": true
    },
    {
      "id": 1,
      "content": "<|endoftext|>",
      "single_word": false,
      "lstrip": false,
      "rstrip": false,
      "normalized": false,
      "special": true
    },
    {
      "id": 2,
      "content": "<|startoftext|>",
      "single_word": false,
      "lstrip": false,
      "rstrip": false,
      "normalized": false,
      "special": true
    }
  ],
  "normalizer": null,
  "pre_tokenizer": {
    "type": "ByteLevel",
    "add_prefix_space": false,
    "trim_offsets": true,
    "use_regex": true
  },
  "post_processor": null,
  "decoder": {
    "type": "ByteLevel",
    "add_prefix_space": true,
    "trim_offsets": true,
    "use_regex": true
  },
  "model": {
    "type": "BPE",
    "dropout": null,
    "unk_token": null,
    "continuing_subword_prefix": null,
    "end_of_word_suffix": null,
    "fuse_unk": false,
    "byte_fallback": false,
    "ignore_merges": false,
    "vocab": {
      "<|pad|>": 0,
      "<|endoftext|>": 1,
      "<|startoftext|>": 2,
      "!": 3,
      "\"": 4,
      "#": 5,
      "$": 6,
      "%": 7,
      "&": 8,
      "'": 9,
      "(": 10,
      ")": 11,
      "*": 12,
      "+": 13,
      ",": 14,
      "-": 15,
      ".": 16,
      "/": 17,
      "0": 18,
      "1": 19,
      "2": 20,
      "3": 21,
      "4": 22,
      "5": 23,
      "6": 24,
      "7": 25,
      "8": 26,
      "9": 27,
      ":": 28,
      ";": 29,
      "<": 30,
      "=": 31,
      ">": 32,
      "?": 33,
      "@": 34,
      "A": 35,
      "B": 36,
      "C": 37,
      "D": 38,
      "E": 39,
      "F": 40,
      "G": 41,
      "H": 42,
      "I": 43,
      "J": 44,
      "K": 45,
      "L": 46,
      "M": 47,
      "N": 48,
      "O": 49,
      "P": 50,
      "Q": 51,
      "R": 52,
      "S": 53,
      "T": 54,
      "U": 55,
      "V": 56,
      "W": 57,
      "X": 58,
      "Y": 59,
      "Z": 60,
      "[": 61,
      "\\": 62,
      "]": 63,
      "^": 64,
      "_": 65,
      "`": 66,
      "a": 67,
      "b": 68,
      "c": 69,
      "d": 70,
      "e": 71,
      "f": 72,
      "g": 73,
      "h": 74,
      "i": 75,
      "j": 76,
      "k": 77,
      "l": 78,
      "m": 79,
      "n": 80,
      "o": 81,
      "p": 82,
      "q": 83,
      "r": 84,
      "s": 85,
      "t": 86,
      "u": 87,
      "v": 88,
      "w": 89,
      "x": 90,
      "y": 91,
      "z": 92,
      "{": 93,
      "|": 94,
      "}": 95,
      "~": 96,
      "¡": 97,
      "¢": 98,
      "£": 99,
      "¤": 100,
      "¥": 101,
      "¦": 102,
      "§": 103,
      "¨": 104,
      "©": 105,
      "ª": 106,
      "«": 107,
      "¬": 108,
      "®": 109,
      "¯": 110,
      "°": 111,
      "±": 112,
      "²": 113,
      "³": 114,
      "´": 115,
      "µ": 116,
      "¶": 117,
      "·": 118,
      "¸": 119,
      "¹": 120,
      "º": 121,
      "»": 122,
      "¼": 123,
      "½": 124,
      "¾": 125,
      "¿": 126,
      "Â": 127,
      "Ã": 128,
      "Ä": 129,
      "Å": 130,
      "Æ": 131,
      "Ç": 132,
      "È": 133,
      "É": 134,
      "Ê": 135,
      "Ì": 136,
      "Î": 137,
      "Ï": 138,
      "Ð": 139,
      "Ñ": 140,
      "×": 141,
      "Ø": 142,
      "Ù": 143,
      "Û": 144,
      "à": 145,
      "á": 146,
      "â": 147,
      "ã": 148,
      "ä": 149,
      "å": 150,
      "æ": 151,
      "ç": 152,
      "è": 153,
      "é": 154,
      "ê": 155,
      "ë": 156,
      "ì": 157,
      "í": 158,
      "î": 159,
      "ï": 160,
      "ð": 161,
      "ĉ": 162,
      "Ċ": 163,
      "Ġ": 164,
      "Ģ": 165,
      "ģ": 166,
      "Ĥ": 167,
      "ĥ": 168,
      "Ħ": 169,
      "ħ": 170,
      "Ĩ": 171,
      "ĩ": 172,
      "Ī": 173,
      "ī": 174,
      "Ĭ": 175,
      "ĭ": 176,
      "Į": 177,
      "į": 178,
      "İ": 179,
      "ı": 180,
      "Ĳ": 181,
      "ĳ": 182,
      "Ĵ": 183,
      "ĵ": 184,
      "Ķ": 185,
      "ķ": 186,
      "ĸ": 187,
      "Ĺ": 188,
      "ĺ": 189,
      "Ļ": 190,
      "ļ": 191,
      "Ľ": 192,
      "ľ": 193,
      "Ŀ": 194,
      "ŀ": 195,
      "Ł": 196,
      "ł": 197,
      "Ń": 198,
      "ĠĠ": 199,
      "ĠĠĠĠ": 200,
      "on": 201,
      "ĠĠĠĠĠĠĠĠ": 202,
      "ĠĠĠ": 203,
      "er": 204,
      "or": 205,
      "en": 206,
      "in": 207,
      "at": 208,
      "ro": 209,
      "st": 210,
      "le": 211,
      "re": 212,
      "Ġ{": 213,
      "Ġc": 214,
      "ĠĠĠĠĠ": 215,
      "Ġ}": 216,
      "ar": 217,
      "al": 218,
      "Ġ=": 219,
      "se": 220,
      "te": 221,
      "ent": 222,
      "Ġ<": 223,
      "Ġf": 224,
      "an": 225,
      "ti": 226,
      "ĠĠĠĠĠĠĠ": 227,
      "de": 228,
      "Ġt": 229,
      "ac": 230,
      "am": 231,
      "ort": 232,
      "Ġ\"": 233,
      "ut": 234,
      "mp": 235,
      "ing": 236,
      "--": 237,
      "as": 238,
      "ĠĠĠĠĠĠĠĠĠ": 239,
      "ge": 240,
      "ur": 241,
      "Ġ(": 242,
      "Ġp": 243,
      "Ġ'": 244,
      "di": 245,
      "tion": 246,
      "Ġre": 247,
      "Ġi": 248,
      "ate": 249,
      "he": 250,
      "Ġcon": 251,
      "un": 252,
      "ex": 253,
      "ame": 254,
      "pe": 255,
      "rom": 256,
      "ue": 257,
      "ol": 258,
      "//": 259,
      "=\"": 260,
      "ab": 261,
      "it": 262,
      ");": 263,
      "ri": 264,
      "mport": 265,
      "Ġfrom": 266,
      "el": 267,
      "Ġconst": 268,
      "ad": 269,
      "ĠĠĠĠĠĠĠĠĠĠĠ": 270,
      "Re": 271,
      "ype": 272,
      "Ġn": 273,
      "import": 274,
      "ul": 275,
      "id": 276,
      "si": 277,
      "lo": 278,
      "ap": 279,
      "il": 280,
      "rop": 281,
      "={": 282,
      "Ġ</": 283,
      "li": 284,
      "Ġb": 285,
      "Name": 286,
      "..": 287,
      "\",": 288,
      "ass": 289,
      "tur": 290,
      "ata": 291,
      "turn": 292,
      "con": 293,
      "ati": 294,
      "Ġs": 295,
      "ma": 296,
      "um": 297,
      "Ġreturn": 298,
      "Ġ=>": 299,
      "Ġst": 300,
      "lass": 301,
      "es": 302,
      "alue": 303,
      "----": 304,
      "ed": 305,
      "sp": 306,
      "ct": 307,
      "()": 308,
      "us": 309,
      "ĠĠĠĠĠĠĠĠĠĠĠĠĠ": 310,
      "Ġclass": 311,
      "ch": 312,
      "ring": 313,
      "ay": 314,
      "ation": 315,
      "xt": 316,
      "Ro": 317,
      "St": 318,
      "Ġw": 319,
      "In": 320,
      "Ġ},": 321,
      "able": 322,
      "Id": 323,
      "om": 324,
      "use": 325,
      "ter": 326,
      "ute": 327,
      "Ġv": 328,
      "rops": 329,
      "text": 330,
      "port": 331,
      "is": 332,
      "ĠclassName": 333,
      "age": 334,
      "up": 335,
      "Ġd": 336,
      "ve": 337,
      "ction": 338,
      "ts": 339,
      "Ġ*": 340,
      "==": 341,
      "end": 342,
      "Ġ/": 343,
      "Con": 344,
      "Ġm": 345,
      "op": 346,
      "ĠT": 347,
      "ver": 348,
      "fi": 349,
      "export": 350,
      "Ġa": 351,
      "get": 352,
      "ot": 353,
      "div": 354,
      "act": 355,
      "tem": 356,
      "ck": 357,
      "oo": 358,
      "et": 359,
      "\";": 360,
      "Ġif": 361,
      "',": 362,
      "ack": 363,
      "Ġin": 364,
      "omp": 365,
      "orm": 366,
      "Ġtype": 367,
      "\">": 368,
      "set": 369,
      "ode": 370,
      "od": 371,
      "ow": 372,
      "Ġ/>": 373,
      "ext": 374,
      "Ġ|": 375,
      "ror": 376,
      "ĠĠĠĠĠĠĠĠĠĠĠĠĠĠĠ": 377,
      "ment": 378,
      "art": 379,
      "({": 380,
      "oc": 381,
      "Ġh": 382,
      "Ġ)": 383,
      "Ġ[": 384,
      "ĠF": 385,
      "der": 386,
      "ace": 387,
      "Ġuse": 388,
      "put": 389,
      "ton": 390,
      "ce": 391,
      "def": 392,
      "00": 393,
      "Ġthe": 394,
      "Se": 395,
      "vent": 396,
      "ull": 397,
      "th": 398,
      "ult": 399,
      "utton": 400,
      "Ġstring": 401,
      "ew": 402,
      "ine": 403,
      "ĠP": 404,
      "and": 405,
      "mo": 406,
      "unction": 407,
      "ig": 408,
      "of": 409,
      "ption": 410,
      "ub": 411,
      "ey": 412,
      "les": 413,
      "Ġtr": 414,
      "Props": 415,
      "Route": 416,
      "ĠC": 417,
      "app": 418,
      "onent": 419,
      "omponent": 420,
      "roup": 421,
      "bo": 422,
      "Ġ//": 423,
      "--------": 424,
      "Ġ\"@": 425,
      "Ġas": 426,
      "ĠD": 427,
      "me": 428,
      "Ġto": 429,
      "eld": 430,
      "ht": 431,
      "ore": 432,
      "Ġ0": 433,
      "Ġ})": 434,
      "Ġe": 435,
      "sc": 436,
      "Ġis": 437,
      "ĠA": 438,
      "ĠRe": 439,
      "out": 440,
      "...": 441,
      "Fi": 442,
      "olor": 443,
      "LE": 444,
      "ath": 445,
      "abel": 446,
      "ze": 447,
      "vi": 448,
      "Ġl": 449,
      "ink": 450,
      "ant": 451,
      "Ġ?": 452,
      "ĠĠĠĠĠĠĠĠĠĠĠĠĠĠĠĠĠ": 453,
      "Ġon": 454,
      "res": 455,
      "Ġdata": 456,
      "ers": 457,
      "Ġth": 458,
      "ook": 459,
      "ari": 460,
      "reate": 461,
      "ra": 462,
      "ith": 463,
      "ted": 464,
      "ess": 465,
      "ase": 466,
      "</": 467,
      "type": 468,
      "oun": 469,
      "Ġ&": 470,
      "Cont": 471,
      "Ġro": 472,
      "Ġ1": 473,
      "ard": 474,
      "Value": 475,
      "og": 476,
      "ault": 477,
      "Item": 478,
      "ĠS": 479,
      "${": 480,
      "lex": 481,
      "Ġg": 482,
      "Ġ`": 483,
      "Ġ===": 484,
      "wa": 485,
      "ui": 486,
      "Ġvalue": 487,
      "lect": 488,
      "ILE": 489,
      "umb": 490,
      "ist": 491,
      "own": 492,
      "ĠFILE": 493,
      "Ġget": 494,
      "Ch": 495,
      "';": 496,
      "ser": 497,
      "?:": 498,
      "che": 499,
      "tr": 500,
      "order": 501,
      "rol": 502,
      "enu": 503,
      "Ġset": 504,
      "lement": 505,
      "De": 506,
      "Ġtext": 507,
      "Data": 508,
      "form": 509,
      "ork": 510,
      "ect": 511,
      "(\"": 512,
      "Type": 513,
      "error": 514,
      "over": 515,
      "Ġ:": 516,
      "all": 517,
      "tive": 518,
      "rror": 519,
      "Error": 520,
      "Button": 521,
      "default": 522,
      "Input": 523,
      "ader": 524,
      "react": 525,
      "Ġun": 526,
      "uer": 527,
      "),": 528,
      "Group": 529,
      "Ġde": 530,
      "ost": 531,
      "umber": 532,
      "size": 533,
      "To": 534,
      "wait": 535,
      "lient": 536,
      "user": 537,
      "rc": 538,
      "mail": 539,
      "////": 540,
      "row": 541,
      "Ġ&&": 542,
      "Ġnull": 543,
      "uery": 544,
      "ĠM": 545,
      "const": 546,
      "key": 547,
      "ild": 548,
      "Ġtrue": 549,
      "ĠĠĠĠĠĠĠĠĠĠĠĠĠĠĠĠĠĠĠ": 550,
      "Ġse": 551,
      "dex": 552,
      "date": 553,
      "./": 554,
      "olum": 555,
      "Ġid": 556,
      "Ġawait": 557,
      "ial": 558,
      "rig": 559,
      "ag": 560,
      "olumn": 561,
      "Ġ>": 562,
      "px": 563,
      "lu": 564,
      "sion": 565,
      "Ġ});": 566,
      "ange": 567,
      "ust": 568,
      "data": 569,
      "ly": 570,
      "com": 571,
      "yn": 572,
      "../": 573,
      "props": 574,
      "mi": 575,
      "Option": 576,
      "value": 577,
      ")}": 578,
      "?.": 579,
      "aram": 580,
      "ilter": 581,
      "Field": 582,
      "ont": 583,
      "pi": 584,
      "name": 585,
      "Ġdi": 586,
      "('": 587,
      "Ġcreate": 588,
      "Ġle": 589,
      "Menu": 590,
      "Ġnew": 591,
      "gr": 592,
      "Ġ'@": 593,
      "Ġfunction": 594,
      "ner": 595,
      "En": 596,
      "ans": 597,
      "space": 598,
      "cal": 599,
      "((": 600,
      "enter": 601,
      "State": 602,
      "spon": 603,
      "ded": 604,
      "Ġname": 605,
      "Ġfor": 606,
      "red": 607,
      "uter": 608,
      "ject": 609,
      "amp": 610,
      "lib": 611,
      "Event": 612,
      "Ġ...": 613,
      "to": 614,
      "fig": 615,
      "ger": 616,
      "Ġ);": 617,
      "function": 618,
      "Ġ\"@/": 619,
      "tsx": 620,
      "lay": 621,
      "ule": 622,
      "atch": 623,
      "box": 624,
      "Ġ.": 625,
      "ription": 626,
      "sponse": 627,
      "ount": 628,
      "urr": 629,
      "ci": 630,
      "Ġr": 631,
      "cess": 632,
      "Ġex": 633,
      "Icon": 634,
      "Ġfi": 635,
      "und": 636,
      "----------------": 637,
      "Ġ!": 638,
      "Ġz": 639,
      "Pro": 640,
      "alid": 641,
      "line": 642,
      "our": 643,
      "Link": 644,
      "ync": 645,
      "He": 646,
      "ocum": 647,
      "src": 648,
      "uth": 649,
      "ined": 650,
      "option": 651,
      "iz": 652,
      "ind": 653,
      "Content": 654,
      "que": 655,
      "tle": 656,
      "Ġ@": 657,
      "Ġ*/": 658,
      "ĠReact": 659,
      "abled": 660,
      "Ġpro": 661,
      "alse": 662,
      "if": 663,
      "ak": 664,
      "Context": 665,
      "ender": 666,
      "js": 667,
      "Ġapp": 668,
      "Select": 669,
      "],": 670,
      "ic": 671,
      "Key": 672,
      "ator": 673,
      "lean": 674,
      "orkspace": 675,
      "urrent": 676,
      "Ġborder": 677,
      "arams": 678,
      "')": 679,
      "Ġan": 680,
      "Ġlo": 681,
      "omponents": 682,
      "sol": 683,
      "ages": 684,
      "eb": 685,
      "defined": 686,
      "Ġitem": 687,
      "Element": 688,
      "Ġ||": 689,
      "button": 690,
      "Ġ()": 691,
      "round": 692,
      "add": 693,
      "Ġdefault": 694,
      "cted": 695,
      "pp": 696,
      "Ġthis": 697,
      "string": 698,
      "-[": 699,
      "Path": 700,
      "}>": 701,
      "bar": 702,
      "one": 703,
      "Sche": 704,
      "ure": 705,
      "ref": 706,
      "ooking": 707,
      "down": 708,
      "yle": 709,
      "]:": 710,
      "Ġ(!": 711,
      "title": 712,
      "arch": 713,
      "ler": 714,
      "ground": 715,
      "();": 716,
      "ĠU": 717,
      "center": 718,
      "ary": 719,
      "Ref": 720,
      "oolean": 721,
      "**": 722,
      "ity": 723,
      "Ġflex": 724,
      "antine": 725,
      "ĠĠĠĠĠĠĠĠĠĠĠĠĠĠĠĠĠĠĠĠĠ": 726,
      "pro": 727,
      "Options": 728,
      "atus": 729,
      "Ġ'/": 730,
      "cont": 731,
      "mit": 732,
      "ariant": 733,
      "sm": 734,
      "Ġcont": 735,
      "heck": 736,
      "color": 737,
      "Label": 738,
      "sition": 739,
      "Ġuser": 740,
      "Ġundefined": 741,
      "ight": 742,
      "Form": 743,
      "yles": 744,
      "Ġof": 745,
      "ls": 746,
      "av": 747,
      "rigger": 748,
      "Ġ'./": 749,
      "};": 750,
      "))": 751,
      "Ġlet": 752,
      "====": 753,
      "ĠN": 754,
      "Component": 755,
      "Ġch": 756,
      "lace": 757,
      "Ġor": 758,
      "quest": 759,
      "ider": 760,
      "artner": 761,
      "lot": 762,
      "flex": 763,
      "ĠB": 764,
      "ialog": 765,
      "back": 766,
      "Ġnumber": 767,
      "idth": 768,
      "ren": 769,
      "Ġ-": 770,
      "ropdown": 771,
      "ocument": 772,
      "span": 773,
      "sh": 774,
      "ss": 775,
      "eng": 776,
      "components": 777,
      "ayout": 778,
      "ength": 779,
      "ff": 780,
      "Ġ2": 781,
      "Ġsh": 782,
      "Ġext": 783,
      "ildren": 784,
      "Query": 785,
      "At": 786,
      "Pri": 787,
      "ory": 788,
      "ast": 789,
      "Ġgap": 790,
      "vel": 791,
      "Ġkey": 792,
      "older": 793,
      "Ti": 794,
      "Ġac": 795,
      "ry": 796,
      "Ġwith": 797,
      "ide": 798,
      "With": 799,
      "Ġwh": 800,
      "rem": 801,
      "Ġ};": 802,
      "sma": 803,
      "urve": 804,
      "ty": 805,
      "demo": 806,
      "Ex": 807,
      "Text": 808,
      "ob": 809,
      "urvey": 810,
      "ail": 811,
      "Ġbe": 812,
      "ign": 813,
      "ps": 814,
      "Ġhe": 815,
      "ain": 816,
      "item": 817,
      "ne": 818,
      "ord": 819,
      "Ġfont": 820,
      "lug": 821,
      "Schema": 822,
      "roll": 823,
      "Ġpack": 824,
      "ading": 825,
      "(),": 826,
      "Op": 827,
      "Tr": 828,
      "ends": 829,
      "mb": 830,
      "endar": 831,
      "low": 832,
      "(--": 833,
      "Mod": 834,
      "):": 835,
      "event": 836,
      "Ġ)}": 837,
      "lock": 838,
      "ark": 839,
      "Ġlabel": 840,
      "late": 841,
      "eat": 842,
      "ify": 843,
      "gan": 844,
      "side": 845,
      "risma": 846,
      "ray": 847,
      "input": 848,
      "ken": 849,
      "po": 850,
      "idd": 851,
      "////////": 852,
      "update": 853,
      "tip": 854,
      "Ġ{...": 855,
      "List": 856,
      "Ġboolean": 857,
      "gram": 858,
      "uti": 859,
      "ise": 860,
      "lected": 861,
      "lick": 862,
      "scription": 863,
      "par": 864,
      "Ġitems": 865,
      "ustom": 866,
      "dit": 867,
      "essage": 868,
      "ĠDe": 869,
      "Ġma": 870,
      "fore": 871,
      "ocus": 872,
      "mitive": 873,
      "api": 874,
      ").": 875,
      "Ġextends": 876,
      "Ġand": 877,
      "radi": 878,
      "next": 879,
      "ope": 880,
      "Ġcolor": 881,
      "map": 882,
      "gn": 883,
      "Time": 884,
      "ody": 885,
      "Ġal": 886,
      "length": 887,
      "ale": 888,
      "Ġfalse": 889,
      "Index": 890,
      "url": 891,
      "ĠH": 892,
      "Or": 893,
      "[]": 894,
      "romise": 895,
      "Ġtypeof": 896,
      "Table": 897,
      "sult": 898,
      "Ser": 899,
      "Ġpackages": 900,
      "File": 901,
      "Date": 902,
      "unded": 903,
      "Primitive": 904,
      "Ġevent": 905,
      "Ġen": 906,
      "load": 907,
      "query": 908,
      "mantine": 909,
      "ĠI": 910,
      "Row": 911,
      "Di": 912,
      "ke": 913,
      "so": 914,
      "Ġapps": 915,
      "full": 916,
      "hook": 917,
      "gist": 918,
      "Ġerror": 919,
      "Ur": 920,
      "andle": 921,
      "Change": 922,
      "inter": 923,
      "Dialog": 924,
      "ell": 925,
      "ource": 926,
      "ache": 927,
      "Vi": 928,
      "utils": 929,
      "Trigger": 930,
      "Root": 931,
      "bobox": 932,
      "ER": 933,
      "Ġpar": 934,
      "face": 935,
      "rib": 936,
      "main": 937,
      "base": 938,
      "Ġj": 939,
      "vider": 940,
      "sabled": 941,
      "Ġpath": 942,
      "ĠĠĠĠĠĠĠĠĠĠĠĠĠĠĠĠĠĠĠĠĠĠĠ": 943,
      "Com": 944,
      "lete": 945,
      "Ar": 946,
      "rect": 947,
      "Card": 948,
      "Url": 949,
      "mod": 950,
      "ON": 951,
      "ile": 952,
      "ill": 953,
      "ize": 954,
      "uc": 955,
      "options": 956,
      "Lo": 957,
      "Ġasync": 958,
      "ere": 959,
      "Sub": 960,
      "col": 961,
      "alendar": 962,
      "Ac": 963,
      "Ġ({": 964,
      "Ġtitle": 965,
      "Ġ${": 966,
      "Ġte": 967,
      "Config": 968,
      "sed": 969,
      "cation": 970,
      "time": 971,
      "start": 972,
      "sib": 973,
      "Ġsize": 974,
      "cn": 975,
      "arget": 976,
      "im": 977,
      "typeof": 978,
      "ml": 979,
      "By": 980,
      "Response": 981,
      "server": 982,
      "})": 983,
      "Header": 984,
      "Ġ??": 985,
      "App": 986,
      "gle": 987,
      "`,": 988,
      "':": 989,
      "table": 990,
      "ings": 991,
      "().": 992,
      "Params": 993,
      "file": 994,
      "open": 995,
      "Ġvariant": 996,
      "valid": 997,
      "ĠO": 998,
      "\")": 999,
      "Ġ}}": 1000,
      "osts": 1001,
      "ick": 1002,
      "Email": 1003,
      "Ġy": 1004,
      "splay": 1005,
      "Open": 1006,
      "Ġany": 1007,
      "icon": 1008,
      "Client": 1009,
      "ures": 1010,
      "Met": 1011,
      "pre": 1012,
      "opover": 1013,
      "oltip": 1014,
      "label": 1015,
      "String": 1016,
      "ft": 1017,
      "sign": 1018,
      "Ġ'../": 1019,
      "Code": 1020,
      "Color": 1021,
      "holder": 1022,
      "allback": 1023,
      "utes": 1024,
      "Ġ+": 1025,
      "laceholder": 1026,
      "Ġrender": 1027,
      "uto": 1028,
      "ound": 1029,
      "ropdownMenu": 1030,
      "slot": 1031,
      "Te": 1032,
      "20": 1033,
      "Filter": 1034,
      "oid": 1035,
      "group": 1036,
      "Ġpre": 1037,
      "Page": 1038,
      "}:": 1039,
      "User": 1040,
      "Ġnot": 1041,
      "EN": 1042,
      "Ġrounded": 1043,
      "50": 1044,
      "arg": 1045,
      "adding": 1046,
      "esc": 1047,
      "Ġ}),": 1048,
      "current": 1049,
      "types": 1050,
      "Ġ!==": 1051,
      "Ġ_": 1052,
      "bg": 1053,
      "Router": 1054,
      "web": 1055,
      "code": 1056,
      "mis": 1057,
      "min": 1058,
      "index": 1059,
      "={{": 1060,
      "eatures": 1061,
      "ral": 1062,
      "Sc": 1063,
      "amples": 1064,
      ">(": 1065,
      "Fn": 1066,
      "ules": 1067,
      "int": 1068,
      "mage": 1069,
      "Ġclient": 1070,
      "ĠW": 1071,
      "etch": 1072,
      "://": 1073,
      "gment": 1074,
      "ative": 1075,
      "Click": 1076,
      "Ġthrow": 1077,
      "Ġ/**": 1078,
      "pt": 1079,
      "Trans": 1080,
      "Me": 1081,
      "Node": 1082,
      "email": 1083,
      "ron": 1084,
      "Ġvar": 1085,
      "Ġcode": 1086,
      "link": 1087,
      "ash": 1088,
      "An": 1089,
      "field": 1090,
      "Up": 1091,
      "Ġ\"./": 1092,
      "log": 1093,
      "action": 1094,
      "Provider": 1095,
      "ization": 1096,
      "router": 1097,
      "--------------------------------": 1098,
      "view": 1099,
      "clu": 1100,
      "Is": 1101,
      "pient": 1102,
      "cipient": 1103,
      "Le": 1104,
      "ated": 1105,
      "fer": 1106,
      "stack": 1107,
      "Ġ--": 1108,
      "Modal": 1109,
      "Desc": 1110,
      "tps": 1111,
      "TM": 1112,
      "Import": 1113,
      "sub": 1114,
      "ener": 1115,
      "velope": 1116,
      "Ġinter": 1117,
      "Ġcolumn": 1118,
      "rst": 1119,
      "ox": 1120,
      "lig": 1121,
      "border": 1122,
      "Layout": 1123,
      "sible": 1124,
      "ocs": 1125,
      "tial": 1126,
      "foreground": 1127,
      "Ġbg": 1128,
      "ample": 1129,
      "Control": 1130,
      "omain": 1131,
      "ite": 1132,
      "calcom": 1133,
      "ĠPromise": 1134,
      "ress": 1135,
      "Action": 1136,
      "qui": 1137,
      "none": 1138,
      "page": 1139,
      "ĠR": 1140,
      "Ġstyle": 1141,
      "Sh": 1142,
      "osition": 1143,
      "test": 1144,
      "core": 1145,
      "RL": 1146,
      "filter": 1147,
      "Ġprops": 1148,
      "ainer": 1149,
      "Api": 1150,
      "Def": 1151,
      "md": 1152,
      "For": 1153,
      "column": 1154,
      "Ġat": 1155,
      "mission": 1156,
      "\");": 1157,
      "ree": 1158,
      "Un": 1159,
      "dule": 1160,
      "idebar": 1161,
      "Ġmax": 1162,
      "right": 1163,
      "cord": 1164,
      "Description": 1165,
      "On": 1166,
      "AT": 1167,
      "Check": 1168,
      "utral": 1169,
      "Ġcan": 1170,
      "ĠĠĠĠĠĠĠĠĠĠĠĠĠĠĠĠĠĠĠĠĠĠĠĠĠ": 1171,
      "idden": 1172,
      "ved": 1173,
      "Loc": 1174,
      "Ġform": 1175,
      "neutral": 1176,
      "raw": 1177,
      "gistry": 1178,
      "auth": 1179,
      "ang": 1180,
      "anstack": 1181,
      "\":": 1182,
      "Ġ3": 1183,
      "Ġemail": 1184,
      "Ġhas": 1185,
      "atar": 1186,
      "Pick": 1187,
      "Ġjust": 1188,
      "ĠZ": 1189,
      "old": 1190,
      "nown": 1191,
      "ee": 1192,
      "mplate": 1193,
      "clude": 1194,
      "Ġpage": 1195,
      "light": 1196,
      "RE": 1197,
      "rid": 1198,
      "list": 1199,
      "rame": 1200,
      "}`": 1201,
      "pri": 1202,
      "Auth": 1203,
      "fo": 1204,
      "];": 1205,
      "client": 1206,
      "Ġcurrent": 1207,
      "(()": 1208,
      "Ġpadding": 1209,
      "Column": 1210,
      "========": 1211,
      "count": 1212,
      "lose": 1213,
      "Ġfield": 1214,
      "ĠDemo": 1215,
      "Ġ4": 1216,
      "tings": 1217,
      "Calendar": 1218,
      "Search": 1219,
      "Ġel": 1220,
      "Ġcomponent": 1221,
      "Ġgroup": 1222,
      "ĠuseState": 1223,
      "uted": 1224,
      "nal": 1225,
      "dic": 1226,
      "25": 1227,
      "Set": 1228,
      "}</": 1229,
      "workspace": 1230,
      "Ġupdate": 1231,
      "ST": 1232,
      "create": 1233,
      "false": 1234,
      "])": 1235,
      ">;": 1236,
      "adi": 1237,
      "roper": 1238,
      "tom": 1239,
      "tanstack": 1240,
      "OR": 1241,
      "24": 1242,
      "Log": 1243,
      "known": 1244,
      "oul": 1245,
      "board": 1246,
      "ould": 1247,
      "ants": 1248,
      "est": 1249,
      "onth": 1250,
      "IN": 1251,
      "are": 1252,
      "bject": 1253,
      "Ġlink": 1254,
      "mary": 1255,
      "Ġfile": 1256,
      "met": 1257,
      "ip": 1258,
      "Ġhandle": 1259,
      "sche": 1260,
      "path": 1261,
      "pl": 1262,
      "node": 1263,
      "rap": 1264,
      "vice": 1265,
      "object": 1266,
      "ĠG": 1267,
      "ansform": 1268,
      "Ġvoid": 1269,
      "Store": 1270,
      "Picker": 1271,
      "trib": 1272,
      "read": 1273,
      "/**": 1274,
      "Server": 1275,
      "ottom": 1276,
      "eri": 1277,
      "ll": 1278,
      "ance": 1279,
      "Ġjustify": 1280,
      "Ġtable": 1281,
      "Pre": 1282,
      "Ġdescription": 1283,
      "Ġoptions": 1284,
      "ination": 1285,
      "content": 1286,
      "oggle": 1287,
      "adata": 1288,
      "demos": 1289,
      "lic": 1290,
      "Ġref": 1291,
      "Mode": 1292,
      "DropdownMenu": 1293,
      "only": 1294,
      "Ad": 1295,
      "Ġworkspace": 1296,
      "Ġroot": 1297,
      ">,": 1298,
      "Ġht": 1299,
      "aria": 1300,
      "ansition": 1301,
      "Styles": 1302,
      "Ġrow": 1303,
      "TML": 1304,
      "Size": 1305,
      "Ġlog": 1306,
      "styles": 1307,
      "ual": 1308,
      "itle": 1309,
      "Survey": 1310,
      "uccess": 1311,
      "Ġit": 1312,
      "bl": 1313,
      "number": 1314,
      "ganization": 1315,
      "Result": 1316,
      "ĠDate": 1317,
      "led": 1318,
      "ĠonClick": 1319,
      "css": 1320,
      "direct": 1321,
      "ush": 1322,
      "ĠError": 1323,
      "Ġthat": 1324,
      "Count": 1325,
      "ĠIn": 1326,
      "select": 1327,
      "true": 1328,
      "Ġsc": 1329,
      "Ġmet": 1330,
      "itial": 1331,
      "Ġurl": 1332,
      "hod": 1333,
      "ComponentProps": 1334,
      "avig": 1335,
      "View": 1336,
      "Ġelse": 1337,
      "Ġ#": 1338,
      "medi": 1339,
      "no": 1340,
      "ooter": 1341,
      "dicator": 1342,
      "Ġdisabled": 1343,
      "Ġback": 1344,
      "https": 1345,
      "ok": 1346,
      "mand": 1347,
      "Ġselect": 1348,
      "Title": 1349,
      "ript": 1350,
      "Ġop": 1351,
      "Ġcontent": 1352,
      "Ġinput": 1353,
      "Tab": 1354,
      "docs": 1355,
      "her": 1356,
      "pan": 1357,
      "Request": 1358,
      "Demo": 1359,
      "cond": 1360,
      "ĠRoute": 1361,
      "comp": 1362,
      "muted": 1363,
      "ending": 1364,
      "Ġwe": 1365,
      "Values": 1366,
      "Ġdisplay": 1367,
      "JS": 1368,
      "/$": 1369,
      "lassName": 1370,
      "spac": 1371,
      "state": 1372,
      "Booking": 1373,
      "andler": 1374,
      "10": 1375,
      "ream": 1376,
      "Ġ}:": 1377,
      "ĠAr": 1378,
      "new": 1379,
      "has": 1380,
      "block": 1381,
      "find": 1382,
      "////////////////": 1383,
      "Ġquery": 1384,
      "Ġstart": 1385,
      "Vari": 1386,
      "Token": 1387,
      "ward": 1388,
      "Ġresponse": 1389,
      "lert": 1390,
      "100": 1391,
      "Ġinterface": 1392,
      "work": 1393,
      "modules": 1394,
      "SS": 1395,
      "config": 1396,
      "Ġmin": 1397,
      "RouteImport": 1398,
      "aders": 1399,
      "Ġelement": 1400,
      "Ġ{}": 1401,
      "Status": 1402,
      "Par": 1403,
      "ential": 1404,
      "Ġprisma": 1405,
      "Ġwidth": 1406,
      "registry": 1407,
      "ayload": 1408,
      "move": 1409,
      "Tag": 1410,
      "Radi": 1411,
      "Ġfocus": 1412,
      "mpty": 1413,
      "([": 1414,
      "Ġstate": 1415,
      "Ġchildren": 1416,
      "json": 1417,
      "From": 1418,
      "Stack": 1419,
      "Ġstatus": 1420,
      "ganis": 1421,
      "Combobox": 1422,
      "ganisation": 1423,
      "Valid": 1424,
      "lob": 1425,
      "cl": 1426,
      "not": 1427,
      "dub": 1428,
      "ĠE": 1429,
      "fix": 1430,
      "xl": 1431,
      "Ġteam": 1432,
      "enc": 1433,
      "vatar": 1434,
      "ĠApp": 1435,
      "lection": 1436,
      "cor": 1437,
      "akit": 1438,
      "redential": 1439,
      "Document": 1440,
      "Array": 1441,
      "auto": 1442,
      "his": 1443,
      "outline": 1444,
      "Tooltip": 1445,
      "uration": 1446,
      "Man": 1447,
      "parator": 1448,
      "Ġhref": 1449,
      "af": 1450,
      "heme": 1451,
      "Ġpartner": 1452,
      "Ġwhere": 1453,
      "Ġresol": 1454,
      "ormal": 1455,
      "ou": 1456,
      "iddle": 1457,
      "={()": 1458,
      "atter": 1459,
      "500": 1460,
      "ave": 1461,
      "xs": 1462,
      "let": 1463,
      "\")}": 1464,
      "vite": 1465,
      ">)": 1466,
      "top": 1467,
      "Chart": 1468,
      "header": 1469,
      "lg": 1470,
      "Box": 1471,
      "push": 1472,
      "per": 1473,
      "(`": 1474,
      "wh": 1475,
      "Start": 1476,
      "Ġ\"../": 1477,
      "Ġover": 1478,
      "try": 1479,
      "ebhook": 1480,
      "sole": 1481,
      "argin": 1482,
      "Ġprogram": 1483,
      "ence": 1484,
      "Ġsub": 1485,
      "Ġbooking": 1486,
      "sidebar": 1487,
      "ste": 1488,
      "wit": 1489,
      "lap": 1490,
      "ies": 1491,
      "word": 1492,
      "Ġresult": 1493,
      "lugin": 1494,
      "agination": 1495,
      "font": 1496,
      "check": 1497,
      "tx": 1498,
      "style": 1499,
      "acity": 1500,
      "adge": 1501,
      "Out": 1502,
      "erver": 1503,
      "Ġexamples": 1504,
      "gray": 1505,
      "solid": 1506,
      "Ġpx": 1507,
      "Ġcontext": 1508,
      "ĠCom": 1509,
      "Ġplaceholder": 1510,
      "ocumen": 1511,
      "atic": 1512,
      "ĠĠĠĠĠĠĠĠĠĠĠĠĠĠĠĠĠĠĠĠĠĠĠĠĠĠĠ": 1513,
      "Ġcheck": 1514,
      "DE": 1515,
      "Ġunknown": 1516,
      "Ġfilter": 1517,
      "arn": 1518,
      "Selected": 1519,
      "status": 1520,
      "sor": 1521,
      "var": 1522,
      "with": 1523,
      "Ġmessage": 1524,
      "ach": 1525,
      "ses": 1526,
      "Popover": 1527,
      "200": 1528,
      "Ġ`${": 1529,
      "uct": 1530,
      "str": 1531,
      "prisma": 1532,
      "Submit": 1533,
      "roperty": 1534,
      "ome": 1535,
      "ocumenso": 1536,
      "ating": 1537,
      "quired": 1538,
      "pc": 1539,
      "olid": 1540,
      "Dis": 1541,
      "flow": 1542,
      "disabled": 1543,
      "gress": 1544,
      "iddlewa": 1545,
      ">{": 1546,
      "Ġnext": 1547,
      "sv": 1548,
      "Sidebar": 1549,
      "root": 1550,
      "uild": 1551,
      "menu": 1552,
      "lative": 1553,
      "Ġconfig": 1554,
      "Ġby": 1555,
      "angu": 1556,
      "documenso": 1557,
      "Children": 1558,
      "arts": 1559,
      "body": 1560,
      "for": 1561,
      "cent": 1562,
      "]);": 1563,
      "Ġdate": 1564,
      "bottom": 1565,
      "Default": 1566,
      "card": 1567,
      "rt": 1568,
      "Ġtime": 1569,
      "survey": 1570,
      "Ġ],": 1571,
      "Ġare": 1572,
      "hidden": 1573,
      "Sign": 1574,
      "ten": 1575,
      "Ġmargin": 1576,
      "Width": 1577,
      "fier": 1578,
      "Ġno": 1579,
      "mix": 1580,
      "Ġcomp": 1581,
      "igin": 1582,
      "Ġbackground": 1583,
      "={(": 1584,
      "Ġsearch": 1585,
      "adow": 1586,
      "routes": 1587,
      "left": 1588,
      "Ġcase": 1589,
      "Ġbase": 1590,
      "ĠThe": 1591,
      "Ġus": 1592,
      "radius": 1593,
      "ear": 1594,
      "post": 1595,
      "Ġconsole": 1596,
      "Features": 1597,
      "Comp": 1598,
      "route": 1599,
      "Map": 1600,
      "ustomer": 1601,
      "__": 1602,
      "avigation": 1603,
      "Ġ'../../": 1604,
      "Cache": 1605,
      "max": 1606,
      "ĠArray": 1607,
      "ĠuserId": 1608,
      "ENT": 1609,
      "Li": 1610,
      "Ġparams": 1611,
      "program": 1612,
      "Ġres": 1613,
      "pos": 1614,
      "width": 1615,
      "oin": 1616,
      "radix": 1617,
      "Ġheader": 1618,
      "Ġindex": 1619,
      "Ġtry": 1620,
      "\"]": 1621,
      "dition": 1622,
      "place": 1623,
      "medium": 1624,
      "ous": 1625,
      "ffect": 1626,
      "Ġshould": 1627,
      "Ġvi": 1628,
      "Ġaria": 1629,
      "team": 1630,
      "Body": 1631,
      "React": 1632,
      "Ġall": 1633,
      "Ġrequest": 1634,
      "Ġwhen": 1635,
      "witch": 1636,
      "Indicator": 1637,
      "qu": 1638,
      "Team": 1639,
      "Service": 1640,
      "ced": 1641,
      "Ġicon": 1642,
      "assword": 1643,
      "Ġvalid": 1644,
      "site": 1645,
      "cur": 1646,
      "Ġmod": 1647,
      "booking": 1648,
      "ripe": 1649,
      "Ids": 1650,
      "Loader": 1651,
      "/*": 1652,
      "ĠTable": 1653,
      "partner": 1654,
      "Update": 1655,
      "anguage": 1656,
      "Cell": 1657,
      "ĠButton": 1658,
      "ners": 1659,
      "posit": 1660,
      "Ġdark": 1661,
      "Base": 1662,
      "ME": 1663,
      "Ġne": 1664,
      "Ġdocument": 1665,
      "No": 1666,
      "']": 1667,
      "Ġheight": 1668,
      "Ġimport": 1669,
      "});": 1670,
      "Ġnode": 1671,
      "ION": 1672,
      "['": 1673,
      "URL": 1674,
      "Ġcom": 1675,
      "search": 1676,
      "control": 1677,
      "env": 1678,
      "mon": 1679,
      "Dir": 1680,
      "Ġend": 1681,
      "active": 1682,
      "iddleware": 1683,
      "Ġpy": 1684,
      "tiv": 1685,
      "heet": 1686,
      "ateg": 1687,
      "null": 1688,
      "Workspace": 1689,
      "atform": 1690,
      "lobal": 1691,
      "TE": 1692,
      "fication": 1693,
      "posts": 1694,
      "ask": 1695,
      "Ġctx": 1696,
      "eek": 1697,
      "As": 1698,
      "val": 1699,
      "ĠThis": 1700,
      "optional": 1701,
      "ms": 1702,
      "enub": 1703,
      "ized": 1704,
      "Object": 1705,
      "Scroll": 1706,
      "enubar": 1707,
      "from": 1708,
      "erson": 1709,
      "Ġread": 1710,
      "rawer": 1711,
      "ug": 1712,
      "cel": 1713,
      "bold": 1714,
      "day": 1715,
      "12": 1716,
      "Ġ),": 1717,
      "18": 1718,
      "akra": 1719,
      "Ġactive": 1720,
      "Module": 1721,
      "resol": 1722,
      "condary": 1723,
      "stance": 1724,
      "err": 1725,
      "Render": 1726,
      "Ġsm": 1727,
      "children": 1728,
      "eature": 1729,
      "tegr": 1730,
      "we": 1731,
      "Ġshow": 1732,
      "Of": 1733,
      "Container": 1734,
      "\"),": 1735,
      "artners": 1736,
      "Th": 1737,
      "element": 1738,
      "hooks": 1739,
      "Separator": 1740,
      "Ġ6": 1741,
      "ces": 1742,
      "Partner": 1743,
      "utation": 1744,
      "os": 1745,
      "store": 1746,
      "actory": 1747,
      "async": 1748,
      "Show": 1749,
      "tegration": 1750,
      "rm": 1751,
      "Range": 1752,
      "ĠMantine": 1753,
      "svg": 1754,
      "Edit": 1755,
      "Ġpri": 1756,
      "Next": 1757,
      "Ġopen": 1758,
      "Message": 1759,
      "Style": 1760,
      "rapp": 1761,
      "InputGroup": 1762,
      "Ġfetch": 1763,
      "Ġroute": 1764,
      "indow": 1765,
      "ĠFi": 1766,
      "AL": 1767,
      "2024": 1768,
      "rite": 1769,
      "Ġtransition": 1770,
      "RT": 1771,
      "Radio": 1772,
      "Effect": 1773,
      "sing": 1774,
      "ols": 1775,
      "ility": 1776,
      "Ġserver": 1777,
      "Ġ100": 1778,
      ")/": 1779,
      "Number": 1780,
      "Ġrouter": 1781,
      "pository": 1782,
      "EventType": 1783,
      "ClassName": 1784,
      "ĠV": 1785,
      ")\",": 1786,
      "okl": 1787,
      "/@": 1788,
      "]/": 1789,
      "Ġsource": 1790,
      "HTML": 1791,
      "Section": 1792,
      "Create": 1793,
      "interface": 1794,
      "Ġalign": 1795,
      "alog": 1796,
      "Loading": 1797,
      "selected": 1798,
      "otal": 1799,
      "Ġ[&": 1800,
      "ĠPro": 1801,
      "Ġcatch": 1802,
      "include": 1803,
      "enti": 1804,
      "context": 1805,
      "Ġselected": 1806,
      "ĠNext": 1807,
      "Add": 1808,
      "Ġwill": 1809,
      "rapper": 1810,
      "ashboard": 1811,
      "End": 1812,
      "oklch": 1813,
      "vo": 1814,
      "Close": 1815,
      "tribute": 1816,
      "Ġinitial": 1817,
      "testid": 1818,
      "Down": 1819,
      "Day": 1820,
      "Ġhover": 1821,
      "Block": 1822,
      "fter": 1823,
      "Checkbox": 1824,
      "Ġpl": 1825,
      "Ġme": 1826,
      "Segment": 1827,
      "Meta": 1828,
      "Ġyour": 1829,
      "Ġhtml": 1830,
      "source": 1831,
      "ep": 1832,
      "ortal": 1833,
      "scrib": 1834,
      "mber": 1835,
      "variant": 1836,
      "ĠRecord": 1837,
      "primary": 1838,
      "tende": 1839,
      "Pl": 1840,
      "sli": 1841,
      "lit": 1842,
      "Alert": 1843,
      "tri": 1844,
      "white": 1845,
      "Avatar": 1846,
      "ĠCh": 1847,
      "vious": 1848,
      "ersion": 1849,
      "sure": 1850,
      "ĠURL": 1851,
      "FileRoute": 1852,
      "layout": 1853,
      "Ġtarget": 1854,
      "anel": 1855,
      "lication": 1856,
      "ternal": 1857,
      "cre": 1858,
      "meta": 1859,
      "Settings": 1860,
      "ĠTo": 1861,
      "inline": 1862,
      "html": 1863,
      "ally": 1864,
      "features": 1865,
      "Ġdef": 1866,
      "gister": 1867,
      "ails": 1868,
      "hover": 1869,
      "cordi": 1870,
      "cordion": 1871,
      "hor": 1872,
      "Ġauth": 1873,
      "refer": 1874,
      "orted": 1875,
      "'s": 1876,
      "All": 1877,
      "ĠL": 1878,
      "target": 1879,
      "lear": 1880,
      "AP": 1881,
      "Ġsolid": 1882,
      "ĠSet": 1883,
      "16": 1884,
      "Footer": 1885,
      "Ġprocess": 1886,
      "\">{": 1887,
      "Ġtransform": 1888,
      "ties": 1889,
      "Tree": 1890,
      "RO": 1891,
      "zod": 1892,
      "ĠDialog": 1893,
      "examples": 1894,
      "Enabled": 1895,
      "'t": 1896,
      "Ġtoken": 1897,
      "entation": 1898,
      "entry": 1899,
      "message": 1900,
      "ice": 1901,
      "document": 1902,
      "rection": 1903,
      "Can": 1904,
      "Ġposition": 1905,
      "icons": 1906,
      "<\"": 1907,
      "Ġday": 1908,
      "lider": 1909,
      "Ġadd": 1910,
      "Ġcenter": 1911,
      "includes": 1912,
      "ags": 1913,
      "ca": 1914,
      "Toggle": 1915,
      "ĠonChange": 1916,
      "ayment": 1917,
      "Per": 1918,
      "script": 1919,
      "rand": 1920,
      "udit": 1921,
      "Callback": 1922,
      "ĠField": 1923,
      "Ġout": 1924,
      "Ġup": 1925,
      "Ġformat": 1926,
      "schedule": 1927,
      "/${": 1928,
      "14": 1929,
      "Ġ[\"": 1930,
      "igh": 1931,
      "firm": 1932,
      "head": 1933,
      "Ġ[]": 1934,
      "Info": 1935,
      "ĠTData": 1936,
      "ĠUse": 1937,
      "Child": 1938,
      "Ġcache": 1939,
      "ĠcreateFileRoute": 1940,
      "clo": 1941,
      "ĠSelect": 1942,
      "================": 1943,
      "Ġparent": 1944,
      "unk": 1945,
      "Items": 1946,
      "Ġtab": 1947,
      "JSON": 1948,
      "cs": 1949,
      "solute": 1950,
      "()}": 1951,
      "SE": 1952,
      "Repository": 1953,
      "Fields": 1954,
      "ared": 1955,
      "ion": 1956,
      "Ġper": 1957,
      "scroll": 1958,
      "Target": 1959,
      "Image": 1960,
      "Ġsrc": 1961,
      "less": 1962,
      "mt": 1963,
      "rea": 1964,
      "asic": 1965,
      "amic": 1966,
      "));": 1967,
      "Line": 1968,
      "token": 1969,
      "description": 1970,
      "va": 1971,
      "ID": 1972,
      "ynamic": 1973,
      "chart": 1974,
      "YY": 1975,
      "Placeholder": 1976,
      "Stream": 1977,
      "iginal": 1978,
      "items": 1979,
      "Envelope": 1980,
      "mbed": 1981,
      "ContextMenu": 1982,
      "Variants": 1983,
      "Ġfirst": 1984,
      "Ġaction": 1985,
      "DO": 1986,
      "vail": 1987,
      "ĠĠĠĠĠĠĠĠĠĠĠĠĠĠĠĠĠĠĠĠĠĠĠĠĠĠĠĠĠ": 1988,
      "Domain": 1989,
      "Match": 1990,
      "EX": 1991,
      "response": 1992,
      "mbers": 1993,
      "gb": 1994,
      "Ġexist": 1995,
      "nect": 1996,
      "Ġ10": 1997,
      "dev": 1998,
      "ĠIf": 1999,
      "Ġfull": 2000,
      "Ġcontrol": 2001,
      "Handler": 2002,
      "ling": 2003,
      "ables": 2004,
      "secondary": 2005,
      "iled": 2006,
      "struc": 2007,
      "cr": 2008,
      "example": 2009,
      "reen": 2010,
      "Ġyou": 2011,
      "Ġvalues": 2012,
      "Ġ))}": 2013,
      "focus": 2014,
      "cell": 2015,
      "Ġcn": 2016,
      "OT": 2017,
      "resh": 2018,
      "dis": 2019,
      "Slot": 2020,
      "siz": 2021,
      "leton": 2022,
      "dialog": 2023,
      "cide": 2024,
      "Ġstore": 2025,
      "Property": 2026,
      "frame": 2027,
      "ested": 2028,
      "Events": 2029,
      "module": 2030,
      "missions": 2031,
      "ency": 2032,
      "params": 2033,
      "fset": 2034,
      "Ġmatch": 2035,
      "].": 2036,
      "son": 2037,
      "hed": 2038,
      "structive": 2039,
      "Recipient": 2040,
      "rag": 2041,
      "image": 2042,
      "ursor": 2043,
      "la": 2044,
      "ense": 2045,
      "Found": 2046,
      "trpc": 2047,
      "Memo": 2048,
      "Exp": 2049,
      "pend": 2050,
      "Ġrequired": 2051,
      "ular": 2052,
      "tools": 2053,
      "crumb": 2054,
      "Ġ<>": 2055,
      "And": 2056,
      "ariakit": 2057,
      "slug": 2058,
      "[\"": 2059,
      "readcrumb": 2060,
      "Mo": 2061,
      "Arrow": 2062,
      "aly": 2063,
      "Example": 2064,
      "Active": 2065,
      "attern": 2066,
      "success": 2067,
      "ĠForm": 2068,
      "ĠCheck": 2069,
      "tical": 2070,
      "this": 2071,
      "Area": 2072,
      "relative": 2073,
      "reak": 2074,
      "ollap": 2075,
      "MA": 2076,
      "sers": 2077,
      "tp": 2078,
      "atche": 2079,
      "ĠDropdownMenu": 2080,
      "Ġsign": 2081,
      "absolute": 2082,
      "Ġ\"#": 2083,
      "pin": 2084,
      "tributes": 2085,
      "ĠLink": 2086,
      "vate": 2087,
      "Post": 2088,
      "IT": 2089,
      "Panel": 2090,
      "handle": 2091,
      "Locale": 2092,
      "Metadata": 2093,
      "AU": 2094,
      "ped": 2095,
      "Role": 2096,
      "parse": 2097,
      "rtual": 2098,
      "events": 2099,
      "ĠAn": 2100,
      "Ġ}}>": 2101,
      "Over": 2102,
      "Prop": 2103,
      "asses": 2104,
      "Limit": 2105,
      "Tabs": 2106,
      "dr": 2107,
      "join": 2108,
      "Ġli": 2109,
      "opy": 2110,
      "keleton": 2111,
      "apply": 2112,
      "={`": 2113,
      "Ġlist": 2114,
      "Ġoverflow": 2115,
      "wind": 2116,
      "dAt": 2117,
      "imate": 2118,
      "Ġ</>": 2119,
      "IC": 2120,
      ".\",": 2121,
      "Delete": 2122,
      "ĠSidebar": 2123,
      "Resol": 2124,
      "ĠTr": 2125,
      "Types": 2126,
      "Focus": 2127,
      "Ġparse": 2128,
      "invalid": 2129,
      "Location": 2130,
      "pack": 2131,
      "tab": 2132,
      "Ġslug": 2133,
      "80": 2134,
      "=\"/": 2135,
      "ientation": 2136,
      "Position": 2137,
      "Ġfound": 2138,
      "ublic": 2139,
      "fied": 2140,
      "Dropdown": 2141,
      "render": 2142,
      "ydr": 2143,
      "cks": 2144,
      "Right": 2145,
      "Ġrecipient": 2146,
      "orage": 2147,
      "lowed": 2148,
      "accent": 2149,
      "Template": 2150,
      "ĠMantineDemo": 2151,
      "obile": 2152,
      "Badge": 2153,
      "ud": 2154,
      "Ġsche": 2155,
      "Portal": 2156,
      "pointer": 2157,
      "lots": 2158,
      "destructive": 2159,
      "calendar": 2160,
      "Ġonly": 2161,
      "yste": 2162,
      "Ġmo": 2163,
      "\"],": 2164,
      "ĠSt": 2165,
      "----------------------------------------------------------------": 2166,
      "ph": 2167,
      "Ġenvelope": 2168,
      "Ġ5": 2169,
      "Ġcal": 2170,
      "Names": 2171,
      "ĠCard": 2172,
      "format": 2173,
      "Hel": 2174,
      "Ġso": 2175,
      "edit": 2176,
      "600": 2177,
      "ultip": 2178,
      "Keys": 2179,
      "Off": 2180,
      "/(": 2181,
      "ystem": 2182,
      "/_": 2183,
      "visible": 2184,
      "40": 2185,
      "ec": 2186,
      "ðŁ": 2187,
      "uff": 2188,
      "Ġtoast": 2189,
      "custom": 2190,
      "ĠworkspaceId": 2191,
      "entifier": 2192,
      "ĠCombobox": 2193,
      "ĠObject": 2194,
      "Ġauto": 2195,
      "Ġblock": 2196,
      "enerate": 2197,
      "Ġresolve": 2198,
      "Ġtheme": 2199,
      "entic": 2200,
      "transform": 2201,
      "ansp": 2202,
      "15": 2203,
      "ailed": 2204,
      "viron": 2205,
      "rcle": 2206,
      "vironment": 2207,
      "other": 2208,
      "blue": 2209,
      "moun": 2210,
      "Command": 2211,
      "Ġdo": 2212,
      "ults": 2213,
      "Ġlast": 2214,
      "grid": 2215,
      "Ġmd": 2216,
      "Empty": 2217,
      "Ġar": 2218,
      "users": 2219,
      "ailwind": 2220,
      "pect": 2221,
      "izont": 2222,
      "ason": 2223,
      "peci": 2224,
      "000": 2225,
      "PC": 2226,
      "[];": 2227,
      "Ġbody": 2228,
      "ĠQuery": 2229,
      "lation": 2230,
      "izontal": 2231,
      "`;": 2232,
      "Ġnormal": 2233,
      ">>": 2234,
      "rouse": 2235,
      "ĠHTML": 2236,
      "rousel": 2237,
      "opacity": 2238,
      "ich": 2239,
      "bri": 2240,
      "Not": 2241,
      "bricks": 2242,
      "RPC": 2243,
      "ganizationId": 2244,
      "GE": 2245,
      "}`,": 2246,
      "co": 2247,
      "Ġcell": 2248,
      "can": 2249,
      "Ġparsed": 2250,
      "derline": 2251,
      "first": 2252,
      "Ġbutton": 2253,
      "Ġtest": 2254,
      "host": 2255,
      "theme": 2256,
      "leted": 2257,
      "////////////////////////////////": 2258,
      "ĠsetIs": 2259,
      "ĠeventType": 2260,
      "Feature": 2261,
      "spacing": 2262,
      "Ġstyles": 2263,
      "Slug": 2264,
      "ĠuseEffect": 2265,
      "ension": 2266,
      "}/": 2267,
      "())": 2268,
      "param": 2269,
      "Ġcontin": 2270,
      "Factory": 2271,
      "Ġrun": 2272,
      "Ġcursor": 2273,
      "Ste": 2274,
      "dark": 2275,
      "ĠFile": 2276,
      "Css": 2277,
      "duct": 2278,
      "trans": 2279,
      "args": 2280,
      "actions": 2281,
      "Ġdomain": 2282,
      "Ġinstance": 2283,
      "Ġ})}": 2284,
      "Ġscroll": 2285,
      "ĠPrisma": 2286,
      "Parent": 2287,
      "75": 2288,
      "Only": 2289,
      "AC": 2290,
      "Entry": 2291,
      "ert": 2292,
      "Ġ'#": 2293,
      "Ġcustom": 2294,
      "request": 2295,
      "last": 2296,
      "riakit": 2297,
      "any": 2298,
      "process": 2299,
      "arent": 2300,
      "scribe": 2301,
      "ĠPosts": 2302,
      "result": 2303,
      "Webhook": 2304,
      "ession": 2305,
      "Method": 2306,
      "Model": 2307,
      "replace": 2308,
      "Ġafter": 2309,
      "Ġused": 2310,
      "ĠCreate": 2311,
      "afe": 2312,
      "vron": 2313,
      "');": 2314,
      "panded": 2315,
      "be": 2316,
      "charts": 2317,
      "RI": 2318,
      "kip": 2319,
      "Ġaccess": 2320,
      "boun": 2321,
      "Ġpost": 2322,
      "Ġmodule": 2323,
      "ature": 2324,
      "erge": 2325,
      "Grid": 2326,
      "Ġsurvey": 2327,
      "vue": 2328,
      "Ġmonth": 2329,
      "bases": 2330,
      "Bar": 2331,
      "Order": 2332,
      "Ġchange": 2333,
      "Month": 2334,
      "Ġmethod": 2335,
      "template": 2336,
      "Ġtop": 2337,
      "NA": 2338,
      "Ġbuild": 2339,
      "Routes": 2340,
      "Det": 2341,
      "osite": 2342,
      "settings": 2343,
      "izer": 2344,
      "tendee": 2345,
      "tification": 2346,
      "height": 2347,
      "Ġ['": 2348,
      "nest": 2349,
      "Source": 2350,
      "Head": 2351,
      "cale": 2352,
      "Ġhave": 2353,
      "Ġmake": 2354,
      "ĠAc": 2355,
      "ĠInput": 2356,
      "Rows": 2357,
      "ĠText": 2358,
      "ircle": 2359,
      "ween": 2360,
      "shadow": 2361,
      "IndexRoute": 2362,
      "Ext": 2363,
      "'),": 2364,
      "container": 2365,
      "popover": 2366,
      "rink": 2367,
      "rounded": 2368,
      "toggle": 2369,
      "etween": 2370,
      "Ġad": 2371,
      "US": 2372,
      "ries": 2373,
      "Heading": 2374,
      "display": 2375,
      "Offset": 2376,
      "class": 2377,
      "Height": 2378,
      "Output": 2379,
      "Read": 2380,
      "envelope": 2381,
      "Theme": 2382,
      "Ġvari": 2383,
      "chor": 2384,
      "Pagination": 2385,
      "show": 2386,
      "basic": 2387,
      "Schedule": 2388,
      "ansparent": 2389,
      "ir": 2390,
      "colors": 2391,
      "ifest": 2392,
      "Ġwindow": 2393,
      "Json": 2394,
      "imation": 2395,
      "Ġ[&_": 2396,
      "delete": 2397,
      "now": 2398,
      "ĠPar": 2399,
      "ax": 2400,
      "First": 2401,
      "resolve": 2402,
      "Dev": 2403,
      "ĠuseMemo": 2404,
      "infer": 2405,
      "dir": 2406,
      "ĠAP": 2407,
      "Access": 2408,
      "mount": 2409,
      "Ġneed": 2410,
      "OU": 2411,
      "04": 2412,
      "values": 2413,
      "domain": 2414,
      "ummary": 2415,
      "oth": 2416,
      "area": 2417,
      "cipe": 2418,
      "Ġsegment": 2419,
      "tes": 2420,
      "Ġak": 2421,
      "lease": 2422,
      "Program": 2423,
      "Ġwork": 2424,
      "Menubar": 2425,
      "Year": 2426,
      "Format": 2427,
      "06": 2428,
      "slate": 2429,
      "rong": 2430,
      "Ob": 2431,
      "sr": 2432,
      "ting": 2433,
      "Function": 2434,
      "ultiple": 2435,
      "Ġdelete": 2436,
      "Ġdefine": 2437,
      "lint": 2438,
      "split": 2439,
      "Ġexport": 2440,
      "voice": 2441,
      "Ġleft": 2442,
      "hevron": 2443,
      "EXT": 2444,
      "RowModel": 2445,
      "mark": 2446,
      "sort": 2447,
      "formbricks": 2448,
      "ĠdefaultValue": 2449,
      "Ġ...(": 2450,
      "ories": 2451,
      "info": 2452,
      "AR": 2453,
      "void": 2454,
      "Ġ]": 2455,
      "ique": 2456,
      "Organisation": 2457,
      "ĠGet": 2458,
      "Ġ/>}": 2459,
      "arousel": 2460,
      "('/": 2461,
      "cache": 2462,
      "Ġreadonly": 2463,
      "Ġduration": 2464,
      "Ġobject": 2465,
      "AN": 2466,
      "Ġsup": 2467,
      "errors": 2468,
      "Wrapper": 2469,
      "AD": 2470,
      "Frame": 2471,
      "Ġmode": 2472,
      "boolean": 2473,
      "Ġright": 2474,
      "Optional": 2475,
      "Ġhttps": 2476,
      "._": 2477,
      "Ġcl": 2478,
      "Ġsp": 2479,
      "Pending": 2480,
      "man": 2481,
      "lip": 2482,
      "ĠMRT": 2483,
      "atches": 2484,
      "Credential": 2485,
      "Ġinclude": 2486,
      "âĶ": 2487,
      "Ġoklch": 2488,
      "match": 2489,
      "TData": 2490,
      "vailable": 2491,
      "Ġ20": 2492,
      "Ġ8": 2493,
      "99": 2494,
      "LT": 2495,
      "Ġredirect": 2496,
      "ListBox": 2497,
      "ĠAlert": 2498,
      "Ġheaders": 2499,
      "Session": 2500,
      "mr": 2501,
      "Ġpayload": 2502,
      "partners": 2503,
      "Invalid": 2504,
      "ĠComponent": 2505,
      "common": 2506,
      "className": 2507,
      "ĠteamId": 2508,
      "bd": 2509,
      "semi": 2510,
      "'],": 2511,
      "eslint": 2512,
      "CE": 2513,
      "ulti": 2514,
      "ategory": 2515,
      "fa": 2516,
      "OO": 2517,
      "hel": 2518,
      "Timeout": 2519,
      "write": 2520,
      "ank": 2521,
      "Attribute": 2522,
      "semibold": 2523,
      "Ġopacity": 2524,
      "jsx": 2525,
      "300": 2526,
      "Inter": 2527,
      "\"}": 2528,
      "Ġtotal": 2529,
      "DropdownMenuItem": 2530,
      "<{": 2531,
      "Ġmt": 2532,
      "Progress": 2533,
      "Be": 2534,
      "ĠsetShow": 2535,
      "Sync": 2536,
      "tics": 2537,
      "ix": 2538,
      "ments": 2539,
      "Ġprop": 2540,
      "ĠĠĠĠĠĠĠĠĠĠĠĠĠĠĠĠĠĠĠĠĠĠĠĠĠĠĠĠĠĠĠ": 2541,
      "13": 2542,
      "Case": 2543,
      "Ġrgb": 2544,
      "ters": 2545,
      "postId": 2546,
      "Mutation": 2547,
      "Ġbefore": 2548,
      "/[": 2549,
      "Success": 2550,
      "ĠasChild": 2551,
      "combobox": 2552,
      "ie": 2553,
      "HE": 2554,
      "ING": 2555,
      "Record": 2556,
      "aker": 2557,
      "\\`": 2558,
      "Ġprivate": 2559,
      "Ġph": 2560,
      "userId": 2561,
      "ĠrootRouteImport": 2562,
      "âĢ": 2563,
      "align": 2564,
      "stringify": 2565,
      "recipient": 2566,
      "background": 2567,
      "Ġlogger": 2568,
      "700": 2569,
      "ooker": 2570,
      "Get": 2571,
      "fin": 2572,
      "Ġbreak": 2573,
      "Payload": 2574,
      "Ġcontinue": 2575,
      "Ġ__": 2576,
      "Level": 2577,
      "PE": 2578,
      "Ġrole": 2579,
      "slice": 2580,
      "hero": 2581,
      "styled": 2582,
      "platform": 2583,
      "collap": 2584,
      "zone": 2585,
      "Ġtrack": 2586,
      "Hover": 2587,
      "vari": 2588,
      "trigger": 2589,
      "Left": 2590,
      "vide": 2591,
      "roke": 2592,
      "Ġses": 2593,
      "oogle": 2594,
      "sets": 2595,
      "zy": 2596,
      "ĠPopover": 2597,
      "Ġsession": 2598,
      "Back": 2599,
      "ĠAd": 2600,
      "ĠAny": 2601,
      "ater": 2602,
      "Tags": 2603,
      "ointer": 2604,
      "')}": 2605,
      "segment": 2606,
      "Ġmetadata": 2607,
      "spaces": 2608,
      "Sheet": 2609,
      "ats": 2610,
      "Member": 2611,
      "900": 2612,
      "ĠUn": 2613,
      "Promise": 2614,
      "ById": 2615,
      "Ġlinks": 2616,
      "shared": 2617,
      "ighlight": 2618,
      "normal": 2619,
      "ann": 2620,
      "Ġresolved": 2621,
      "âĶĢ": 2622,
      "Selector": 2623,
      "Details": 2624,
      "Slider": 2625,
      "Ġ----------------------------------------------------------------": 2626,
      "``": 2627,
      "constants": 2628,
      "uid": 2629,
      "Links": 2630,
      "Param": 2631,
      "rip": 2632,
      "\">)": 2633,
      "ounty": 2634,
      "ression": 2635,
      "Circle": 2636,
      "bug": 2637,
      "click": 2638,
      "Ø§": 2639,
      "workspaceId": 2640,
      "SidebarMenu": 2641,
      "local": 2642,
      "chakra": 2643,
      "Filters": 2644,
      "version": 2645,
      "offset": 2646,
      "30": 2647,
      "NAME": 2648,
      "ĠTSurvey": 2649,
      "400": 2650,
      "avatar": 2651,
      "Test": 2652,
      "Ġimage": 2653,
      "Ġinset": 2654,
      "Ġfiles": 2655,
      "Ġexisting": 2656,
      "inset": 2657,
      "abase": 2658,
      "ĠElement": 2659,
      "surveys": 2660,
      "Ġvalidate": 2661,
      "The": 2662,
      "FieldLabel": 2663,
      "sk": 2664,
      "Ġfind": 2665,
      "Ġoutline": 2666,
      "subtle": 2667,
      "Fallback": 2668,
      "ĠCalendar": 2669,
      "Audit": 2670,
      "Ġcustomer": 2671,
      "validate": 2672,
      "cies": 2673,
      "amount": 2674,
      "Disabled": 2675,
      "ruct": 2676,
      "Ariakit": 2677,
      "Ġ```": 2678,
      "Headers": 2679,
      "Ġdir": 2680,
      "Ġentry": 2681,
      "clar": 2682,
      "KE": 2683,
      "eventType": 2684,
      "Ġline": 2685,
      "lessLayout": 2686,
      "Sp": 2687,
      "loating": 2688,
      "Ġopts": 2689,
      "Ġupdated": 2690,
      "IS": 2691,
      "AB": 2692,
      "section": 2693,
      "Ġenabled": 2694,
      "component": 2695,
      "rest": 2696,
      "Sort": 2697,
      "():": 2698,
      "Ġusers": 2699,
      "-${": 2700,
      "dashboard": 2701,
      "encies": 2702,
      "Ġorder": 2703,
      "sibility": 2704,
      "sw": 2705,
      "Ġrelative": 2706,
      "Ġk": 2707,
      "Pin": 2708,
      "ready": 2709,
      "Accordion": 2710,
      "Ġsort": 2711,
      "Ġorientation": 2712,
      "ĠsetOpen": 2713,
      "Profile": 2714,
      "Ġloading": 2715,
      "roperties": 2716,
      "tives": 2717,
      "Ġ''": 2718,
      "uffer": 2719,
      "black": 2720,
      "âĶĢâĶĢ": 2721,
      "cut": 2722,
      "Ġlanguage": 2723,
      "11": 2724,
      "stall": 2725,
      "starts": 2726,
      "={<": 2727,
      "Ġleading": 2728,
      "Ġ[];": 2729,
      "submit": 2730,
      "ountry": 2731,
      "pendencies": 2732,
      "quire": 2733,
      "Custom": 2734,
      "je": 2735,
      "ager": 2736,
      "Ġdirect": 2737,
      "raph": 2738,
      "Week": 2739,
      "stamp": 2740,
      "Ġorganisation": 2741,
      "FAU": 2742,
      "td": 2743,
      "FAULT": 2744,
      "heroui": 2745,
      "range": 2746,
      "vertical": 2747,
      "ĠTooltip": 2748,
      "ortcut": 2749,
      "Oper": 2750,
      "arning": 2751,
      "ĠJSON": 2752,
      "cret": 2753,
      "Account": 2754,
      "Ġshadow": 2755,
      "illing": 2756,
      "Confirm": 2757,
      "SearchParams": 2758,
      "alytics": 2759,
      "Password": 2760,
      "ĠWe": 2761,
      "ĠSc": 2762,
      "Columns": 2763,
      "Ġtrigger": 2764,
      "Ġmust": 2765,
      "checked": 2766,
      "Zone": 2767,
      "SC": 2768,
      "ĠsetValue": 2769,
      "keys": 2770,
      "horizontal": 2771,
      "Ġchecked": 2772,
      "You": 2773,
      "checkbox": 2774,
      "TY": 2775,
      "Many": 2776,
      "Ġ40": 2777,
      "nova": 2778,
      "Version": 2779,
      "Ġver": 2780,
      "ithub": 2781,
      "transparent": 2782,
      "toString": 2783,
      "links": 2784,
      "Ġapi": 2785,
      "Ġexample": 2786,
      "Files": 2787,
      "raud": 2788,
      "Variables": 2789,
      "22": 2790,
      "entries": 2791,
      ")]": 2792,
      "pth": 2793,
      "Ġwebhook": 2794,
      "ORT": 2795,
      "ĠProps": 2796,
      "mbersh": 2797,
      "Drawer": 2798,
      "Remove": 2799,
      "Ġ'--": 2800,
      "Run": 2801,
      "Ġversion": 2802,
      "Ġcss": 2803,
      "ĠhtmlFor": 2804,
      "Editor": 2805,
      "urrency": 2806,
      "='": 2807,
      "osp": 2808,
      "ĠUser": 2809,
      "cedure": 2810,
      "qual": 2811,
      "Ġlight": 2812,
      "osphor": 2813,
      "TH": 2814,
      "Helper": 2815,
      "ParentRoute": 2816,
      "Ġchar": 2817,
      "plugin": 2818,
      "ĠApi": 2819,
      "ĠuseRef": 2820,
      "eriod": 2821,
      "JSX": 2822,
      "Ġdayjs": 2823,
      "Plugin": 2824,
      "dia": 2825,
      "Ġbut": 2826,
      "drop": 2827,
      "translate": 2828,
      "Ġ\"/": 2829,
      "Ġlayout": 2830,
      "Ġpackage": 2831,
      "ĠNumber": 2832,
      "ĠLayout": 2833,
      "disable": 2834,
      "startsWith": 2835,
      "ther": 2836,
      "atabase": 2837,
      "ĠDE": 2838,
      "ReactNode": 2839,
      "ClassNames": 2840,
      "Resolver": 2841,
      "ĠMath": 2842,
      "IconPlaceholder": 2843,
      "Selection": 2844,
      "Ġ\"../../": 2845,
      "run": 2846,
      "ĠBooking": 2847,
      "mitives": 2848,
      "wrap": 2849,
      "Ġview": 2850,
      "aign": 2851,
      "ĠMap": 2852,
      "ampaign": 2853,
      "ingle": 2854,
      ".#": 2855,
      "ATE": 2856,
      "tailwind": 2857,
      "rer": 2858,
      "navigation": 2859,
      "Ġreq": 2860,
      "reference": 2861,
      "32": 2862,
      "strong": 2863,
      "rowser": 2864,
      "Enroll": 2865,
      "ĠRead": 2866,
      "eral": 2867,
      "ĠMenu": 2868,
      "LO": 2869,
      "original": 2870,
      "Full": 2871,
      "leg": 2872,
      "Users": 2873,
      "Ġx": 2874,
      "fl": 2875,
      "ĠTError": 2876,
      "Ġlocal": 2877,
      "org": 2878,
      "Ġfallback": 2879,
      "Ġexp": 2880,
      "Ġcolumns": 2881,
      "trim": 2882,
      "Ġinstanceof": 2883,
      "ĠChart": 2884,
      "64": 2885,
      "Folder": 2886,
      "Listener": 2887,
      "=${": 2888,
      "Each": 2889,
      "UB": 2890,
      "TO": 2891,
      "ĠRoot": 2892,
      "claration": 2893,
      "used": 2894,
      "RouteChildren": 2895,
      "](": 2896,
      "Middleware": 2897,
      "Ġproject": 2898,
      "nested": 2899,
      "between": 2900,
      "SelectItem": 2901,
      "Uid": 2902,
      "Ġallow": 2903,
      "Ġgrid": 2904,
      "Ġclick": 2905,
      "Ġ\"}": 2906,
      "utate": 2907,
      "Ġ[],": 2908,
      "ĠRow": 2909,
      "Storage": 2910,
      "tag": 2911,
      "curring": 2912,
      "OST": 2913,
      "ven": 2914,
      "Refer": 2915,
      "access": 2916,
      "Skeleton": 2917,
      "ayouts": 2918,
      "Ġtemplate": 2919,
      "Switch": 2920,
      "Ġrefer": 2921,
      "Ht": 2922,
      "Identifier": 2923,
      "Direct": 2924,
      "KEY": 2925,
      "month": 2926,
      "Ġ\"--": 2927,
      "ĠPage": 2928,
      "redirect": 2929,
      "Ġslot": 2930,
      "Visible": 2931,
      "MENT": 2932,
      "~/": 2933,
      "hell": 2934,
      "Ġsend": 2935,
      "ower": 2936,
      "Bound": 2937,
      "ODE": 2938,
      "turns": 2939,
      "Drag": 2940,
      "ĠK": 2941,
      "Atom": 2942,
      "child": 2943,
      "Step": 2944,
      "Wh": 2945,
      "uge": 2946,
      "unc": 2947,
      "LElement": 2948,
      "point": 2949,
      "Al": 2950,
      "ĠID": 2951,
      "Min": 2952,
      "slide": 2953,
      "AlertDialog": 2954,
      "%;": 2955,
      "ning": 2956,
      "do": 2957,
      "ĠDocument": 2958,
      "DatePicker": 2959,
      "TION": 2960,
      "headers": 2961,
      "Ġcount": 2962,
      "req": 2963,
      "Rule": 2964,
      "Ġremix": 2965,
      "Validation": 2966,
      "ĠDef": 2967,
      "sist": 2968,
      "ĠrenderDemo": 2969,
      "usp": 2970,
      "Ġcalendar": 2971,
      "fic": 2972,
      "ors": 2973,
      "array": 2974,
      "Ġ16": 2975,
      "Nested": 2976,
      "ollection": 2977,
      "Use": 2978,
      "ĠComp": 2979,
      "Fetch": 2980,
      "TMLElement": 2981,
      "layer": 2982,
      "Ġ\"\",": 2983,
      "Ġkeyof": 2984,
      "MM": 2985,
      "ĠuseForm": 2986,
      "mx": 2987,
      "disc": 2988,
      "')({": 2989,
      "ĠprogramId": 2990,
      "Breadcrumb": 2991,
      "york": 2992,
      "Ġcredential": 2993,
      "Ġ9": 2994,
      "forEach": 2995,
      "Return": 2996,
      "Ġremove": 2997,
      "\"></": 2998,
      "ugeicons": 2999,
      "organisation": 3000,
      "Ġfields": 3001,
      "ĠsearchParams": 3002,
      "dropdown": 3003,
      "Organization": 3004,
      "Local": 3005,
      "Controller": 3006,
      "mes": 3007,
      "annel": 3008,
      "close": 3009,
      "isit": 3010,
      "wardRef": 3011,
      "Ġoption": 3012,
      "Ġbox": 3013,
      "eed": 3014,
      "08": 3015,
      "ucide": 3016,
      "ract": 3017,
      "Ġother": 3018,
      "Ġ*/}": 3019,
      "ĠCommand": 3020,
      "Ġfaker": 3021,
      "ĠAPI": 3022,
      "FI": 3023,
      "ename": 3024,
      "Ġ{/*": 3025,
      "remix": 3026,
      "ride": 3027,
      "ices": 3028,
      ".$": 3029,
      "refetch": 3030,
      "++": 3031,
      "Duration": 3032,
      "composition": 3033,
      "Ġoriginal": 3034,
      "Ġevents": 3035,
      "Ġcomponents": 3036,
      "eting": 3037,
      "Div": 3038,
      "closure": 3039,
      "Ow": 3040,
      "ww": 3041,
      "Mobile": 3042,
      "acy": 3043,
      "stripe": 3044,
      "ymb": 3045,
      "exp": 3046,
      "APP": 3047,
      "package": 3048,
      "Ġ'â": 3049,
      "Transform": 3050,
      "SI": 3051,
      "Current": 3052,
      "Ġwas": 3053,
      "prev": 3054,
      "Ġmeta": 3055,
      "Ġclose": 3056,
      "ĠSh": 3057,
      "nav": 3058,
      "inex": 3059,
      "ĠTQuery": 3060,
      "randing": 3061,
      "ines": 3062,
      "olbar": 3063,
      "ability": 3064,
      "mant": 3065,
      "mantinex": 3066,
      "Int": 3067,
      "parent": 3068,
      "ollapsible": 3069,
      "Ri": 3070,
      "ideo": 3071,
      "WithChildren": 3072,
      "ape": 3073,
      "ĠfullPath": 3074,
      "by": 3075,
      "avigationMenu": 3076,
      "Ġdoes": 3077,
      "ĠuseCallback": 3078,
      "Radius": 3079,
      "ng": 3080,
      "Ġone": 3081,
      "Ġ{},": 3082,
      "xis": 3083,
      "Ġcontainer": 3084,
      "`)": 3085,
      "integration": 3086,
      "Length": 3087,
      "Leg": 3088,
      "LI": 3089,
      "Person": 3090,
      "owner": 3091,
      "tivity": 3092,
      "rtl": 3093,
      "compositions": 3094,
      "github": 3095,
      "cept": 3096,
      "ĠgetParentRoute": 3097,
      "TFeatures": 3098,
      "AM": 3099,
      "Components": 3100,
      "sl": 3101,
      "watch": 3102,
      "alert": 3103,
      "application": 3104,
      "800": 3105,
      "lucide": 3106,
      "rsc": 3107,
      "Class": 3108,
      "ĠNo": 3109,
      "Ġlimit": 3110,
      "Export": 3111,
      "Enter": 3112,
      "Ġhandler": 3113,
      "Chakra": 3114,
      "Ġfl": 3115,
      "ily": 3116,
      "Ġside": 3117,
      "primitives": 3118,
      "Ġ×": 3119,
      "direction": 3120,
      "Ġstatic": 3121,
      "Ġcall": 3122,
      "Ġstroke": 3123,
      "author": 3124,
      "uspense": 3125,
      "Ġlucide": 3126,
      "Ġloader": 3127,
      "ÙĦ": 3128,
      "Ġhugeicons": 3129,
      "Ġload": 3130,
      "radio": 3131,
      "Ġtabler": 3132,
      "Ġphosphor": 3133,
      "Ġremixicon": 3134,
      "Prefix": 3135,
      "ured": 3136,
      "ĠuseRouter": 3137,
      "Display": 3138,
      "RadioGroup": 3139,
      "55": 3140,
      "').": 3141,
      "VER": 3142,
      "Recipe": 3143,
      "sktop": 3144,
      "weight": 3145,
      "We": 3146,
      "ĠUp": 3147,
      "panel": 3148,
      "`}": 3149,
      "gap": 3150,
      "Arg": 3151,
      "Ali": 3152,
      "pected": 3153,
      "Ġ/*": 3154,
      "Ġinline": 3155,
      "project": 3156,
      "ĠString": 3157,
      "ĠMod": 3158,
      "queue": 3159,
      "DivElement": 3160,
      "location": 3161,
      "blocks": 3162,
      "Scope": 3163,
      "controls": 3164,
      "Integration": 3165,
      "Script": 3166,
      ">({": 3167,
      "Ġimp": 3168,
      "Ġnever": 3169,
      "aw": 3170,
      "entity": 3171,
      "ĠPath": 3172,
      "aded": 3173,
      "`.": 3174,
      "Ġclear": 3175,
      "Ġti": 3176,
      "Devtools": 3177,
      "Ġ$": 3178,
      "ĠLog": 3179,
      "displayName": 3180,
      "Posts": 3181,
      "Ġalready": 3182,
      "PA": 3183,
      "ĠPost": 3184,
      "Ġstream": 3185,
      "Ġ12": 3186,
      "mbership": 3187,
      ")}>": 3188,
      "ŃĲ": 3189,
      "build": 3190,
      "stination": 3191,
      "Overlay": 3192,
      "webhook": 3193,
      "anStack": 3194,
      "Ġerr": 3195,
      "Ġusing": 3196,
      "Plan": 3197,
      "Ġshrink": 3198,
      "Ġ\"#\",": 3199,
      "Drop": 3200,
      "PORT": 3201,
      "Ġnone": 3202,
      "payload": 3203,
      "http": 3204,
      "-(--": 3205,
      "01": 3206,
      "href": 3207,
      "ĠColor": 3208,
      "Ġprevious": 3209,
      "Ġ7": 3210,
      "stor": 3211,
      "Ġenable": 3212,
      "prevent": 3213,
      "ake": 3214,
      ")',": 3215,
      "Ġhide": 3216,
      "ĠPerson": 3217,
      "rit": 3218,
      "ĠDub": 3219,
      "alet": 3220,
      "call": 3221,
      "Load": 3222,
      "Formatter": 3223,
      "fit": 3224,
      "exist": 3225,
      "Ġgenerate": 3226,
      "utoc": 3227,
      "Ġglobal": 3228,
      "Ġ'âŃĲ": 3229,
      "Ġmap": 3230,
      "Groups": 3231,
      "middleware": 3232,
      "ĠCon": 3233,
      "uest": 3234,
      "loading": 3235,
      "Ġmore": 3236,
      "(/": 3237,
      "Ġerrors": 3238,
      "Ġchunk": 3239,
      "profile": 3240,
      "\").": 3241,
      "Chevron": 3242,
      "Ġag": 3243,
      "utocomp": 3244,
      "ars": 3245,
      "Ġtrans": 3246,
      "Contact": 3247,
      "cause": 3248,
      "IL": 3249,
      "gra": 3250,
      "useState": 3251,
      "sis": 3252,
      "uplic": 3253,
      "static": 3254,
      "anced": 3255,
      "password": 3256,
      "ital": 3257,
      "scale": 3258,
      "Days": 3259,
      "Ġeach": 3260,
      "Ġ!!": 3261,
      "Failed": 3262,
      "Lower": 3263,
      "ging": 3264,
      "ĠItem": 3265,
      "change": 3266,
      "utocomplete": 3267,
      "Procedure": 3268,
      "ET": 3269,
      "ini": 3270,
      "credential": 3271,
      "ĠĠĠĠĠĠĠĠĠĠĠĠĠĠĠĠĠĠĠĠĠĠĠĠĠĠĠĠĠĠĠĠĠ": 3272,
      "Attributes": 3273,
      "Ġstripe": 3274,
      "Fl": 3275,
      "resolved": 3276,
      "undefined": 3277,
      "Manager": 3278,
      "TYPE": 3279,
      "Veri": 3280,
      "ĠTRPC": 3281,
      "NEXT": 3282,
      "ful": 3283,
      "Cancel": 3284,
      "EB": 3285,
      "ĠTe": 3286,
      "ĠfontSize": 3287,
      "Ġhidden": 3288,
      "Ġ'/'": 3289,
      "Top": 3290,
      "lish": 3291,
      "opts": 3292,
      "STAT": 3293,
      "folder": 3294,
      "Global": 3295,
      "ĠCSS": 3296,
      "Ġfin": 3297,
      "New": 3298,
      "Ġab": 3299,
      "calc": 3300,
      "CH": 3301,
      "remove": 3302,
      "Ġrange": 3303,
      "ServerFn": 3304,
      "finite": 3305,
      "arge": 3306,
      "output": 3307,
      "Ġlg": 3308,
      "avigate": 3309,
      "%,": 3310,
      "sic": 3311,
      "Unique": 3312,
      "Language": 3313,
      "mas": 3314,
      "Ġpublic": 3315,
      "ueries": 3316,
      "LowerCase": 3317,
      "Variant": 3318,
      "animate": 3319,
      "Ġaccount": 3320,
      "internal": 3321,
      "Ġavailable": 3322,
      "ookie": 3323,
      "Preview": 3324,
      "rary": 3325,
      "sert": 3326,
      "sg": 3327,
      "closed": 3328,
      "Enrollment": 3329,
      "gener": 3330,
      "based": 3331,
      "ose": 3332,
      "spatch": 3333,
      "'))": 3334,
      "Ġ/>;": 3335,
      "ĠDrawer": 3336,
      "ĠorganizationId": 3337,
      "modal": 3338,
      "apt": 3339,
      "ĠRadi": 3340,
      "Ġtag": 3341,
      "Ġmark": 3342,
      "then": 3343,
      "Ġpathname": 3344,
      "sue": 3345,
      "tooltip": 3346,
      "lers": 3347,
      "preventDefault": 3348,
      "Expression": 3349,
      "Ġ[...": 3350,
      "ĠpartnerId": 3351,
      "uf": 3352,
      "Toast": 3353,
      "ditional": 3354,
      "fil": 3355,
      "Ġring": 3356,
      "radient": 3357,
      "Res": 3358,
      "Mark": 3359,
      "Ġframe": 3360,
      "Ġfill": 3361,
      "Shortcut": 3362,
      "Ġspace": 3363,
      "Observer": 3364,
      "UT": 3365,
      "ERR": 3366,
      "entication": 3367,
      "Ġ{(": 3368,
      "Ġman": 3369,
      "OTP": 3370,
      "way": 3371,
      "Ġalt": 3372,
      "ĠTab": 3373,
      "eedback": 3374,
      "atom": 3375,
      "Track": 3376,
      "This": 3377,
      "Task": 3378,
      "ĠDEFAULT": 3379,
      "ymbol": 3380,
      "toLowerCase": 3381,
      "metadata": 3382,
      "OM": 3383,
      "Ġraw": 3384,
      "role": 3385,
      "}`}": 3386,
      "ĠAppError": 3387,
      "Ġsuccess": 3388,
      "Ġeslint": 3389,
      "Ġfolder": 3390,
      "ED": 3391,
      "Reason": 3392,
      "Ġlocation": 3393,
      "ĠâĢ": 3394,
      "loader": 3395,
      "[],": 3396,
      "ĠPick": 3397,
      "pending": 3398,
      "Copy": 3399,
      "andlers": 3400,
      "Enum": 3401,
      "Ġwhich": 3402,
      "Ġclasses": 3403,
      "Ġplugin": 3404,
      "ĠColumn": 3405,
      "ydration": 3406,
      "Ġedit": 3407,
      "ĠSche": 3408,
      "Ġexternal": 3409,
      "Expanded": 3410,
      "pathname": 3411,
      "ĠRouter": 3412,
      "session": 3413,
      "LoaderRoute": 3414,
      "{\"": 3415,
      "={[": 3416,
      "RouteWithChildren": 3417,
      "ĠDefault": 3418,
      "02": 3419,
      "}.": 3420,
      "bookings": 3421,
      "OAuth": 3422,
      "pages": 3423,
      "Ġnon": 3424,
      "fiers": 3425,
      "Ġhere": 3426,
      "StylesNames": 3427,
      "Ġ'~/": 3428,
      "================================": 3429,
      "Mouse": 3430,
      "global": 3431,
      "xy": 3432,
      "yling": 3433,
      "Ġdynamic": 3434,
      "Signature": 3435,
      "issing": 3436,
      "ĠsetSelected": 3437,
      "alled": 3438,
      "Ġwrap": 3439,
      "uil": 3440,
      "ĠContextMenu": 3441,
      "Ver": 3442,
      "didate": 3443,
      "ĠSe": 3444,
      "ĠEn": 3445,
      "Ġ'}": 3446,
      "virtual": 3447,
      "Ġlocale": 3448,
      "footer": 3449,
      "ĠPartner": 3450,
      "nected": 3451,
      "Ġnormalize": 3452,
      "Customer": 3453,
      "Translation": 3454,
      "Media": 3455,
      "Ġob": 3456,
      "Previous": 3457,
      "ait": 3458,
      "ĠResponse": 3459,
      "tate": 3460,
      "rict": 3461,
      "ception": 3462,
      "Paths": 3463,
      "ĠMenubar": 3464,
      "More": 3465,
      "enum": 3466,
      "ĠAuth": 3467,
      "avail": 3468,
      "FnData": 3469,
      "Ġprefix": 3470,
      "Deps": 3471,
      "fill": 3472,
      "wo": 3473,
      "={!": 3474,
      "Ġspeci": 3475,
      "ND": 3476,
      "sive": 3477,
      "Ġusername": 3478,
      "ĠparentRoute": 3479,
      "handler": 3480,
      "Ġreset": 3481,
      "isArray": 3482,
      "tendees": 3483,
      "alette": 3484,
      "95": 3485,
      "Carousel": 3486,
      "crement": 3487,
      "'])": 3488,
      "Ġschedule": 3489,
      "Ġexpect": 3490,
      "placeholder": 3491,
      "ĠAlertDialog": 3492,
      "ha": 3493,
      "Async": 3494,
      "badge": 3495,
      "ssr": 3496,
      "Transition": 3497,
      "ales": 3498,
      "Upload": 3499,
      "Ġ+=": 3500,
      "tries": 3501,
      "60": 3502,
      "organization": 3503,
      "ĠDi": 3504,
      "Manifest": 3505,
      "Ġmb": 3506,
      "oday": 3507,
      "ĠpreLoaderRoute": 3508,
      "ences": 3509,
      "atis": 3510,
      "StylesApi": 3511,
      "amily": 3512,
      "Ġrows": 3513,
      "'}": 3514,
      "ĠonSubmit": 3515,
      "plit": 3516,
      "pagination": 3517,
      "vided": 3518,
      "MenuItem": 3519,
      "System": 3520,
      "ution": 3521,
      "Without": 3522,
      "Amount": 3523,
      "essages": 3524,
      "inition": 3525,
      "ernal": 3526,
      "ĠGroup": 3527,
      "ĠServer": 3528,
      "Ġwhile": 3529,
      "Ġwhite": 3530,
      "register": 3531,
      "oper": 3532,
      "NotFound": 3533,
      "STATUS": 3534,
      "Ġunderline": 3535,
      "my": 3536,
      "padding": 3537,
      "Ġcol": 3538,
      "ji": 3539,
      "ĠRequest": 3540,
      "acts": 3541,
      "EventListener": 3542,
      "Checked": 3543,
      "uplicate": 3544,
      "Host": 3545,
      "heading": 3546,
      "Ġconstruct": 3547,
      "tabs": 3548,
      "`);": 3549,
      "Addon": 3550,
      "provider": 3551,
      "Ġqu": 3552,
      "tails": 3553,
      "pick": 3554,
      "after": 3555,
      "initial": 3556,
      "username": 3557,
      "44": 3558,
      "[])": 3559,
      "swr": 3560,
      "\"))": 3561,
      "CU": 3562,
      "Ġdon": 3563,
      "uffix": 3564,
      "Nav": 3565,
      "Ġexpi": 3566,
      "ĠdefineConfig": 3567,
      "ripts": 3568,
      "90": 3569,
      "customer": 3570,
      "rows": 3571,
      "Ġtrpc": 3572,
      "tifications": 3573,
      "ĠPartial": 3574,
      "ĠPathlessLayout": 3575,
      "Cal": 3576,
      "oauth": 3577,
      "Ġmodi": 3578,
      "Boolean": 3579,
      "Redirect": 3580,
      "files": 3581,
      "ĠAdd": 3582,
      ">()": 3583,
      "stream": 3584,
      "limit": 3585,
      "Ġdev": 3586,
      "ativeSelect": 3587,
      "pinner": 3588,
      "Embed": 3589,
      "ĠCheckbox": 3590,
      "ĠRadio": 3591,
      "Ġ500": 3592,
      "cols": 3593,
      "ĠOmit": 3594,
      "searchParams": 3595,
      "ERROR": 3596,
      "gex": 3597,
      "ĠData": 3598,
      "Disclosure": 3599,
      "dx": 3600,
      "Ġmobile": 3601,
      "some": 3602,
      "Ġ'../../../": 3603,
      "video": 3604,
      "Html": 3605,
      "Ġnow": 3606,
      "ensions": 3607,
      "Ġcalc": 3608,
      "ĠResol": 3609,
      "Ġ&:": 3610,
      "Validate": 3611,
      "Actions": 3612,
      "Span": 3613,
      "nection": 3614,
      "API": 3615,
      "Ġmerge": 3616,
      "ItemIndicator": 3617,
      "Ġfs": 3618,
      "stead": 3619,
      "ollapse": 3620,
      "Owner": 3621,
      "viewport": 3622,
      "workspaces": 3623,
      "reset": 3624,
      "enticated": 3625,
      "ganizer": 3626,
      "Invite": 3627,
      "ĠFor": 3628,
      "Ġtooltip": 3629,
      "Auto": 3630,
      "ĠNextResponse": 3631,
      "ations": 3632,
      "Ġdesktop": 3633,
      "pm": 3634,
      "?.(": 3635,
      "ĠIcon": 3636,
      "ĠclassNames": 3637,
      "Instance": 3638,
      "Ġcallback": 3639,
      "LIC": 3640,
      "ĠEventType": 3641,
      "separator": 3642,
      "ents": 3643,
      "describe": 3644,
      "Ġpattern": 3645,
      "actor": 3646,
      "fade": 3647,
      "Axis": 3648,
      "imp": 3649,
      "ĠAvatar": 3650,
      "before": 3651,
      "Ġ):": 3652,
      "Ġtags": 3653,
      "ApiProperty": 3654,
      "connect": 3655,
      "Ġchild": 3656,
      "Ġoper": 3657,
      "gular": 3658,
      "umer": 3659,
      "editor": 3660,
      "Throw": 3661,
      "timi": 3662,
      "Ġ'',": 3663,
      "ĠBox": 3664,
      "Call": 3665,
      "fies": 3666,
      "schema": 3667,
      "Errors": 3668,
      "Ġcreated": 3669,
      "em": 3670,
      "where": 3671,
      "ĠmakeData": 3672,
      "mode": 3673,
      "parsed": 3674,
      "*/": 3675,
      "ĠTag": 3676,
      "preview": 3677,
      "single": 3678,
      "safe": 3679,
      "cursor": 3680,
      "command": 3681,
      "dom": 3682,
      "Ġpayment": 3683,
      "72": 3684,
      "png": 3685,
      "rerender": 3686,
      "Ġ[&>": 3687,
      "×ķ": 3688,
      "ĠIndexRoute": 3689,
      "ocial": 3690,
      "moji": 3691,
      "CardContent": 3692,
      "Ġtypes": 3693,
      "ive": 3694,
      "rigin": 3695,
      "QueryOptions": 3696,
      "Ġamount": 3697,
      "very": 3698,
      "ichText": 3699,
      "Reward": 3700,
      "ApiError": 3701,
      "ĠLabel": 3702,
      "Str": 3703,
      "RoutesBy": 3704,
      "mer": 3705,
      "Direction": 3706,
      "du": 3707,
      "xed": 3708,
      "Ġsame": 3709,
      "tic": 3710,
      "Ġrel": 3711,
      "ATION": 3712,
      "apter": 3713,
      "Ġoffset": 3714,
      "emp": 3715,
      "spacer": 3716,
      "UserId": 3717,
      "Font": 3718,
      "ĠJ": 3719,
      "ĠUsers": 3720,
      "method": 3721,
      "Ġskip": 3722,
      ".</": 3723,
      "nextjs": 3724,
      "Calendars": 3725,
      "(({": 3726,
      "fetch": 3727,
      "ulk": 3728,
      "Ġsatis": 3729,
      "ĠOn": 3730,
      "underline": 3731,
      "Initial": 3732,
      "Boundary": 3733,
      "Platform": 3734,
      "(...": 3735,
      "ains": 3736,
      "ime": 3737,
      "oice": 3738,
      "Ġabsolute": 3739,
      "Ġser": 3740,
      "kit": 3741,
      "Ġpromise": 3742,
      "ĠAs": 3743,
      "Ġ30": 3744,
      "Ġoutput": 3745,
      "After": 3746,
      "Ġhost": 3747,
      "Ġinto": 3748,
      "(\"/": 3749,
      "contact": 3750,
      "sage": 3751,
      "position": 3752,
      "Ġprev": 3753,
      "CT": 3754,
      "Qu": 3755,
      "Ġ50": 3756,
      "Connect": 3757,
      "Ġ>=": 3758,
      "embed": 3759,
      "Ġweb": 3760,
      "voices": 3761,
      "OOK": 3762,
      "Ġtog": 3763,
      "ENV": 3764,
      "framework": 3765,
      "ported": 3766,
      "await": 3767,
      "green": 3768,
      "vert": 3769,
      "ĠReactNode": 3770,
      "arnings": 3771,
      "CESS": 3772,
      "ookies": 3773,
      "help": 3774,
      "Ġpointer": 3775,
      "Ġsi": 3776,
      "OpenChange": 3777,
      "34": 3778,
      "Payment": 3779,
      "pted": 3780,
      "tree": 3781,
      "Static": 3782,
      "dul": 3783,
      "Ġpending": 3784,
      "Ġ14": 3785,
      "Ġq": 3786,
      "Ġinstead": 3787,
      "Ġprofile": 3788,
      "total": 3789,
      "ens": 3790,
      "Ġweek": 3791,
      "Ġmsg": 3792,
      "Ġ}).": 3793,
      ":[": 3794,
      "Last": 3795,
      "language": 3796,
      "Ġinvalid": 3797,
      "Hook": 3798,
      "---": 3799,
      "Visibility": 3800,
      "Virtual": 3801,
      "Ġchanges": 3802,
      "Ġfn": 3803,
      "Ġdemo": 3804,
      "ĠDis": 3805,
      "CON": 3806,
      "ble": 3807,
      "Ġempty": 3808,
      "wd": 3809,
      "Ġreact": 3810,
      "Ġchart": 3811,
      "ĠWh": 3812,
      "Logo": 3813,
      "sizes": 3814,
      "Pack": 3815,
      "Ġ'/_": 3816,
      "classes": 3817,
      "Payout": 3818,
      "Lead": 3819,
      "Ġanimate": 3820,
      "Ġenvironment": 3821,
      "YYYY": 3822,
      "switch": 3823,
      "External": 3824,
      "Ġproperty": 3825,
      "plan": 3826,
      "uncate": 3827,
      "lf": 3828,
      "ota": 3829,
      "}`;": 3830,
      "Ġsatisfies": 3831,
      "ĠEvent": 3832,
      "etwork": 3833,
      "msg": 3834,
      "cry": 3835,
      "case": 3836,
      "Ġdisc": 3837,
      "}\"": 3838,
      "TableCell": 3839,
      "Ġscope": 3840,
      "ugh": 3841,
      "inner": 3842,
      "service": 3843,
      ")\"": 3844,
      "ources": 3845,
      "Multi": 3846,
      "transition": 3847,
      "DD": 3848,
      "vanced": 3849,
      "emphas": 3850,
      "ĠcolumnHelper": 3851,
      "ĠfileName": 3852,
      "Entries": 3853,
      "Bottom": 3854,
      "mm": 3855,
      "allowed": 3856,
      "Ġplan": 3857,
      "Shell": 3858,
      "Ġexec": 3859,
      "ĠOut": 3860,
      "ategy": 3861,
      "Ġtoggle": 3862,
      "Ġslots": 3863,
      "year": 3864,
      "Ġdis": 3865,
      "Max": 3866,
      "df": 3867,
      "Internal": 3868,
      "Ġinfer": 3869,
      "SER": 3870,
      "Ġ24": 3871,
      "Ġarray": 3872,
      "70": 3873,
      "fy": 3874,
      "urface": 3875,
      "Ġresponses": 3876,
      "!:": 3877,
      "istory": 3878,
      "hether": 3879,
      "Ġbecause": 3880,
      "Ġschema": 3881,
      "Condition": 3882,
      "progress": 3883,
      "RangeCalendar": 3884,
      "the": 3885,
      "Ġfooter": 3886,
      "Ġprovided": 3887,
      "rgb": 3888,
      "acing": 3889,
      "Ġargs": 3890,
      "ong": 3891,
      "ollow": 3892,
      "Weight": 3893,
      "Kbd": 3894,
      "×Ļ": 3895,
      "MB": 3896,
      "uch": 3897,
      "uthed": 3898,
      "Ġcontact": 3899,
      "ĠcreatedAt": 3900,
      "ored": 3901,
      "Ġcondition": 3902,
      "Ġelements": 3903,
      "Ġsupport": 3904,
      "Pattern": 3905,
      "]}": 3906,
      "rough": 3907,
      "ĠuseTranslation": 3908,
      "Ġlength": 3909,
      "logger": 3910,
      "angular": 3911,
      "Ġselector": 3912,
      "week": 3913,
      "Idx": 3914,
      "Null": 3915,
      "EL": 3916,
      "locale": 3917,
      "gre": 3918,
      "lur": 3919,
      "ĠEx": 3920,
      "Ġvars": 3921,
      "Ġ15": 3922,
      "NODE": 3923,
      "ned": 3924,
      "Ġ\"ðŁ": 3925,
      "Ġregistry": 3926,
      "ĠSub": 3927,
      "toast": 3928,
      "KeyDown": 3929,
      "Ġinfo": 3930,
      "Ġattr": 3931,
      "Del": 3932,
      "google": 3933,
      "orientation": 3934,
      "Palette": 3935,
      "schemas": 3936,
      "Reset": 3937,
      "Reference": 3938,
      "sup": 3939,
      "scope": 3940,
      "Ġwait": 3941,
      "Application": 3942,
      "ĠPagination": 3943,
      "\")}</": 3944,
      "Origin": 3945,
      "til": 3946,
      "Ġ200": 3947,
      "InputGroupAddon": 3948,
      "motion": 3949,
      "Hidden": 3950,
      "ResponseSchema": 3951,
      "ĠScroll": 3952,
      "Kind": 3953,
      "PRO": 3954,
      "Work": 3955,
      "logo": 3956,
      "ran": 3957,
      "Ġacc": 3958,
      "Anchor": 3959,
      "azy": 3960,
      "off": 3961,
      "Ġ60": 3962,
      "Cla": 3963,
      "drawer": 3964,
      "OL": 3965,
      "velte": 3966,
      "vailability": 3967,
      "QU": 3968,
      "edge": 3969,
      "usage": 3970,
      "Ġusage": 3971,
      "ĠĠĠĠĠĠĠĠĠĠĠĠĠĠĠĠĠĠĠĠĠĠĠĠĠĠĠĠĠĠĠĠĠĠĠ": 3972,
      "ĠHTMLElement": 3973,
      "Validator": 3974,
      "apps": 3975,
      "track": 3976,
      "ote": 3977,
      "Ġclean": 3978,
      "Ġtree": 3979,
      "ctx": 3980,
      "dayjs": 3981,
      "ScrollArea": 3982,
      "TER": 3983,
      "ia": 3984,
      "send": 3985,
      "Ġswitch": 3986,
      "external": 3987,
      "Subscription": 3988,
      "ĠWebhook": 3989,
      "Ġrecord": 3990,
      "depth": 3991,
      "ayer": 3992,
      "Composite": 3993,
      "uide": 3994,
      "Ġattributes": 3995,
      "ĠBase": 3996,
      "ĠHome": 3997,
      "ategories": 3998,
      "lipboard": 3999,
      "empty": 4000,
      "just": 4001,
      "Ġ\\`": 4002,
      "ĠPre": 4003,
      "ĠisLoading": 4004,
      "cket": 4005,
      "ints": 4006,
      "------------": 4007,
      "eries": 4008,
      "ĠTO": 4009,
      "Ġroutes": 4010,
      "Ġgener": 4011,
      "Admin": 4012,
      "Signal": 4013,
      "Unit": 4014,
      "Ġts": 4015,
      "ichTextEditor": 4016,
      "Dependencies": 4017,
      "If": 4018,
      "Ġet": 4019,
      "Ġ`/": 4020,
      "Ġattribute": 4021,
      "ving": 4022,
      "returns": 4023,
      "Ġkind": 4024,
      "emphasis": 4025,
      "Properties": 4026,
      "Ġkeys": 4027,
      "ĠSheet": 4028,
      "nowrap": 4029,
      "vices": 4030,
      "Ph": 4031,
      "TRPC": 4032,
      "Ġwant": 4033,
      "go": 4034,
      "×ķ×": 4035,
      "Docs": 4036,
      "Ġold": 4037,
      "Ġorganization": 4038,
      "MRT": 4039,
      "Siz": 4040,
      "payment": 4041,
      "ButtonGroup": 4042,
      "herit": 4043,
      "ĠProgress": 4044,
      "ql": 4045,
      "Ġmix": 4046,
      "media": 4047,
      "Align": 4048,
      "Elements": 4049,
      "Ġ400": 4050,
      "assign": 4051,
      "Ġposts": 4052,
      "atchlist": 4053,
      "]]:": 4054,
      "termin": 4055,
      "boarding": 4056,
      "YearPicker": 4057,
      "36": 4058,
      "Where": 4059,
      "TP": 4060,
      "Ġcategory": 4061,
      "Required": 4062,
      "oto": 4063,
      "Ġwithout": 4064,
      "updated": 4065,
      "ves": 4066,
      "fields": 4067,
      "grade": 4068,
      "Permission": 4069,
      "jected": 4070,
      "ĠCustom": 4071,
      "apping": 4072,
      "ydrate": 4073,
      "Write": 4074,
      "ĠTFeatures": 4075,
      "Submitting": 4076,
      "Ġvariants": 4077,
      "Highlight": 4078,
      "Rel": 4079,
      "ameters": 4080,
      "Suspense": 4081,
      "Controls": 4082,
      "Directory": 4083,
      ">}": 4084,
      "Clear": 4085,
      "Inline": 4086,
      "Ġ[`": 4087,
      "cessed": 4088,
      "temp": 4089,
      "Your": 4090,
      "Ġ((": 4091,
      "Ġthere": 4092,
      "ĠTabs": 4093,
      "Signing": 4094,
      "ĠAccordion": 4095,
      "img": 4096,
      "++)": 4097,
      "ĠsetTimeout": 4098,
      "pr": 4099,
      "public": 4100,
      "Ġ\"\"": 4101,
      "UC": 4102,
      "Ġdebug": 4103,
      "Ġpayout": 4104,
      "Org": 4105,
      "Ġrefresh": 4106,
      "conds": 4107,
      "Ġpr": 4108,
      "ArrowRight": 4109,
      "bounty": 4110,
      "tl": 4111,
      "ĠBreadcrumb": 4112,
      "Ġpreview": 4113,
      "ĠmaxWidth": 4114,
      "Limits": 4115,
      "Ġmy": 4116,
      "Positioner": 4117,
      "Booker": 4118,
      "VI": 4119,
      "Ġpres": 4120,
      "Manage": 4121,
      "ways": 4122,
      "indicator": 4123,
      "Ġregister": 4124,
      "Ġanimation": 4125,
      "EST": 4126,
      "HTMLDivElement": 4127,
      "Ġconstructor": 4128,
      "findUnique": 4129,
      "ĠList": 4130,
      "product": 4131,
      "Ġbeen": 4132,
      "Prisma": 4133,
      "viewer": 4134,
      "admin": 4135,
      "getIs": 4136,
      "TED": 4137,
      "moved": 4138,
      "Ġprovider": 4139,
      "MS": 4140,
      "iler": 4141,
      "Ġ}>": 4142,
      "generate": 4143,
      "Web": 4144,
      "kg": 4145,
      "organizationId": 4146,
      "account": 4147,
      "ĠuseWorkspace": 4148,
      "UP": 4149,
      "Ġhead": 4150,
      "tailwindcss": 4151,
      "native": 4152,
      "teamId": 4153,
      "OP": 4154,
      "48": 4155,
      "Ġstep": 4156,
      "Ġscale": 4157,
      "warning": 4158,
      "Ġ/>,": 4159,
      "InputProps": 4160,
      "CUMENT": 4161,
      "Video": 4162,
      "uard": 4163,
      "keep": 4164,
      "17": 4165,
      "ĠTime": 4166,
      "}`)": 4167,
      "33": 4168,
      "oom": 4169,
      "dates": 4170,
      "ĠAction": 4171,
      "ĠactiveProps": 4172,
      "Resiz": 4173,
      "collapsible": 4174,
      "Vars": 4175,
      "opup": 4176,
      "FF": 4177,
      "ĠType": 4178,
      "FieldDescription": 4179,
      "pec": 4180,
      "screen": 4181,
      "pper": 4182,
      "(`${": 4183,
      "\\/": 4184,
      "clear": 4185,
      "Ġenv": 4186,
      "make": 4187,
      "Ġplatform": 4188,
      "ĠTValue": 4189,
      "lingui": 4190,
      "ABLE": 4191,
      "Ġpartners": 4192,
      "ĠToggle": 4193,
      "play": 4194,
      "Ġallowed": 4195,
      "Ġnormalized": 4196,
      "ĠRowData": 4197,
      "Ġlib": 4198,
      "Ġpassword": 4199,
      "dist": 4200,
      "unknown": 4201,
      "09": 4202,
      "ĠWhen": 4203,
      "Ø§ÙĦ": 4204,
      "typescript": 4205,
      "----------------------------": 4206,
      "Floating": 4207,
      "lexRender": 4208,
      "dynamic": 4209,
      "ched": 4210,
      "FormControl": 4211,
      "Pages": 4212,
      "selection": 4213,
      "collapse": 4214,
      "ĠIs": 4215,
      "createdAt": 4216,
      "Ġresults": 4217,
      "ragment": 4218,
      "ĠIt": 4219,
      "devtools": 4220,
      "VAL": 4221,
      "ĠRef": 4222,
      "Handle": 4223,
      "orizontal": 4224,
      "UN": 4225,
      "ipe": 4226,
      "ĠEmpty": 4227,
      "Collection": 4228,
      "Ġ--------------------------------------------------------------------------------------------": 4229,
      "Ùħ": 4230,
      "Ġbounty": 4231,
      "ocused": 4232,
      "selector": 4233,
      "apture": 4234,
      "ero": 4235,
      "nullable": 4236,
      "Ġdelay": 4237,
      "Complete": 4238,
      "foo": 4239,
      "ually": 4240,
      "Ġmutate": 4241,
      "ĠCarousel": 4242,
      "Ġcombobox": 4243,
      "allow": 4244,
      "Chunk": 4245,
      "ĠonOpenChange": 4246,
      "ĠborderRadius": 4247,
      "classNames": 4248,
      "Rect": 4249,
      "question": 4250,
      "ĠReturn": 4251,
      "jection": 4252,
      "Job": 4253,
      "fr": 4254,
      "Ġcentered": 4255,
      "Obj": 4256,
      ">[": 4257,
      "stalled": 4258,
      "adcn": 4259,
      "picker": 4260,
      "]\"": 4261,
      "=\"#": 4262,
      "ounts": 4263,
      "ĠNot": 4264,
      "ĠYou": 4265,
      "PostId": 4266,
      "Home": 4267,
      "Ġdiff": 4268,
      "FilterValue": 4269,
      "}`);": 4270,
      "Ġfilters": 4271,
      "Args": 4272,
      "oint": 4273,
      "ulate": 4274,
      "ĠuseLocale": 4275,
      "controlled": 4276,
      "men": 4277,
      "Declaration": 4278,
      "Ġpages": 4279,
      "Ġdocs": 4280,
      "RequestSchema": 4281,
      "cap": 4282,
      "uring": 4283,
      "ĠFilter": 4284,
      "Clo": 4285,
      "CSS": 4286,
      "Partners": 4287,
      "TA": 4288,
      "anner": 4289,
      "login": 4290,
      "previous": 4291,
      "ĠVariant": 4292,
      "ĠSchedule": 4293,
      "Reschedule": 4294,
      "END": 4295,
      "Summary": 4296,
      "stant": 4297,
      "Ġbottom": 4298,
      "findMany": 4299,
      "fn": 4300,
      "ÙĬ": 4301,
      "Ġrgba": 4302,
      "OrThrow": 4303,
      "accessor": 4304,
      "ErrorCode": 4305,
      "Exception": 4306,
      "ĠUpdate": 4307,
      "available": 4308,
      "85": 4309,
      "tc": 4310,
      "vid": 4311,
      "gest": 4312,
      "catch": 4313,
      "Ġorg": 4314,
      "IndexRouteImport": 4315,
      "Ġcor": 4316,
      "dules": 4317,
      "fs": 4318,
      "ES": 4319,
      "Variable": 4320,
      "Ġdisable": 4321,
      "deg": 4322,
      "Outside": 4323,
      "ToggleGroup": 4324,
      "shrink": 4325,
      "gradient": 4326,
      "ĠTableFeatures": 4327,
      "havi": 4328,
      "utf": 4329,
      "DI": 4330,
      "Dynamic": 4331,
      "ĠNode": 4332,
      "ĠSidebarMenu": 4333,
      "\"];": 4334,
      "InputOTP": 4335,
      "Credentials": 4336,
      "Autocomplete": 4337,
      "Ġmultiple": 4338,
      "Ġmay": 4339,
      "Ġvalidation": 4340,
      "05": 4341,
      "?.[": 4342,
      "Ġage": 4343,
      "ĠOAuth": 4344,
      "ĠTODO": 4345,
      "Ġlead": 4346,
      "ghost": 4347,
      "Ġextract": 4348,
      "âĶĢâĶĢâĶĢâĶĢ": 4349,
      "Ġvisit": 4350,
      "formance": 4351,
      "Ġyear": 4352,
      "Package": 4353,
      "TRouter": 4354,
      "Resize": 4355,
      "Ġnested": 4356,
      "FOR": 4357,
      "assic": 4358,
      "ĠonSuccess": 4359,
      "ĠMe": 4360,
      "others": 4361,
      "duling": 4362,
      "warn": 4363,
      "Ġsettings": 4364,
      "Toolbar": 4365,
      "UBLIC": 4366,
      "ĠĠĠĠĠĠ": 4367,
      "FormItem": 4368,
      "Ġwithin": 4369,
      "wrapper": 4370,
      "ĠSign": 4371,
      "Ġintegration": 4372,
      "Ġ600": 4373,
      "decl": 4374,
      "ĠCode": 4375,
      "license": 4376,
      "Ġ------------------------------------------------------------------------------------------------": 4377,
      "Ġ-----------------------------------------------------------------------------------------------": 4378,
      "ified": 4379,
      "ĠReadonly": 4380,
      "}-": 4381,
      "Ġrequire": 4382,
      "ĠHandle": 4383,
      "Allowed": 4384,
      "pres": 4385,
      "orization": 4386,
      "ross": 4387,
      "chunk": 4388,
      "payout": 4389,
      "analytics": 4390,
      "utm": 4391,
      "Ġlang": 4392,
      "Gener": 4393,
      "slots": 4394,
      "((_": 4395,
      "Ġ\"\";": 4396,
      "Pointer": 4397,
      "ration": 4398,
      "ench": 4399,
      "confirm": 4400,
      "gnore": 4401,
      "blank": 4402,
      "Ġ-----------------------------------------------------------------------------------------------*/": 4403,
      "23": 4404,
      "reward": 4405,
      "Mdx": 4406,
      "WEB": 4407,
      "ounter": 4408,
      "Cl": 4409,
      "forwardRef": 4410,
      "*='": 4411,
      "hing": 4412,
      "Ġlike": 4413,
      "ĠparsedInput": 4414,
      "Ġ}))": 4415,
      "NativeSelect": 4416,
      "ours": 4417,
      "POST": 4418,
      "record": 4419,
      "assed": 4420,
      "cover": 4421,
      "Ġcollapse": 4422,
      "Ġinvoice": 4423,
      "ĠdataKey": 4424,
      "Ġprogress": 4425,
      "ĠnotFound": 4426,
      "groups": 4427,
      "ied": 4428,
      "'>": 4429,
      "anger": 4430,
      "duction": 4431,
      "Queries": 4432,
      "InputSchema": 4433,
      "prop": 4434,
      "}${": 4435,
      "Ġease": 4436,
      "Ġaccessor": 4437,
      "verse": 4438,
      "atched": 4439,
      "lead": 4440,
      "Ġ'/$": 4441,
      "Tokens": 4442,
      "npm": 4443,
      "Ġcurrency": 4444,
      "Pathname": 4445,
      "Ġcancel": 4446,
      "ĠFileRoutesBy": 4447,
      "ĠEnvelope": 4448,
      "());": 4449,
      "ĠonSelect": 4450,
      "Ġensure": 4451,
      "Imp": 4452,
      "imum": 4453,
      "Sorting": 4454,
      "ĠDubApiError": 4455,
      "Ġthen": 4456,
      "quires": 4457,
      ".\"": 4458,
      "condition": 4459,
      "Ġattendee": 4460,
      "Ġsignal": 4461,
      "Ġrecipients": 4462,
      "Hash": 4463,
      "mac": 4464,
      "ĠDashboard": 4465,
      "Ġkeep": 4466,
      "pendency": 4467,
      "ĠExt": 4468,
      "Bounty": 4469,
      "ounted": 4470,
      "coration": 4471,
      "Ġtracking": 4472,
      "Ġlightgray": 4473,
      "KEN": 4474,
      "Project": 4475,
      "ColorPicker": 4476,
      ".`,": 4477,
      "Ġalso": 4478,
      "Ġ1000": 4479,
      "ĠTQueryFnData": 4480,
      "Legend": 4481,
      "timiz": 4482,
      "havior": 4483,
      "tbody": 4484,
      "={({": 4485,
      "Ġsome": 4486,
      "ligh": 4487,
      "uped": 4488,
      "see": 4489,
      "Ġpart": 4490,
      "Thumb": 4491,
      "audit": 4492,
      "Ġveri": 4493,
      "Swatch": 4494,
      "mitted": 4495,
      "Href": 4496,
      "MI": 4497,
      "arted": 4498,
      "char": 4499,
      "oft": 4500,
      "SlotRecipe": 4501,
      "Ġass": 4502,
      "Ġarg": 4503,
      "util": 4504,
      "integrations": 4505,
      "Ġissue": 4506,
      "redu": 4507,
      "Animation": 4508,
      "ĠTrans": 4509,
      "Ġverify": 4510,
      "Ġemoji": 4511,
      "tected": 4512,
      "lastName": 4513,
      ")),": 4514,
      "task": 4515,
      "ĠfontWeight": 4516,
      "Ġplugins": 4517,
      "Window": 4518,
      "licit": 4519,
      "mediate": 4520,
      "-'])": 4521,
      "Channel": 4522,
      "Ġhel": 4523,
      "alysis": 4524,
      "Runtime": 4525,
      "-'])]:": 4526,
      "tags": 4527,
      "Ġhook": 4528,
      "teams": 4529,
      "vas": 4530,
      "Øª": 4531,
      "shadcn": 4532,
      "Ġcolors": 4533,
      "currentTarget": 4534,
      "templates": 4535,
      "Side": 4536,
      "person": 4537,
      "erred": 4538,
      "RadioItem": 4539,
      "bounced": 4540,
      "Ġmatches": 4541,
      "Viewport": 4542,
      "ĠQueryClient": 4543,
      "ĠModal": 4544,
      "onChange": 4545,
      "Slots": 4546,
      "Ġstack": 4547,
      "ĠRender": 4548,
      "ĠGET": 4549,
      "Ġvia": 4550,
      "AuditLog": 4551,
      "TOKEN": 4552,
      "Env": 4553,
      "ince": 4554,
      "iteral": 4555,
      "Ġsingle": 4556,
      "member": 4557,
      "Cre": 4558,
      "Ms": 4559,
      "PL": 4560,
      "pur": 4561,
      "assets": 4562,
      "ached": 4563,
      "Ġlogo": 4564,
      "non": 4565,
      "Ġ\"${": 4566,
      "loc": 4567,
      "ĠAt": 4568,
      "ĠstartTime": 4569,
      "prefix": 4570,
      "Ġ-------------------------------------------------------------------------------------------------": 4571,
      "Usage": 4572,
      "iti": 4573,
      "Ġdown": 4574,
      "ĠRegister": 4575,
      "columns": 4576,
      "Equal": 4577,
      "PUBLIC": 4578,
      "QueryClient": 4579,
      "ĠCell": 4580,
      "ĠStripe": 4581,
      "Before": 4582,
      "country": 4583,
      "lash": 4584,
      "ĠInputGroup": 4585,
      "Ġ{!": 4586,
      "Ġpass": 4587,
      "ĠMet": 4588,
      "ift": 4589,
      "Mantine": 4590,
      "Ġqueue": 4591,
      "required": 4592,
      "RootProps": 4593,
      "ple": 4594,
      "lacement": 4595,
      "validation": 4596,
      "Move": 4597,
      "hello": 4598,
      "]?.": 4599,
      "nap": 4600,
      "environment": 4601,
      "Ġsync": 4602,
      "ĠqueryClient": 4603,
      "Verification": 4604,
      "×Ļ×": 4605,
      "19": 4606,
      "ta": 4607,
      "Ġprevent": 4608,
      "Ġthem": 4609,
      "ĠChevron": 4610,
      "Ġapplication": 4611,
      "mixin": 4612,
      "ki": 4613,
      "webhooks": 4614,
      "partnerId": 4615,
      "UCCESS": 4616,
      "Collapsible": 4617,
      "Ġfeature": 4618,
      "textarea": 4619,
      "Ġsubscription": 4620,
      "AGE": 4621,
      "ighligh": 4622,
      "Delay": 4623,
      "Ġits": 4624,
      "Ġ}));": 4625,
      "`),": 4626,
      "losure": 4627,
      "ValueChange": 4628,
      "Ġproduct": 4629,
      "FormLabel": 4630,
      "pattern": 4631,
      "Ġreason": 4632,
      "Ġapply": 4633,
      "tach": 4634,
      "raft": 4635,
      "overlay": 4636,
      "kind": 4637,
      "acc": 4638,
      "Lock": 4639,
      "BaseProps": 4640,
      "Ġmiddleware": 4641,
      "Ġthey": 4642,
      "rouped": 4643,
      "Ġfailed": 4644,
      "Ġconnect": 4645,
      "getValue": 4646,
      "Ġselection": 4647,
      "Fns": 4648,
      "Methods": 4649,
      "CardHeader": 4650,
      "reduce": 4651,
      "Buffer": 4652,
      "Ġour": 4653,
      "iness": 4654,
      "Ġreplace": 4655,
      "Ġmenu": 4656,
      "OUN": 4657,
      "existing": 4658,
      "Ġaut": 4659,
      "Ġ&[": 4660,
      "ĠeventTypeId": 4661,
      "Ab": 4662,
      "RichTextEditor": 4663,
      "Ġcap": 4664,
      "InputElement": 4665,
      "Bookings": 4666,
      "ĠEdit": 4667,
      "quare": 4668,
      "literal": 4669,
      "NOT": 4670,
      "ause": 4671,
      "category": 4672,
      "Ġbrowser": 4673,
      "ĠonError": 4674,
      "Confirmation": 4675,
      "stop": 4676,
      "Ġinternal": 4677,
      "Ġexists": 4678,
      "Ġagain": 4679,
      "enabled": 4680,
      "}>{": 4681,
      "coded": 4682,
      "Adapter": 4683,
      "Ġ'ðŁ": 4684,
      "toLocale": 4685,
      "Ġ{};": 4686,
      "ableStream": 4687,
      "ĠuseContext": 4688,
      "Ġlevel": 4689,
      "Operator": 4690,
      "makeData": 4691,
      "CRE": 4692,
      "found": 4693,
      "LayoutRoute": 4694,
      "ĠProgram": 4695,
      "ĠComponentProps": 4696,
      "expanded": 4697,
      "getCan": 4698,
      "ĠcreateServerFn": 4699,
      "system": 4700,
      "step": 4701,
      "br": 4702,
      "Ġvisible": 4703,
      "duration": 4704,
      "usy": 4705,
      "GroupLabel": 4706,
      "Labels": 4707,
      "pecifier": 4708,
      "PRE": 4709,
      "ited": 4710,
      "invoice": 4711,
      "alk": 4712,
      "vers": 4713,
      "Secret": 4714,
      "eriment": 4715,
      ":${": 4716,
      "Has": 4717,
      "Ġcountry": 4718,
      "witter": 4719,
      "NavigationMenu": 4720,
      "`](": 4721,
      "Ġ]);": 4722,
      "Vite": 4723,
      "firstName": 4724,
      "Ġ!=": 4725,
      "ĠTree": 4726,
      "$/": 4727,
      ")}</": 4728,
      "oly": 4729,
      "andom": 4730,
      "ĠHover": 4731,
      "CheckboxItem": 4732,
      "ISO": 4733,
      "erimental": 4734,
      "usiness": 4735,
      "bop": 4736,
      "ĠJSX": 4737,
      "bopack": 4738,
      "rics": 4739,
      "Ġact": 4740,
      "Ġtask": 4741,
      "Interval": 4742,
      "www": 4743,
      "DAT": 4744,
      "Ġ])": 4745,
      "attr": 4746,
      "Ġindicator": 4747,
      "ERS": 4748,
      "maining": 4749,
      "imated": 4750,
      "28": 4751,
      "Do": 4752,
      "cepted": 4753,
      "ĠSwitch": 4754,
      "26": 4755,
      "Dashboard": 4756,
      "mutation": 4757,
      "Respon": 4758,
      "Ġsetup": 4759,
      "ĠNavigationMenu": 4760,
      "Ġfiltered": 4761,
      "Ġdirectory": 4762,
      "ĠVariantProps": 4763,
      "findFirst": 4764,
      "Ġvariable": 4765,
      "Available": 4766,
      "Ġcopy": 4767,
      "Ġ*:": 4768,
      "cei": 4769,
      "IsOptional": 4770,
      "flat": 4771,
      "wright": 4772,
      "desc": 4773,
      "Ġconfirm": 4774,
      "Pinning": 4775,
      "Send": 4776,
      "cod": 4777,
      "ĠPl": 4778,
      "Ġdetails": 4779,
      "GN": 4780,
      "Exist": 4781,
      "Ġruntime": 4782,
      "Ctx": 4783,
      "ets": 4784,
      "Ġradius": 4785,
      "ĠExample": 4786,
      "Ġorigin": 4787,
      "Plus": 4788,
      "Period": 4789,
      "Spinner": 4790,
      "Responses": 4791,
      "Branding": 4792,
      "Ġreward": 4793,
      "ullish": 4794,
      "ĠforwardRef": 4795,
      "DateTime": 4796,
      "={`${": 4797,
      "greg": 4798,
      "Single": 4799,
      "Ġowner": 4800,
      "Ġparam": 4801,
      "ĠFactory": 4802,
      "Ġavatar": 4803,
      "shot": 4804,
      "mg": 4805,
      "=\"_": 4806,
      "undle": 4807,
      "ĠHt": 4808,
      "signing": 4809,
      "ĠDatePicker": 4810,
      "Ġprice": 4811,
      "yc": 4812,
      "Ġtimestamp": 4813,
      "Ġpassed": 4814,
      "Ġmember": 4815,
      "Ġcached": 4816,
      "Ġhash": 4817,
      "Ġtheir": 4818,
      "ĠSearch": 4819,
      "ĠuseS": 4820,
      "fully": 4821,
      "Ġ<=": 4822,
      "Attendee": 4823,
      "ĠNextApi": 4824,
      "Recipients": 4825,
      "Ġdoesn": 4826,
      "ates": 4827,
      "ĠuseL": 4828,
      "ĠPri": 4829,
      "ĠOptions": 4830,
      "ĠTh": 4831,
      "Ġali": 4832,
      "legation": 4833,
      "ĠHeader": 4834,
      "encing": 4835,
      "DOCUMENT": 4836,
      "Keyboard": 4837,
      "DownIcon": 4838,
      "cancel": 4839,
      "purple": 4840,
      "ld": 4841,
      "ĠName": 4842,
      "Ġ==": 4843,
      "ĠtextValue": 4844,
      "force": 4845,
      "db": 4846,
      "sheet": 4847,
      "filePath": 4848,
      "duc": 4849,
      "origin": 4850,
      "Ġmodal": 4851,
      "general": 4852,
      "KS": 4853,
      "ai": 4854,
      "Report": 4855,
      "ĠImage": 4856,
      "DialogContent": 4857,
      "/'": 4858,
      "aid": 4859,
      "summary": 4860,
      "ĠStack": 4861,
      "ĠgetDefault": 4862,
      "ĠConfig": 4863,
      "Ġinject": 4864,
      "Ġ18": 4865,
      "subscription": 4866,
      "CloseButton": 4867,
      "cwd": 4868,
      "Ġcre": 4869,
      "omatic": 4870,
      "CardDescription": 4871,
      "Members": 4872,
      "ĠElementType": 4873,
      "Ġeditor": 4874,
      "{'": 4875,
      "Ġ'.": 4876,
      "ĠTanStack": 4877,
      "AUTH": 4878,
      "Strategy": 4879,
      "Que": 4880,
      "Ġentries": 4881,
      "tection": 4882,
      "MAIL": 4883,
      "ĠUnstyled": 4884,
      "io": 4885,
      "property": 4886,
      "Ġ'/',": 4887,
      "Ġgroups": 4888,
      "Ag": 4889,
      "family": 4890,
      "invite": 4891,
      "Ġoverride": 4892,
      "random": 4893,
      "TanStack": 4894,
      "Ġcard": 4895,
      "Raw": 4896,
      "tect": 4897,
      "FormSchema": 4898,
      "ĠTeam": 4899,
      "ĠStart": 4900,
      "Ġ[{": 4901,
      "Ġbased": 4902,
      "ĠTSurveyElement": 4903,
      "inside": 4904,
      "Ġsection": 4905,
      "ĠbackgroundColor": 4906,
      "calendars": 4907,
      "ĠTest": 4908,
      "brand": 4909,
      "expi": 4910,
      "Ġssr": 4911,
      "Init": 4912,
      "Ġinside": 4913,
      "lsx": 4914,
      "CardTitle": 4915,
      "ĠPathlessLayoutNested": 4916,
      "Hide": 4917,
      "ĠFocus": 4918,
      "Ġlines": 4919,
      "Char": 4920,
      "oliday": 4921,
      "references": 4922,
      "asc": 4923,
      "Operation": 4924,
      "Save": 4925,
      "nullish": 4926,
      "Modules": 4927,
      "ferencing": 4928,
      "macro": 4929,
      "TTP": 4930,
      "Blur": 4931,
      "ged": 4932,
      "Hello": 4933,
      "Js": 4934,
      "Username": 4935,
      "lazy": 4936,
      "viders": 4937,
      "Math": 4938,
      "hide": 4939,
      "mmediate": 4940,
      "zoom": 4941,
      "debug": 4942,
      "otlight": 4943,
      "Ġ::": 4944,
      "DateField": 4945,
      "signSystem": 4946,
      "Ġarr": 4947,
      "uilder": 4948,
      "Billing": 4949,
      "sum": 4950,
      "Stripe": 4951,
      "Ġwatch": 4952,
      "Ġsummary": 4953,
      "filters": 4954,
      "Ġ'')": 4955,
      "Ġtranslate": 4956,
      "Ġauthenticated": 4957,
      "Ġdb": 4958,
      "Times": 4959,
      "ColumnDef": 4960,
      "TooltipContent": 4961,
      "cated": 4962,
      "tn": 4963,
      "ĠPlease": 4964,
      "formation": 4965,
      "Handlers": 4966,
      "oAuth": 4967,
      "Ġsafe": 4968,
      "ĠtextStyle": 4969,
      "Queue": 4970,
      "ili": 4971,
      "ĠSlider": 4972,
      "DEF": 4973,
      "<'": 4974,
      "level": 4975,
      "Ġ})),": 4976,
      "ialize": 4977,
      "ding": 4978,
      "self": 4979,
      "Ġavoid": 4980,
      "45": 4981,
      "Ġmissing": 4982,
      "ĠâĢĶ": 4983,
      "URE": 4984,
      "campaign": 4985,
      "stable": 4986,
      "ips": 4987,
      "Ġfeatures": 4988,
      "Ġboth": 4989,
      "Ġwrite": 4990,
      "mono": 4991,
      "\\\\": 4992,
      "callback": 4993,
      "currency": 4994,
      "rule": 4995,
      "Scheme": 4996,
      "Ġrendered": 4997,
      "ade": 4998,
      "urator": 4999,
      "ButtonProps": 5000,
      "Emails": 5001,
      "Outlet": 5002,
      "Ġ]}": 5003,
      "Ġframework": 5004,
      "21": 5005,
      "device": 5006,
      "Ġmutation": 5007,
      "pose": 5008,
      "created": 5009,
      "umeric": 5010,
      "accordion": 5011,
      "ĠIN": 5012,
      "Codes": 5013,
      "FullPath": 5014,
      "Ġwhether": 5015,
      "overflow": 5016,
      "\"));": 5017,
      "should": 5018,
      "Results": 5019,
      "SH": 5020,
      "book": 5021,
      "Ġcva": 5022,
      "Nodes": 5023,
      "ĠPostsPostId": 5024,
      "Background": 5025,
      "promise": 5026,
      "ilename": 5027,
      "StateAction": 5028,
      "subscribe": 5029,
      "Inputs": 5030,
      "iddlewares": 5031,
      "GET": 5032,
      "modi": 5033,
      "Chip": 5034,
      "programs": 5035,
      "Non": 5036,
      "break": 5037,
      "attendee": 5038,
      "opied": 5039,
      "variable": 5040,
      "WOR": 5041,
      "ingui": 5042,
      "Restor": 5043,
      "prise": 5044,
      "billing": 5045,
      "sitive": 5046,
      "FieldMeta": 5047,
      "Like": 5048,
      "endsWith": 5049,
      "Ġreference": 5050,
      "fg": 5051,
      "tot": 5052,
      "Ġtimezone": 5053,
      "ĠBadge": 5054,
      "DOM": 5055,
      "filled": 5056,
      "Factor": 5057,
      "dep": 5058,
      "aceted": 5059,
      "Ġtimeout": 5060,
      "ĠuseLingui": 5061,
      "Ġinit": 5062,
      "Ġembed": 5063,
      "SelectPrimitive": 5064,
      "Ġ_(": 5065,
      "256": 5066,
      "ĠtimeZone": 5067,
      "////////////////////////////////////////////////////////////////": 5068,
      "skeleton": 5069,
      "Environment": 5070,
      "precated": 5071,
      "DropdownMenuContent": 5072,
      "ĠsetIsOpen": 5073,
      "slider": 5074,
      "Regex": 5075,
      "255": 5076,
      "03": 5077,
      "ical": 5078,
      "lations": 5079,
      "TI": 5080,
      "orange": 5081,
      "icense": 5082,
      "miss": 5083,
      "Ġinterval": 5084,
      "El": 5085,
      "ĠdefaultClassNames": 5086,
      "Attr": 5087,
      "velop": 5088,
      "Availability": 5089,
      "},": 5090,
      "setValue": 5091,
      "war": 5092,
      "Ġ(_": 5093,
      "Blocks": 5094,
      "////////////////////////////////////////////////////////////////////////////////": 5095,
      "Fraud": 5096,
      "yp": 5097,
      "Infinite": 5098,
      "ĠToast": 5099,
      "Ġcharac": 5100,
      "Ġdiffer": 5101,
      ".__": 5102,
      "Multiple": 5103,
      "az": 5104,
      "Ø±": 5105,
      "0000": 5106,
      "ĠTagName": 5107,
      "AY": 5108,
      "Layer": 5109,
      "enable": 5110,
      "Install": 5111,
      "come": 5112,
      "StoreState": 5113,
      "Ġpt": 5114,
      "eline": 5115,
      "vercel": 5116,
      "addEventListener": 5117,
      "DropdownMenuTrigger": 5118,
      "ric": 5119,
      "Ġdrag": 5120,
      "ĠReturns": 5121,
      "ĠonClose": 5122,
      "IP": 5123,
      "SR": 5124,
      "teal": 5125,
      "Ġthan": 5126,
      "ĠcreateContext": 5127,
      "Ġexpected": 5128,
      "Analytics": 5129,
      "Unknown": 5130,
      "Ġfinal": 5131,
      "////////////////////////////////////////////////////////////////////////////////////": 5132,
      "DATA": 5133,
      "cron": 5134,
      "ä¸": 5135,
      "Ġsale": 5136,
      "Refs": 5137,
      "Colors": 5138,
      "getStyles": 5139,
      "Ġprovide": 5140,
      "QuerySchema": 5141,
      "utility": 5142,
      "anti": 5143,
      "Ġpe": 5144,
      "Ġcalled": 5145,
      "pto": 5146,
      "idx": 5147,
      "extend": 5148,
      "Ġjoin": 5149,
      "storage": 5150,
      "ĠNested": 5151,
      "Ġtests": 5152,
      "875": 5153,
      "Ġduring": 5154,
      "Address": 5155,
      "ĠTransform": 5156,
      "HEAD": 5157,
      "OUNT": 5158,
      "Price": 5159,
      "Expi": 5160,
      "eners": 5161,
      "alle": 5162,
      "Refresh": 5163,
      "Ġatom": 5164,
      "Ġhttp": 5165,
      "Ġcommand": 5166,
      "ins": 5167,
      "Ġmain": 5168,
      "!,": 5169,
      "ulse": 5170,
      "Ġdep": 5171,
      "ĠBoolean": 5172,
      "Pinned": 5173,
      "Legacy": 5174,
      "EventData": 5175,
      "ĠrouteTree": 5176,
      "Fetching": 5177,
      "Col": 5178,
      "ingFeature": 5179,
      "throw": 5180,
      "Asset": 5181,
      "ograph": 5182,
      "anchor": 5183,
      "loy": 5184,
      "Ġ**": 5185,
      "centage": 5186,
      "surveyId": 5187,
      "ĠComposite": 5188,
      "loaded": 5189,
      "Ġdeleted": 5190,
      "Product": 5191,
      "thead": 5192,
      "Ġalways": 5193,
      "FilePath": 5194,
      "disclosure": 5195,
      "Ġshort": 5196,
      "Timestamp": 5197,
      "ĠfirstName": 5198,
      "Ġdirection": 5199,
      "Literal": 5200,
      "ali": 5201,
      "HoverCard": 5202,
      "Ġdropdown": 5203,
      "Ġlibrary": 5204,
      "Navigation": 5205,
      "OD": 5206,
      "Ġwould": 5207,
      "ĠisActive": 5208,
      "('.": 5209,
      "refresh": 5210,
      "CssVariables": 5211,
      "runtime": 5212,
      "Claim": 5213,
      "NAL": 5214,
      "menubar": 5215,
      "Ġrevalidate": 5216,
      "ĠMo": 5217,
      "Bytes": 5218,
      "ĠAnyRouter": 5219,
      "curringEvent": 5220,
      ")[": 5221,
      "HStack": 5222,
      "dater": 5223,
      "colorPalette": 5224,
      "[]>": 5225,
      "LL": 5226,
      "ĠX": 5227,
      "Ġ255": 5228,
      ":-": 5229,
      "stash": 5230,
      "analysis": 5231,
      "Ġperiod": 5232,
      "ĠSte": 5233,
      "pping": 5234,
      "gers": 5235,
      "Ġreject": 5236,
      "locator": 5237,
      "Padding": 5238,
      "lined": 5239,
      "ĠStylesApi": 5240,
      "romo": 5241,
      "66": 5242,
      "multiple": 5243,
      "wise": 5244,
      "Ġproperties": 5245,
      "setup": 5246,
      "Ġparts": 5247,
      "Apps": 5248,
      "Flags": 5249,
      "Guard": 5250,
      "ios": 5251,
      "orph": 5252,
      "ellow": 5253,
      "...\"": 5254,
      "TableRow": 5255,
      "programId": 5256,
      "37": 5257,
      "ĠAriakit": 5258,
      "RightIcon": 5259,
      "PAT": 5260,
      "fallback": 5261,
      "Ġcannot": 5262,
      "LoaderData": 5263,
      "SidebarMenuItem": 5264,
      "isOpen": 5265,
      "Ġasset": 5266,
      "Ġleg": 5267,
      "Updated": 5268,
      "PTION": 5269,
      "ber": 5270,
      "Ġenter": 5271,
      "ctor": 5272,
      "ĠalignItems": 5273,
      "'re": 5274,
      "CL": 5275,
      "ĠValidate": 5276,
      "Ġreturns": 5277,
      "ublish": 5278,
      "ĠonMouse": 5279,
      "Ġ'/':": 5280,
      "Expand": 5281,
      "nestjs": 5282,
      "ĠOnly": 5283,
      "window": 5284,
      "agation": 5285,
      "Ġvirtual": 5286,
      "imple": 5287,
      "Port": 5288,
      "Ġpayouts": 5289,
      "Register": 5290,
      "Ġcontains": 5291,
      "Parse": 5292,
      "Ġimports": 5293,
      "Ġobserver": 5294,
      "Basic": 5295,
      "Ġbel": 5296,
      "Dates": 5297,
      "ChakraProps": 5298,
      "ĠOutlet": 5299,
      "ĠReturnType": 5300,
      "wide": 5301,
      "lities": 5302,
      "TypeEnum": 5303,
      "ĠcreateRouter": 5304,
      "ssue": 5305,
      "Ġimplement": 5306,
      "ography": 5307,
      "AI": 5308,
      "attribute": 5309,
      "ĠModule": 5310,
      "letion": 5311,
      "Ġnavigation": 5312,
      "Ġ[]);": 5313,
      "idget": 5314,
      "FormData": 5315,
      "price": 5316,
      "points": 5317,
      "uilt": 5318,
      "HTMLElement": 5319,
      "\\.": 5320,
      "ĠWith": 5321,
      "Ġpagination": 5322,
      "Ġrest": 5323,
      "FieldGroup": 5324,
      "toISO": 5325,
      "ĠHTMLChakraProps": 5326,
      "pulse": 5327,
      "ĠcurrentColor": 5328,
      "scrollbar": 5329,
      "Ġactions": 5330,
      "Strict": 5331,
      "Ġresource": 5332,
      "ĠTQueryKey": 5333,
      "ĠSeparator": 5334,
      "Ġpos": 5335,
      "<!": 5336,
      "Center": 5337,
      "ĠisValid": 5338,
      "TextField": 5339,
      "declare": 5340,
      "hot": 5341,
      "pathlessLayout": 5342,
      "ĠRouteComponent": 5343,
      "tokens": 5344,
      "ĠlastName": 5345,
      "SidebarMenuButton": 5346,
      "ĠScrollArea": 5347,
      "Ġassign": 5348,
      "Ġ->": 5349,
      "OfWeek": 5350,
      "ĠStore": 5351,
      "ĠClient": 5352,
      "riggers": 5353,
      "Ġ25": 5354,
      "Urls": 5355,
      "cluded": 5356,
      "velopment": 5357,
      "Ġunstyled": 5358,
      "!.": 5359,
      "dot": 5360,
      "hash": 5361,
      "ĠContent": 5362,
      "secret": 5363,
      "ydrated": 5364,
      "ĠElementProps": 5365,
      "29": 5366,
      "GH": 5367,
      "RY": 5368,
      "Ġ];": 5369,
      "ĠTResponse": 5370,
      "kbd": 5371,
      "Dirty": 5372,
      "Ġprimary": 5373,
      "Ġbound": 5374,
      "Ġunique": 5375,
      "Ġsure": 5376,
      "serted": 5377,
      "('[": 5378,
      "Dismiss": 5379,
      "italize": 5380,
      "woFactor": 5381,
      "ness": 5382,
      "SelectTrigger": 5383,
      "Permissions": 5384,
      "VE": 5385,
      "surface": 5386,
      "ĠØ§ÙĦ": 5387,
      "Ġ[])": 5388,
      "SelectContent": 5389,
      "MAIN": 5390,
      "Quest": 5391,
      "ZE": 5392,
      "ButtonElement": 5393,
      "Ġcomplete": 5394,
      "Question": 5395,
      "ASE": 5396,
      "NG": 5397,
      "Rate": 5398,
      "atoms": 5399,
      "Horizontal": 5400,
      "oh": 5401,
      "inary": 5402,
      "fice": 5403,
      "igr": 5404,
      "Ġvertical": 5405,
      "warded": 5406,
      "()}>": 5407,
      "ĠDay": 5408,
      "functions": 5409,
      "Ġexclude": 5410,
      "addFile": 5411,
      "Ġbeing": 5412,
      "ĠRadioGroup": 5413,
      "PER": 5414,
      "ĠonValueChange": 5415,
      "packages": 5416,
      ">>;": 5417,
      "Ġreport": 5418,
      "isLoading": 5419,
      "Ġgi": 5420,
      "py": 5421,
      "Ġcontroller": 5422,
      "gExp": 5423,
      "reason": 5424,
      "Registry": 5425,
      "bound": 5426,
      "Definition": 5427,
      "playwright": 5428,
      "ĠSlot": 5429,
      "centered": 5430,
      "days": 5431,
      "ĠmakeDataLevel": 5432,
      ")?.": 5433,
      ".\");": 5434,
      "Border": 5435,
      "peat": 5436,
      "Ġval": 5437,
      "Ġaudit": 5438,
      "ĠSUCCESS": 5439,
      "ĠgroupId": 5440,
      "Ġrotate": 5441,
      "DropdownMenuGroup": 5442,
      "]\",": 5443,
      "Ġoc": 5444,
      "ĠendTime": 5445,
      "responses": 5446,
      "Require": 5447,
      "variants": 5448,
      "ming": 5449,
      "ĠPOST": 5450,
      "Organizer": 5451,
      "Ġcorrect": 5452,
      "Build": 5453,
      "cms": 5454,
      "andard": 5455,
      "ĠDo": 5456,
      "Ġdependencies": 5457,
      "toBe": 5458,
      "composite": 5459,
      "ĠpackageJson": 5460,
      "uests": 5461,
      "merge": 5462,
      "ĠaccessorKey": 5463,
      "gen": 5464,
      "exit": 5465,
      "its": 5466,
      "Ġbar": 5467,
      "Inner": 5468,
      "rast": 5469,
      "Ġidentifier": 5470,
      "IsString": 5471,
      "ĠqueryKey": 5472,
      "Domains": 5473,
      "ĠĠĠĠĠĠĠĠĠĠĠĠĠĠĠĠĠĠĠĠĠĠĠĠĠĠĠĠĠĠĠĠĠĠĠĠĠ": 5474,
      "ĠInter": 5475,
      "Ġbetween": 5476,
      "Ġsorted": 5477,
      "Ġlook": 5478,
      "SearchField": 5479,
      "Ġautomatic": 5480,
      "toc": 5481,
      "Ġaddress": 5482,
      "PAGE": 5483,
      "Ġstr": 5484,
      "Created": 5485,
      "Ġsignature": 5486,
      "doc": 5487,
      "Ġidx": 5488,
      "Ġnamespace": 5489,
      "Ġevery": 5490,
      "Ġvariables": 5491,
      "toISOString": 5492,
      "payouts": 5493,
      "Ġadditional": 5494,
      "ReturnType": 5495,
      "Ġexpires": 5496,
      "77": 5497,
      "Ġunder": 5498,
      "Ġanchor": 5499,
      "ĠRsc": 5500,
      "Steps": 5501,
      "ACK": 5502,
      "Total": 5503,
      "ferred": 5504,
      "Until": 5505,
      "UR": 5506,
      "pop": 5507,
      "recharts": 5508,
      "Ġreschedule": 5509,
      "layground": 5510,
      "domains": 5511,
      "localhost": 5512,
      "totype": 5513,
      "CLI": 5514,
      "Ġ\"-": 5515,
      "ĠSort": 5516,
      "Ġplain": 5517,
      "Ġcharset": 5518,
      "Ġnavigate": 5519,
      "Ġinner": 5520,
      "fff": 5521,
      "[]):": 5522,
      "Find": 5523,
      "Sup": 5524,
      "yan": 5525,
      "Ġuid": 5526,
      "lide": 5527,
      "append": 5528,
      "Src": 5529,
      "deps": 5530,
      "Ġcontrols": 5531,
      "ird": 5532,
      "napshot": 5533,
      "Feedback": 5534,
      "SV": 5535,
      "rial": 5536,
      "Ġinstall": 5537,
      "ĠCan": 5538,
      "calEvent": 5539,
      "Ġ():": 5540,
      "ĠIS": 5541,
      "AppErrorCode": 5542,
      "emails": 5543,
      "Framework": 5544,
      "Ġtake": 5545,
      "ished": 5546,
      "Resolved": 5547,
      "Ġâ": 5548,
      "ĠHead": 5549,
      "ĠTRouter": 5550,
      "Ġinvite": 5551,
      "96": 5552,
      "EMAIL": 5553,
      "Pres": 5554,
      "TimeZone": 5555,
      "Propagation": 5556,
      "sale": 5557,
      "pear": 5558,
      "truncate": 5559,
      "Logger": 5560,
      "TagName": 5561,
      "SidebarGroup": 5562,
      "Ġspecific": 5563,
      "ells": 5564,
      "Ġdist": 5565,
      "TextInput": 5566,
      "thumb": 5567,
      "ĠRecipient": 5568,
      "ErrorComponent": 5569,
      "Setup": 5570,
      "Ġwhitespace": 5571,
      "deep": 5572,
      "Ġdeps": 5573,
      "ĠNOT": 5574,
      "utilities": 5575,
      "Commissions": 5576,
      "SubTrigger": 5577,
      "signal": 5578,
      "hmr": 5579,
      "ErrorMessage": 5580,
      "ĠUI": 5581,
      "ĠArk": 5582,
      "quote": 5583,
      "ĠinitialValue": 5584,
      "hr": 5585,
      "Ġdialog": 5586,
      "ĠcreateRoot": 5587,
      "Ġdays": 5588,
      "Ġupper": 5589,
      "Issue": 5590,
      "Missing": 5591,
      "Ġtx": 5592,
      "Ġpb": 5593,
      "Stats": 5594,
      "Ġonce": 5595,
      "(\"\");": 5596,
      "ErrorResponse": 5597,
      "Fragment": 5598,
      "aults": 5599,
      "identifier": 5600,
      "ĠCal": 5601,
      "Ġcandidate": 5602,
      "ĠqueryParams": 5603,
      "AvatarFallback": 5604,
      "Verify": 5605,
      "allel": 5606,
      "ĠEmail": 5607,
      "serif": 5608,
      "eeded": 5609,
      "Prev": 5610,
      "ProgramId": 5611,
      "orphic": 5612,
      "ĠRemove": 5613,
      "commission": 5614,
      "Process": 5615,
      "Ġbookings": 5616,
      "ranch": 5617,
      "BU": 5618,
      "Ġ\"{": 5619,
      "isSubmitting": 5620,
      "ĠAl": 5621,
      "names": 5622,
      "tests": 5623,
      "1000": 5624,
      ">{'": 5625,
      "Ġmove": 5626,
      "Ġdiscount": 5627,
      "Ġstill": 5628,
      "Choice": 5629,
      "preset": 5630,
      "Ġsuper": 5631,
      "(-": 5632,
      "today": 5633,
      "issue": 5634,
      "verify": 5635,
      "coming": 5636,
      "sortable": 5637,
      "SIZE": 5638,
      "Graph": 5639,
      "License": 5640,
      "PO": 5641,
      "elcome": 5642,
      "ĠBar": 5643,
      "ĠRE": 5644,
      "images": 5645,
      "ReadOnly": 5646,
      "ĠorderBy": 5647,
      "eded": 5648,
      "fe": 5649,
      "×Ķ": 5650,
      "ĠContext": 5651,
      "ItemProps": 5652,
      "compact": 5653,
      "86": 5654,
      "Pos": 5655,
      "Ter": 5656,
      "]\">": 5657,
      "dd": 5658,
      "sList": 5659,
      "ignore": 5660,
      "Opts": 5661,
      "imal": 5662,
      "DOMAIN": 5663,
      "Navigate": 5664,
      "Suffix": 5665,
      "fb": 5666,
      "Ġfactory": 5667,
      "odo": 5668,
      "mmed": 5669,
      "(_": 5670,
      "Part": 5671,
      "backdrop": 5672,
      "RowData": 5673,
      "ĠProject": 5674,
      "ĠResolve": 5675,
      "ULE": 5676,
      "][": 5677,
      "ru": 5678,
      "rout": 5679,
      "Ġdatabase": 5680,
      "ĠHel": 5681,
      "mdx": 5682,
      "Ġexecute": 5683,
      "DX": 5684,
      "attributes": 5685,
      "Ġreturned": 5686,
      "deferred": 5687,
      "Ġemails": 5688,
      "Notification": 5689,
      "manifest": 5690,
      "vh": 5691,
      "getBy": 5692,
      "Activity": 5693,
      "ComboboxPrimitive": 5694,
      "Ġ[]),": 5695,
      "Ġsegments": 5696,
      "Doc": 5697,
      "Lu": 5698,
      "ĠRedirect": 5699,
      "ĠSp": 5700,
      "ĠNew": 5701,
      "Completed": 5702,
      "ĠHTMLDivElement": 5703,
      "Ġadded": 5704,
      "ĠTemplate": 5705,
      "soft": 5706,
      "Ġtransparent": 5707,
      "bit": 5708,
      "install": 5709,
      "ailure": 5710,
      "Teams": 5711,
      "ĠBoxProps": 5712,
      "tify": 5713,
      "Ġrule": 5714,
      "icky": 5715,
      "Cookie": 5716,
      "gion": 5717,
      "activ": 5718,
      "Ġconvert": 5719,
      "otp": 5720,
      "(:": 5721,
      "FlexRender": 5722,
      "Mix": 5723,
      "ns": 5724,
      "ĠenvelopeId": 5725,
      "ĠDispatch": 5726,
      "ĠUnstyledProp": 5727,
      "DF": 5728,
      "animation": 5729,
      "ĠQueryKey": 5730,
      "stinationCalendar": 5731,
      "Ġgiven": 5732,
      "Ġjson": 5733,
      "Ġ}],": 5734,
      "ĠMA": 5735,
      "RootProvider": 5736,
      "compose": 5737,
      "Ġsigning": 5738,
      "ĠPostsRoute": 5739,
      "Virtualizer": 5740,
      "Fin": 5741,
      "Prefetch": 5742,
      "ĠState": 5743,
      "rotate": 5744,
      "urbopack": 5745,
      "ĠCollapsible": 5746,
      "ĠisPending": 5747,
      "Membership": 5748,
      "CheckIcon": 5749,
      "ĠValue": 5750,
      "CommandItem": 5751,
      "(${": 5752,
      "Matches": 5753,
      "hsl": 5754,
      "ended": 5755,
      "verted": 5756,
      "Leave": 5757,
      "REQU": 5758,
      "Ġtick": 5759,
      "toLocaleString": 5760,
      "ĠNon": 5761,
      "Parser": 5762,
      "Lib": 5763,
      "Ġautomatically": 5764,
      "Ġfollow": 5765,
      "foot": 5766,
      "ĠRSC": 5767,
      "Ġgenerated": 5768,
      "Split": 5769,
      "tw": 5770,
      "ÙĨ": 5771,
      "Ġdiv": 5772,
      "avor": 5773,
      "ĠLu": 5774,
      "Verified": 5775,
      "ĠSee": 5776,
      "Ġspan": 5777,
      "ĠTheme": 5778,
      "ĠuseProps": 5779,
      "ĠerrorMessage": 5780,
      "ITH": 5781,
      "MenubarItem": 5782,
      "Ġcollect": 5783,
      "Ġu": 5784,
      "(([": 5785,
      "Ġ\"[": 5786,
      "otas": 5787,
      "Ġforward": 5788,
      "ĠDelete": 5789,
      "WithoutRef": 5790,
      "Impl": 5791,
      "aterial": 5792,
      "Phone": 5793,
      "orem": 5794,
      "ship": 5795,
      "Safe": 5796,
      "orld": 5797,
      "ceeded": 5798,
      "[]>(": 5799,
      "ĠOR": 5800,
      "DEFAULT": 5801,
      "dirname": 5802,
      "ĠstrokeWidth": 5803,
      "helpers": 5804,
      "VALID": 5805,
      "Merge": 5806,
      "Rules": 5807,
      "Ġprefetch": 5808,
      "upload": 5809,
      "ĠFunction": 5810,
      "umbers": 5811,
      "ĠDev": 5812,
      "Filtered": 5813,
      "elements": 5814,
      "stopPropagation": 5815,
      "ĠOrganisation": 5816,
      "Resource": 5817,
      "Ġdolor": 5818,
      "contacts": 5819,
      "Ġ{}),": 5820,
      "mple": 5821,
      "ĠdataCode": 5822,
      "Deep": 5823,
      "DialogTitle": 5824,
      "webkit": 5825,
      "SSR": 5826,
      "Ġcommission": 5827,
      "Override": 5828,
      "(\",": 5829,
      "getTime": 5830,
      "boBox": 5831,
      "OB": 5832,
      "preact": 5833,
      "init": 5834,
      "TableHead": 5835,
      "Ġactual": 5836,
      "Mounted": 5837,
      "drag": 5838,
      "services": 5839,
      "anguages": 5840,
      "Ġtokens": 5841,
      "SET": 5842,
      "Connector": 5843,
      "WR": 5844,
      "Ġpopover": 5845,
      "CardFooter": 5846,
      "Opened": 5847,
      "Ġ300": 5848,
      "ĠLayoutLayout": 5849,
      "Ġcould": 5850,
      "ĠFind": 5851,
      "ĠAuthed": 5852,
      "SubContent": 5853,
      "NextPage": 5854,
      "dge": 5855,
      "expected": 5856,
      "isPending": 5857,
      "Ġthrough": 5858,
      "DialogHeader": 5859,
      "ðŁĩ": 5860,
      "ĠAPP": 5861,
      "Bulk": 5862,
      "Zod": 5863,
      "AppData": 5864,
      "ĠWeb": 5865,
      "ELD": 5866,
      "ITE": 5867,
      "mal": 5868,
      "apple": 5869,
      "MAX": 5870,
      "ĠPathlessLayoutNestedLayoutRoute": 5871,
      "headerGroup": 5872,
      "Nullable": 5873,
      "ĠNotFound": 5874,
      "copy": 5875,
      "svelte": 5876,
      "ores": 5877,
      "stroke": 5878,
      "FieldValues": 5879,
      "ApiKey": 5880,
      "Logic": 5881,
      "ĠVue": 5882,
      "SIGN": 5883,
      "((_,": 5884,
      "sync": 5885,
      "Ġremoved": 5886,
      "Public": 5887,
      "clsx": 5888,
      "tty": 5889,
      "ashed": 5890,
      "Dim": 5891,
      "Classes": 5892,
      "Ġdifferent": 5893,
      "35": 5894,
      "Hosts": 5895,
      "Ġown": 5896,
      "exec": 5897,
      "ameter": 5898,
      "Ast": 5899,
      "Clipboard": 5900,
      "ones": 5901,
      "Ġ{})": 5902,
      "Ġgo": 5903,
      "Ġ404": 5904,
      "Ġrect": 5905,
      "lice": 5906,
      "Ġseries": 5907,
      "ĠCache": 5908,
      "short": 5909,
      "Commission": 5910,
      "Submission": 5911,
      "ĠfolderId": 5912,
      "mented": 5913,
      "recipe": 5914,
      "Uti": 5915,
      "ĠWEB": 5916,
      "ĠMAX": 5917,
      "Ssr": 5918,
      "180": 5919,
      "pha": 5920,
      "meline": 5921,
      "ĠdefaultValues": 5922,
      "aving": 5923,
      "fixed": 5924,
      "scriber": 5925,
      "lipsis": 5926,
      "Backdrop": 5927,
      "Specifier": 5928,
      "browser": 5929,
      "cp": 5930,
      "Ġrequires": 5931,
      "agin": 5932,
      "Ġforce": 5933,
      "Ġscript": 5934,
      "Modi": 5935,
      "Ġcredentials": 5936,
      "]+": 5937,
      "feature": 5938,
      "ÙĪ": 5939,
      "waited": 5940,
      "Textarea": 5941,
      "Screen": 5942,
      "Download": 5943,
      "Ġauthor": 5944,
      "!</": 5945,
      "ĠOpen": 5946,
      "Ġ>,": 5947,
      "Timezone": 5948,
      "Ġperformance": 5949,
      "Ġ\"ðŁĩ": 5950,
      "98": 5951,
      "ĠdefaultVariants": 5952,
      "details": 5953,
      "olic": 5954,
      "ument": 5955,
      "Ġhow": 5956,
      "ĠDOM": 5957,
      "ĠNEXT": 5958,
      "struct": 5959,
      "curity": 5960,
      "Matcher": 5961,
      "WEBAPP": 5962,
      "olicy": 5963,
      "Main": 5964,
      "Warning": 5965,
      "dn": 5966,
      "fraud": 5967,
      "highlight": 5968,
      "}\",": 5969,
      "dicate": 5970,
      "Ġupload": 5971,
      "Ġabout": 5972,
      "MIN": 5973,
      "danger": 5974,
      "Ġignore": 5975,
      "Ġsince": 5976,
      "signup": 5977,
      "BarChart": 5978,
      "recipients": 5979,
      "TagsInput": 5980,
      "experimental": 5981,
      "OAuthClient": 5982,
      "ticle": 5983,
      "terminate": 5984,
      ">();": 5985,
      "ght": 5986,
      "messages": 5987,
      "yellow": 5988,
      "ority": 5989,
      "asset": 5990,
      "=\"${": 5991,
      "Ġthese": 5992,
      "Ġprocessed": 5993,
      "MultiSelect": 5994,
      "Watchlist": 5995,
      "cc": 5996,
      "fli": 5997,
      "ctype": 5998,
      "aries": 5999,
      "ĠformData": 6000,
      "Than": 6001,
      "Sizes": 6002,
      "avorite": 6003,
      "ural": 6004,
      "Ġpanel": 6005,
      "Ġpaths": 6006,
      "CRET": 6007,
      "Ø¹": 6008,
      "onts": 6009,
      "Ġbatch": 6010,
      "Ġlen": 6011,
      "ĠprogramEnrollment": 6012,
      "ĠsetActive": 6013,
      "placement": 6014,
      "EventTypes": 6015,
      "Ġdirectly": 6016,
      "Press": 6017,
      "ono": 6018,
      "Ġport": 6019,
      "ills": 6020,
      "ube": 6021,
      "columnDef": 6022,
      "Login": 6023,
      "Parsed": 6024,
      "jsxIdentifier": 6025,
      "MIT": 6026,
      "Ø©": 6027,
      "rec": 6028,
      "decoration": 6029,
      "Ġtruncate": 6030,
      "Editing": 6031,
      "SECRET": 6032,
      "Ġoperation": 6033,
      "Catch": 6034,
      "Sig": 6035,
      "FormField": 6036,
      "DialogFooter": 6037,
      "ControlProps": 6038,
      "Ġauthentication": 6039,
      "Quota": 6040,
      "Agent": 6041,
      "65": 6042,
      "air": 6043,
      "determinate": 6044,
      "useEffect": 6045,
      "ĠâĢĵ": 6046,
      "ĠResolved": 6047,
      "SERVER": 6048,
      "skip": 6049,
      "Ġap": 6050,
      "relation": 6051,
      "ĠMutation": 6052,
      "Ġsee": 6053,
      "Ġcontain": 6054,
      "indexOf": 6055,
      "Any": 6056,
      "Preload": 6057,
      "NativeSelectOption": 6058,
      "Invoice": 6059,
      "Angular": 6060,
      "Segments": 6061,
      "Ġneeds": 6062,
      "-\\": 6063,
      "QR": 6064,
      "atest": 6065,
      "RoutesById": 6066,
      "COM": 6067,
      "MR": 6068,
      "comment": 6069,
      "ĠVer": 6070,
      "authorized": 6071,
      "Ġsplit": 6072,
      "ĠDatabase": 6073,
      "ference": 6074,
      "Batch": 6075,
      "Skip": 6076,
      "enchmark": 6077,
      "ĠHttp": 6078,
      "ALE": 6079,
      "yy": 6080,
      "activity": 6081,
      "Ġsecondary": 6082,
      "pageSize": 6083,
      "Ġfetcher": 6084,
      "manage": 6085,
      "routers": 6086,
      "Family": 6087,
      "Go": 6088,
      "vt": 6089,
      "OUND": 6090,
      "Managed": 6091,
      ".',": 6092,
      "IAL": 6093,
      "Ġsent": 6094,
      "ĠSkeleton": 6095,
      "linear": 6096,
      "blur": 6097,
      "']}": 6098,
      "referral": 6099,
      "ĠsideOffset": 6100,
      "aginated": 6101,
      "/':": 6102,
      "lack": 6103,
      "Ġoptional": 6104,
      "arrow": 6105,
      "Ġ150": 6106,
      "Ġdomains": 6107,
      "eventTypeId": 6108,
      "97": 6109,
      "wer": 6110,
      "ĠPer": 6111,
      "vicon": 6112,
      "Ġcleanup": 6113,
      "TQuery": 6114,
      "Ġcause": 6115,
      "important": 6116,
      "Ġsecret": 6117,
      "omet": 6118,
      "portal": 6119,
      "Attendees": 6120,
      "collection": 6121,
      "flict": 6122,
      "Campaign": 6123,
      "Mask": 6124,
      "Popup": 6125,
      "term": 6126,
      "ĠgetServer": 6127,
      "MonthView": 6128,
      "Sorted": 6129,
      "faker": 6130,
      "×ľ": 6131,
      "Ġrandom": 6132,
      "ĠZId": 6133,
      "ĠZDocument": 6134,
      "Payouts": 6135,
      "SION": 6136,
      "ĠKey": 6137,
      "Ġquestion": 6138,
      "={['": 6139,
      "Ġstorage": 6140,
      "ĠstatusCode": 6141,
      "erve": 6142,
      "arque": 6143,
      "Ġsales": 6144,
      "Ġuses": 6145,
      "ĠAll": 6146,
      "ĠSource": 6147,
      "Ġexact": 6148,
      "ĠbookingUid": 6149,
      "ycle": 6150,
      "IF": 6151,
      "breadcrumb": 6152,
      "inherit": 6153,
      "credentials": 6154,
      "arquee": 6155,
      "Pill": 6156,
      "num": 6157,
      "Ġshared": 6158,
      "TestId": 6159,
      "ĠexternalId": 6160,
      "ĠcreateRootRoute": 6161,
      "omething": 6162,
      ">>(": 6163,
      "Recurring": 6164,
      "ĠRegExp": 6165,
      "Ġzod": 6166,
      "DialogDescription": 6167,
      "ĠOver": 6168,
      "ĠArrow": 6169,
      "positories": 6170,
      "Spacing": 6171,
      "ier": 6172,
      "Ġ;": 6173,
      "repository": 6174,
      "Ġtemp": 6175,
      "(`/": 6176,
      "Ġcontinent": 6177,
      "Ġchanged": 6178,
      "Ġoperator": 6179,
      "ĠCellData": 6180,
      "Ġuppercase": 6181,
      "Duplicate": 6182,
      "sans": 6183,
      "ingElement": 6184,
      "Ġstyling": 6185,
      "cture": 6186,
      "ĠTSelected": 6187,
      "Ġloaded": 6188,
      "07": 6189,
      "Ġsans": 6190,
      "ĠFetch": 6191,
      "tled": 6192,
      "Ġupdates": 6193,
      "ĠhandleSubmit": 6194,
      "scheme": 6195,
      "sizable": 6196,
      "Uri": 6197,
      "database": 6198,
      "StringValue": 6199,
      "ĠChakra": 6200,
      "ĠAccess": 6201,
      "Ġdemos": 6202,
      "FA": 6203,
      "NER": 6204,
      "utable": 6205,
      "Ġneeded": 6206,
      "rolled": 6207,
      "ĠdefaultProps": 6208,
      "ĠwithContext": 6209,
      "private": 6210,
      "MBER": 6211,
      "CLIENT": 6212,
      "Utils": 6213,
      ".`": 6214,
      "feedback": 6215,
      "oices": 6216,
      "Ġok": 6217,
      "Connected": 6218,
      "ducer": 6219,
      "38": 6220,
      "Google": 6221,
      "twitter": 6222,
      "notifications": 6223,
      "normalized": 6224,
      "Vertical": 6225,
      "TIME": 6226,
      "Connection": 6227,
      "Ġheading": 6228,
      "ComponentPropsWithoutRef": 6229,
      "Ġsubject": 6230,
      "NotFoundError": 6231,
      "Ġoccur": 6232,
      "Hydration": 6233,
      "ĠWorkspace": 6234,
      "Authentication": 6235,
      "ĠfilePath": 6236,
      "achine": 6237,
      "AttributeKey": 6238,
      "It": 6239,
      "OW": 6240,
      "uture": 6241,
      "enders": 6242,
      "ĠBack": 6243,
      "ĠBuild": 6244,
      "AppShell": 6245,
      "Ġsubmission": 6246,
      "ContextMenuPrimitive": 6247,
      "material": 6248,
      "rove": 6249,
      "veri": 6250,
      "setShow": 6251,
      "Ġaspect": 6252,
      "Descript": 6253,
      "doctype": 6254,
      "TYPES": 6255,
      "GR": 6256,
      "Ġfraud": 6257,
      "Ġter": 6258,
      "Ġ`,": 6259,
      "Ġexpanded": 6260,
      "ĠUint": 6261,
      "DateRange": 6262,
      "logs": 6263,
      "Leaf": 6264,
      "WorkspaceId": 6265,
      "sistent": 6266,
      "Sale": 6267,
      "TriggerProps": 6268,
      "minder": 6269,
      "valu": 6270,
      "wardedRef": 6271,
      "Ġplacement": 6272,
      "Controlled": 6273,
      "carousel": 6274,
      "ĠCardContent": 6275,
      "ĠsurveyId": 6276,
      "Ġsizes": 6277,
      "Ġwrapper": 6278,
      "Ġhapp": 6279,
      "ĠResource": 6280,
      "ĠonRemove": 6281,
      "('../": 6282,
      "ritten": 6283,
      "legationCredential": 6284,
      "27": 6285,
      "Lazy": 6286,
      "ĠClose": 6287,
      "RouterDevtools": 6288,
      "Ready": 6289,
      "TOKENS": 6290,
      "Restoration": 6291,
      "Ġportal": 6292,
      "Ġsave": 6293,
      "ĠSolid": 6294,
      "ContextValue": 6295,
      "NumberField": 6296,
      "COL": 6297,
      "aniti": 6298,
      "ume": 6299,
      "results": 6300,
      "Metrics": 6301,
      "aret": 6302,
      "Preset": 6303,
      "Parts": 6304,
      "uggest": 6305,
      "Ġ]),": 6306,
      "pg": 6307,
      "Ġ===================================": 6308,
      "shift": 6309,
      "ĠautoFocus": 6310,
      "Ġvisits": 6311,
      "Ġtoday": 6312,
      "Ġvideo": 6313,
      "ĠclientId": 6314,
      "ĠmarginBottom": 6315,
      "tocol": 6316,
      "roved": 6317,
      "ĠAb": 6318,
      "Ġdeclaration": 6319,
      "([\"": 6320,
      "HTMLInputElement": 6321,
      "}/${": 6322,
      "Ġ%": 6323,
      "getElement": 6324,
      "Ġaccept": 6325,
      "routeTree": 6326,
      "Ġcommissions": 6327,
      "customers": 6328,
      "Extension": 6329,
      "Ġsupported": 6330,
      "atomy": 6331,
      "VENT": 6332,
      "ensitive": 6333,
      "story": 6334,
      "Ġsystem": 6335,
      "Ġ/>}>": 6336,
      "ĠuseQuery": 6337,
      "Ġsubmit": 6338,
      "ĠCl": 6339,
      "production": 6340,
      "veloper": 6341,
      "TimeSlot": 6342,
      "Ġblocks": 6343,
      "Cap": 6344,
      "Known": 6345,
      "TRI": 6346,
      "FIX": 6347,
      "pal": 6348,
      "repositories": 6349,
      "Ġdom": 6350,
      "getAll": 6351,
      "ColumnHelper": 6352,
      "]/(": 6353,
      ".${": 6354,
      "Tra": 6355,
      "len": 6356,
      "tax": 6357,
      "resize": 6358,
      "Ġ`@": 6359,
      ")))": 6360,
      "Ring": 6361,
      "pkg": 6362,
      "Vue": 6363,
      "square": 6364,
      "Configured": 6365,
      "startTime": 6366,
      ")'": 6367,
      ">):": 6368,
      "Include": 6369,
      "Advanced": 6370,
      "classic": 6371,
      "Ġnodes": 6372,
      "MAP": 6373,
      "Ġcampaign": 6374,
      "Stage": 6375,
      "ĠPortal": 6376,
      "ĠMiddleware": 6377,
      "ĠcolumnId": 6378,
      "leting": 6379,
      "Renderer": 6380,
      "vaul": 6381,
      "submitted": 6382,
      "justify": 6383,
      "ĠPrimitive": 6384,
      "Signer": 6385,
      "getElementById": 6386,
      "Hub": 6387,
      "URI": 6388,
      "onSubmit": 6389,
      "lied": 6390,
      "Ġbuffer": 6391,
      "Invoices": 6392,
      "ceed": 6393,
      "ComboboxItem": 6394,
      "favicon": 6395,
      "antity": 6396,
      "150": 6397,
      "Faceted": 6398,
      "prerender": 6399,
      "ĠERROR": 6400,
      "Ġbooker": 6401,
      "nodes": 6402,
      "vitejs": 6403,
      "sonner": 6404,
      "GLE": 6405,
      "gh": 6406,
      "tfoot": 6407,
      "adar": 6408,
      "Ġvite": 6409,
      "formState": 6410,
      "filename": 6411,
      "REQUEST": 6412,
      "about": 6413,
      ")).": 6414,
      "aily": 6415,
      "TableInstance": 6416,
      "cards": 6417,
      "trie": 6418,
      "ITION": 6419,
      "ĠpostId": 6420,
      "ToggleGroupItem": 6421,
      "ĠTSurveyElementTypeEnum": 6422,
      "ffff": 6423,
      "licated": 6424,
      ")</": 6425,
      "ander": 6426,
      "aces": 6427,
      "oll": 6428,
      "()).": 6429,
      "Ġcharacters": 6430,
      "Cells": 6431,
      "Ġdepth": 6432,
      "metry": 6433,
      "Ġscreen": 6434,
      "Formatted": 6435,
      "FOUND": 6436,
      "Hydrate": 6437,
      "dating": 6438,
      "setOpen": 6439,
      "ĠSSR": 6440,
      "ContentProps": 6441,
      "fieldset": 6442,
      "Ġconfigured": 6443,
      "ĠorganisationId": 6444,
      "Ġflat": 6445,
      "82": 6446,
      ">((": 6447,
      "ĠIndexRouteImport": 6448,
      "Ġ\"\")": 6449,
      "Ġ).": 6450,
      "ĠisOpen": 6451,
      "ĠeventId": 6452,
      "ComboBox": 6453,
      "reshold": 6454,
      "bounce": 6455,
      "\"},": 6456,
      "ĠCalendarEvent": 6457,
      "ĠDefaultError": 6458,
      "ĠDataTable": 6459,
      "Ġpresent": 6460,
      "âĮ": 6461,
      "lemetry": 6462,
      "commissions": 6463,
      "aved": 6464,
      "removeEventListener": 6465,
      "ApiPropertyOptional": 6466,
      "CAL": 6467,
      "UI": 6468,
      "×¨": 6469,
      "encode": 6470,
      "adRequest": 6471,
      "thing": 6472,
      "Ġ`<": 6473,
      "Ġidentity": 6474,
      "iff": 6475,
      "FormValues": 6476,
      "ĠToken": 6477,
      "addFileChildren": 6478,
      "verification": 6479,
      "History": 6480,
      "Secondary": 6481,
      "via": 6482,
      "('\\": 6483,
      "ĠcreateElement": 6484,
      "DialogOpen": 6485,
      "handleSubmit": 6486,
      "variables": 6487,
      "Http": 6488,
      "Banner": 6489,
      "Core": 6490,
      "FE": 6491,
      "Fill": 6492,
      "Ġsit": 6493,
      "Styling": 6494,
      "Conversion": 6495,
      "pipe": 6496,
      "Ġbehavior": 6497,
      "operator": 6498,
      "kipping": 6499,
      "floating": 6500,
      "return": 6501,
      "Ġinherit": 6502,
      "ĠisMobile": 6503,
      "GroupProps": 6504,
      "Resolve": 6505,
      "sumer": 6506,
      "invoices": 6507,
      "Ġduplicate": 6508,
      "ItemId": 6509,
      "Ġleast": 6510,
      "Listbox": 6511,
      "ĠRaw": 6512,
      "sizing": 6513,
      "Ġviewport": 6514,
      ">>,": 6515,
      "Sm": 6516,
      "guide": 6517,
      "oned": 6518,
      "reschedule": 6519,
      "escape": 6520,
      "StatusBadge": 6521,
      "Ġbelow": 6522,
      "bility": 6523,
      "ĠPlugin": 6524,
      "ĠonKeyDown": 6525,
      "Ġencode": 6526,
      "Learn": 6527,
      "ĠColorPicker": 6528,
      "Ġmanifest": 6529,
      "FloatingPanel": 6530,
      "JE": 6531,
      "alic": 6532,
      "Ġimmediate": 6533,
      "ish": 6534,
      "CTION": 6535,
      "Ġclo": 6536,
      "advanced": 6537,
      "appings": 6538,
      "ListItem": 6539,
      "ĠWork": 6540,
      "Assign": 6541,
      "ArrowLeft": 6542,
      "Ġchunks": 6543,
      "OOKING": 6544,
      "EW": 6545,
      "cat": 6546,
      "speci": 6547,
      "social": 6548,
      "Ġ(${": 6549,
      "useLoaderData": 6550,
      "cimal": 6551,
      "providers": 6552,
      "schedules": 6553,
      "ĠstartDate": 6554,
      "ultipart": 6555,
      "Ġverification": 6556,
      "Social": 6557,
      "middle": 6558,
      "Ġremaining": 6559,
      "Scale": 6560,
      "Ġrequests": 6561,
      "Ġoutside": 6562,
      "Hmr": 6563,
      "Lines": 6564,
      "}):": 6565,
      "Ġrecei": 6566,
      "ĠMan": 6567,
      "named": 6568,
      "Ġrendering": 6569,
      "complicated": 6570,
      "relationship": 6571,
      "TS": 6572,
      "btn": 6573,
      "pdf": 6574,
      "ĠuseDisclosure": 6575,
      "ĠCredential": 6576,
      "lated": 6577,
      "validator": 6578,
      "Shadow": 6579,
      "Discount": 6580,
      "Scrollbar": 6581,
      "ĠcredentialId": 6582,
      "Ġedge": 6583,
      "uments": 6584,
      "Ġhsl": 6585,
      "mob": 6586,
      "Ġadmin": 6587,
      "ĠShow": 6588,
      "ĠuseSWR": 6589,
      "Ġlegacy": 6590,
      "olate": 6591,
      "bout": 6592,
      "ĠMonth": 6593,
      "ABC": 6594,
      "ĠlocalSurvey": 6595,
      "rgba": 6596,
      "Ġpeer": 6597,
      "%\",": 6598,
      "Cursor": 6599,
      "HOOK": 6600,
      "Ø¯": 6601,
      "Ġsymbol": 6602,
      "Ġhighlight": 6603,
      "outlined": 6604,
      "ics": 6605,
      "ĠupdatedAt": 6606,
      "></": 6607,
      "Book": 6608,
      "Mapping": 6609,
      "mory": 6610,
      "Ġcategories": 6611,
      "Optimiz": 6612,
      "ferrer": 6613,
      "submission": 6614,
      "ĠRange": 6615,
      "ĠperPage": 6616,
      "LOG": 6617,
      "Flag": 6618,
      "cremental": 6619,
      "Ġattrs": 6620,
      "ColorSwatch": 6621,
      "ActionClient": 6622,
      "ĠendDate": 6623,
      "ĠâĨ": 6624,
      "cyan": 6625,
      "ï¼": 6626,
      "idle": 6627,
      "ĠCopy": 6628,
      "ĠsetData": 6629,
      "Ġteams": 6630,
      "Submitted": 6631,
      "ĠButtonGroup": 6632,
      "discount": 6633,
      "CONFI": 6634,
      "coder": 6635,
      "dio": 6636,
      "ĠTFrom": 6637,
      "IconButton": 6638,
      "Ġcompleted": 6639,
      "localSurvey": 6640,
      "Minutes": 6641,
      "ĠPreview": 6642,
      "TQueryFnData": 6643,
      "56": 6644,
      "xios": 6645,
      "second": 6646,
      "Ġconnection": 6647,
      "uffle": 6648,
      "Ġarrow": 6649,
      "Space": 6650,
      "TAG": 6651,
      "%',": 6652,
      "LIN": 6653,
      "Ġconnected": 6654,
      "yntax": 6655,
      "RouterState": 6656,
      "ĠReadableStream": 6657,
      "Ġsuccessfully": 6658,
      "ĠSkip": 6659,
      "FileSync": 6660,
      "ĠSettings": 6661,
      "EmptyState": 6662,
      "Exports": 6663,
      "Busy": 6664,
      "FILE": 6665,
      "pb": 6666,
      "onboarding": 6667,
      "Fixed": 6668,
      "sera": 6669,
      "FileUpload": 6670,
      "vars": 6671,
      "Ġcookie": 6672,
      "Ġfilename": 6673,
      "ĠuseStyles": 6674,
      "oreferrer": 6675,
      "timestamp": 6676,
      "opened": 6677,
      "Scripts": 6678,
      "Ġ===================================================================": 6679,
      "require": 6680,
      "article": 6681,
      "Ġ(...": 6682,
      "Ġconse": 6683,
      "aypal": 6684,
      "Ġfixed": 6685,
      "ĠsetShowModal": 6686,
      "950": 6687,
      "]),": 6688,
      "sql": 6689,
      "...</": 6690,
      "ither": 6691,
      "agraph": 6692,
      "Changed": 6693,
      "Ġjob": 6694,
      "SetStateAction": 6695,
      "AS": 6696,
      "}-${": 6697,
      "ĠuseIs": 6698,
      "DataSchema": 6699,
      "Ġsidebar": 6700,
      "Ġlicense": 6701,
      "useCallback": 6702,
      "Ġ11": 6703,
      "Ġdel": 6704,
      "Meeting": 6705,
      "Viewer": 6706,
      "ContextMenuItem": 6707,
      "Ġlistener": 6708,
      "=\"/\"": 6709,
      "ĠrightSection": 6710,
      "Ġconditions": 6711,
      "Descriptor": 6712,
      "mutate": 6713,
      "toolbar": 6714,
      "Ġexplicit": 6715,
      "ĠToggleGroup": 6716,
      "mobile": 6717,
      "enant": 6718,
      "isValid": 6719,
      "Ġ))": 6720,
      "ĠSend": 6721,
      "programEnrollment": 6722,
      "Ġopened": 6723,
      "invalidate": 6724,
      "ABLED": 6725,
      "flo": 6726,
      "ply": 6727,
      "apters": 6728,
      "trin": 6729,
      "Resizing": 6730,
      "ohn": 6731,
      "Uint": 6732,
      "ĠĠĠĠĠĠĠĠĠĠĠĠĠĠĠĠĠĠĠĠĠĠĠĠĠĠĠĠĠĠĠĠĠĠĠĠĠĠĠ": 6733,
      "tight": 6734,
      "Ġ/^": 6735,
      "Ġhand": 6736,
      "FieldType": 6737,
      "illa": 6738,
      "ĠTRPCError": 6739,
      "âĮĺ": 6740,
      "identity": 6741,
      "Ġbook": 6742,
      "Ġnames": 6743,
      "DialogPrimitive": 6744,
      "ĠqueryFn": 6745,
      "controller": 6746,
      "RenderProps": 6747,
      "Ġcapitalize": 6748,
      "ĠNonNullable": 6749,
      "trinsic": 6750,
      "Watch": 6751,
      "lue": 6752,
      "uni": 6753,
      "()),": 6754,
      "leanup": 6755,
      "ĠjustifyContent": 6756,
      "ĠMetadata": 6757,
      ".,": 6758,
      "84": 6759,
      "Edge": 6760,
      "Normal": 6761,
      "TR": 6762,
      "blog": 6763,
      "ĠuseId": 6764,
      "serv": 6765,
      "Ġconfiguration": 6766,
      "ĠFormData": 6767,
      "UnitStore": 6768,
      "ĠHoverCard": 6769,
      "ypography": 6770,
      "ĠNestedABC": 6771,
      "Symbol": 6772,
      "branding": 6773,
      "Ġinformation": 6774,
      "ToDelete": 6775,
      "ĠZod": 6776,
      "DocsProperty": 6777,
      "Ġdispatch": 6778,
      "ica": 6779,
      "Ġ'./_": 6780,
      "psum": 6781,
      "scheduling": 6782,
      "part": 6783,
      "aced": 6784,
      "upon": 6785,
      "Ġdependency": 6786,
      "directory": 6787,
      "ĠwaitUntil": 6788,
      "assicHello": 6789,
      "ighlighter": 6790,
      "Age": 6791,
      "Pipe": 6792,
      "Svelte": 6793,
      "Ġrem": 6794,
      "DataTable": 6795,
      "Ġdecode": 6796,
      "Ġrate": 6797,
      "Ġchannel": 6798,
      "words": 6799,
      "Ġmodifier": 6800,
      "gner": 6801,
      "Ġ\"&": 6802,
      "ĠMDX": 6803,
      "indings": 6804,
      "CodeBlock": 6805,
      "Candidate": 6806,
      "frames": 6807,
      "ĠlineHeight": 6808,
      ">`": 6809,
      "bined": 6810,
      "ĠisDisabled": 6811,
      "ĠNav": 6812,
      "OrganizationId": 6813,
      "Ġattendees": 6814,
      "eria": 6815,
      "Models": 6816,
      "ĠsubRows": 6817,
      "Ġstop": 6818,
      "ĠBooker": 6819,
      "ĠBuffer": 6820,
      "queryClient": 6821,
      "signature": 6822,
      "ĠbaseURL": 6823,
      "matches": 6824,
      "pass": 6825,
      "Stuff": 6826,
      "ĠuseParams": 6827,
      "agn": 6828,
      "Proxy": 6829,
      "packageJson": 6830,
      "amet": 6831,
      "spinner": 6832,
      "querySelector": 6833,
      "timeZone": 6834,
      "FIELD": 6835,
      "LIMIT": 6836,
      "HomePage": 6837,
      "]=\"": 6838,
      "ĠContainer": 6839,
      "Ġ\"\"}": 6840,
      "ĠgetUser": 6841,
      "ĠInvalid": 6842,
      "within": 6843,
      "Marker": 6844,
      "focused": 6845,
      "Ġamet": 6846,
      "Overflow": 6847,
      "ĠClassicHello": 6848,
      "/__": 6849,
      "39": 6850,
      "ux": 6851,
      "ĠSegment": 6852,
      "Ġco": 6853,
      "aper": 6854,
      "Ġlock": 6855,
      "startOf": 6856,
      "Imports": 6857,
      "Ġlogin": 6858,
      "ĠprojectId": 6859,
      "Dots": 6860,
      "COUNT": 6861,
      "attendees": 6862,
      "Ġtailwind": 6863,
      "()],": 6864,
      "ĠrootRoute": 6865,
      "Tasker": 6866,
      "SL": 6867,
      "Td": 6868,
      "multi": 6869,
      "Timeline": 6870,
      "Ġattemp": 6871,
      "ĠSidebarGroup": 6872,
      "ĠCardHeader": 6873,
      "DATE": 6874,
      "ĠJS": 6875,
      "lis": 6876,
      "CustomerId": 6877,
      "Ġbadge": 6878,
      "Ġaxios": 6879,
      "ĠuseTable": 6880,
      "Ġlens": 6881,
      "Ġthumb": 6882,
      "Ġtransformed": 6883,
      "Intent": 6884,
      "Ġtri": 6885,
      "Ġstored": 6886,
      "terable": 6887,
      "Seconds": 6888,
      "ĠwithWorkspace": 6889,
      "Ġenum": 6890,
      "fullPath": 6891,
      "Anatomy": 6892,
      "ective": 6893,
      "ĠComboboxPrimitive": 6894,
      "Ġprojects": 6895,
      "Ġwebsite": 6896,
      "tachment": 6897,
      "HEADER": 6898,
      "sales": 6899,
      "Ø¨": 6900,
      "Ġperson": 6901,
      "Ġreload": 6902,
      "abort": 6903,
      "useLocale": 6904,
      "Ġrules": 6905,
      "availability": 6906,
      "CheckedChange": 6907,
      "Dot": 6908,
      "Middlewares": 6909,
      "PRI": 6910,
      "tap": 6911,
      "Ġdashboard": 6912,
      "MenuPrimitive": 6913,
      "inputs": 6914,
      "ClientId": 6915,
      "ĠpageSize": 6916,
      "Ġutilities": 6917,
      "inue": 6918,
      "tice": 6919,
      "interval": 6920,
      "webpack": 6921,
      "\")}>": 6922,
      "headless": 6923,
      "ĠCreates": 6924,
      "Ġmanage": 6925,
      "Browser": 6926,
      "Builder": 6927,
      "IM": 6928,
      "business": 6929,
      "repeat": 6930,
      "Ġint": 6931,
      "ĠCollection": 6932,
      "resource": 6933,
      "roller": 6934,
      "ildcard": 6935,
      "ĠcreateId": 6936,
      "Ġhex": 6937,
      "Changes": 6938,
      "Ġcomputed": 6939,
      ")`,": 6940,
      ":</": 6941,
      "aN": 6942,
      "Ġcookies": 6943,
      "Ġstale": 6944,
      "ialization": 6945,
      "ĠcreateRoute": 6946,
      "Ġrtl": 6947,
      "latest": 6948,
      "Ġmembers": 6949,
      "BRoute": 6950,
      "Flow": 6951,
      "dout": 6952,
      "rab": 6953,
      "mooth": 6954,
      "ATCH": 6955,
      "TreeView": 6956,
      "ArrowUp": 6957,
      "ĠApiUsers": 6958,
      "ĠNextApiRequest": 6959,
      "\\${": 6960,
      "×ª": 6961,
      "Ġtanstack": 6962,
      "Ġnative": 6963,
      "ĠuseCombobox": 6964,
      "legend": 6965,
      "Sizing": 6966,
      "Visit": 6967,
      "pref": 6968,
      "vg": 6969,
      "ĠFlexRender": 6970,
      "ases": 6971,
      "Ġparameters": 6972,
      "Arch": 6973,
      "Ġmodules": 6974,
      "HTMLAttributes": 6975,
      "Ġmeeting": 6976,
      "ĠParse": 6977,
      "7280": 6978,
      "pecial": 6979,
      "Ġissues": 6980,
      "Requirements": 6981,
      ")`": 6982,
      "[]);": 6983,
      "Ġcurrently": 6984,
      "Ġlogic": 6985,
      "ĠmarginTop": 6986,
      "Ġendpoint": 6987,
      "mpt": 6988,
      "unt": 6989,
      "-[>[": 6990,
      "Ġoff": 6991,
      "ENC": 6992,
      "ĠChange": 6993,
      "Ġformatted": 6994,
      "Ġmatching": 6995,
      "Ġflag": 6996,
      "âĶĢâĶĢâĶĢâĶĢâĶĢâĶĢâĶĢâĶĢ": 6997,
      "Simple": 6998,
      "teger": 6999,
      "unstable": 7000,
      "sia": 7001,
      "useMemo": 7002,
      "ĠuseToast": 7003,
      "ProviderProps": 7004,
      "ModalOpen": 7005,
      "SignatureEnabled": 7006,
      "Site": 7007,
      "ĠDO": 7008,
      "scripts": 7009,
      "ICE": 7010,
      "Ġmotion": 7011,
      "mounted": 7012,
      "Ġclone": 7013,
      "Ġhelp": 7014,
      "ighlighted": 7015,
      "bidden": 7016,
      "ĠRo": 7017,
      "Ġ(()": 7018,
      "ands": 7019,
      "Contacts": 7020,
      "Ġunit": 7021,
      "jectable": 7022,
      "Ġpreset": 7023,
      "AlertDescription": 7024,
      "Relative": 7025,
      "xx": 7026,
      "Ġsite": 7027,
      "Ġ80": 7028,
      "esk": 7029,
      "Ġproxy": 7030,
      "ĠHTTP": 7031,
      "phone": 7032,
      "canvas": 7033,
      "(!": 7034,
      "MN": 7035,
      "jpg": 7036,
      "osed": 7037,
      "×ŀ": 7038,
      "Ġprerender": 7039,
      "LECT": 7040,
      "contains": 7041,
      "Office": 7042,
      "Ġobj": 7043,
      "TERNAL": 7044,
      "ĠExtract": 7045,
      "Slash": 7046,
      "Ġmx": 7047,
      "ĠlinkId": 7048,
      "OOGLE": 7049,
      "So": 7050,
      "Ġbranding": 7051,
      "Into": 7052,
      "sponsive": 7053,
      "ActionService": 7054,
      "ĠDialogContent": 7055,
      "BreadcrumbItem": 7056,
      "94": 7057,
      "ARoute": 7058,
      "ĠoAuth": 7059,
      "Ġcwd": 7060,
      "Ġipsum": 7061,
      "Ġmessages": 7062,
      "Ġappend": 7063,
      "Ark": 7064,
      "HTMLButtonElement": 7065,
      "Ġtabs": 7066,
      "Hovered": 7067,
      "Ġimported": 7068,
      "71": 7069,
      "Ġ}[]": 7070,
      "Ġ('": 7071,
      "Ġredis": 7072,
      "rome": 7073,
      "etter": 7074,
      "Ġdestination": 7075,
      "Listeners": 7076,
      "AppKeys": 7077,
      "Webhooks": 7078,
      "UTF": 7079,
      "Ġmodified": 7080,
      "ĠauditLog": 7081,
      "TFieldValues": 7082,
      "scape": 7083,
      "ĠSymbol": 7084,
      "served": 7085,
      "Ġlabels": 7086,
      "Ġdisplayed": 7087,
      "AsChild": 7088,
      "PATH": 7089,
      "Ġ700": 7090,
      "organizer": 7091,
      "observer": 7092,
      "Partial": 7093,
      "Ġcomment": 7094,
      "Stepper": 7095,
      "ructure": 7096,
      "exists": 7097,
      "ĠDisclosure": 7098,
      "CSSProperties": 7099,
      "Rating": 7100,
      "Wrap": 7101,
      "Dep": 7102,
      "DropdownMenuPrimitive": 7103,
      "ĠRootComponent": 7104,
      "VERSION": 7105,
      "generated": 7106,
      "Ġoccurred": 7107,
      "ASS": 7108,
      "^^": 7109,
      "save": 7110,
      "Ġ}]": 7111,
      "ĠFrame": 7112,
      "membership": 7113,
      "Ġeven": 7114,
      "ĠonCheckedChange": 7115,
      "serve": 7116,
      "Share": 7117,
      "Detail": 7118,
      "VITE": 7119,
      "Closed": 7120,
      "Ġcreating": 7121,
      "PLE": 7122,
      "Snapshot": 7123,
      "ĠHeading": 7124,
      "deprecated": 7125,
      "States": 7126,
      "ĠZCreate": 7127,
      "ention": 7128,
      "TabsTrigger": 7129,
      "SideProps": 7130,
      "CTED": 7131,
      "Rank": 7132,
      "ock": 7133,
      "arly": 7134,
      "Ġ120": 7135,
      "ItemContent": 7136,
      "Ġ1024": 7137,
      "Promises": 7138,
      "Ġfinally": 7139,
      "Tracking": 7140,
      "timize": 7141,
      "FORM": 7142,
      "auditLog": 7143,
      "Ttc": 7144,
      "ĠLoader": 7145,
      "stra": 7146,
      "Ġ*:[": 7147,
      "Ġself": 7148,
      "ĠNativeSelect": 7149,
      "AppDir": 7150,
      "NumberInput": 7151,
      "ĠuseRouterStuff": 7152,
      "ĠvarsResolver": 7153,
      "NaN": 7154,
      "uz": 7155,
      "rich": 7156,
      "defaultValue": 7157,
      "tables": 7158,
      "ights": 7159,
      "ĠTrack": 7160,
      "Other": 7161,
      "Ġhandlers": 7162,
      "Ġlater": 7163,
      "ĠappConfig": 7164,
      "Stringify": 7165,
      "Help": 7166,
      "Ġsorting": 7167,
      "KeyboardEvent": 7168,
      "modifiers": 7169,
      "78": 7170,
      "Tailwind": 7171,
      "Ùĥ": 7172,
      "aring": 7173,
      "aml": 7174,
      "SelectValue": 7175,
      "Loaded": 7176,
      "ĠGo": 7177,
      "ĠlogAnd": 7178,
      "ĠDateTime": 7179,
      ">{\"": 7180,
      "Ġcommon": 7181,
      "Resizable": 7182,
      "PREFIX": 7183,
      "\"])": 7184,
      "Draft": 7185,
      "RA": 7186,
      "WITH": 7187,
      "oci": 7188,
      "Ġ`/${": 7189,
      "errorMessage": 7190,
      "Authorization": 7191,
      "TooltipTrigger": 7192,
      "without": 7193,
      "ĠURLSearchParams": 7194,
      "Ġworker": 7195,
      "ĠLogin": 7196,
      "Ġ'ðŁį": 7197,
      "Attrs": 7198,
      "network": 7199,
      "period": 7200,
      "shell": 7201,
      "tail": 7202,
      "ĠTUser": 7203,
      "ĠgetRouter": 7204,
      "ĠcreateSignal": 7205,
      "ĠBlock": 7206,
      "ATURE": 7207,
      "ĠZGet": 7208,
      "ĠfilterValue": 7209,
      "NoShow": 7210,
      "ĠPrismaClient": 7211,
      "ACHE": 7212,
      "Ġmerged": 7213,
      "%\"": 7214,
      "bin": 7215,
      "Ġmulti": 7216,
      "RouteRoute": 7217,
      "ĠMulti": 7218,
      "OptionIndex": 7219,
      "eventTypes": 7220,
      "INVALID": 7221,
      "Ġbackdrop": 7222,
      "Ġmemo": 7223,
      "cellation": 7224,
      "Scheduled": 7225,
      "ĠScope": 7226,
      "stores": 7227,
      "Ġqueries": 7228,
      "ĠlibraryValue": 7229,
      "getByTestId": 7230,
      "ĠforwardAsChild": 7231,
      "+/": 7232,
      "Dto": 7233,
      "()`": 7234,
      "useMutation": 7235,
      "isMobile": 7236,
      "oreground": 7237,
      "ware": 7238,
      "Ġdid": 7239,
      "Private": 7240,
      "SSION": 7241,
      "Ġcheckbox": 7242,
      "ieChart": 7243,
      "Conditions": 7244,
      "ĠEnvelopeType": 7245,
      "expires": 7246,
      "floor": 7247,
      "Ùģ": 7248,
      "styling": 7249,
      "Ġ'__": 7250,
      "channel": 7251,
      "ĠMdx": 7252,
      "Trace": 7253,
      "Ġ340": 7254,
      "ServerPort": 7255,
      "AUD": 7256,
      "Ġexports": 7257,
      "One": 7258,
      "ä½": 7259,
      "declaration": 7260,
      "Ġ'\\": 7261,
      "ĠonFocus": 7262,
      "istic": 7263,
      "Ġ._": 7264,
      "ĠGoogle": 7265,
      "ĠFieldType": 7266,
      "ĠCardTitle": 7267,
      "Mutate": 7268,
      "]>": 7269,
      "Ġgrouped": 7270,
      "QueryResult": 7271,
      "IsOpen": 7272,
      "RED": 7273,
      "ously": 7274,
      "Enrollments": 7275,
      "MediaQuery": 7276,
      "Messages": 7277,
      "ĠHeaders": 7278,
      "Ġstrip": 7279,
      "Ġ`[": 7280,
      "Depth": 7281,
      "AppCard": 7282,
      "Ġyet": 7283,
      "Ġnotifications": 7284,
      "ĠshowToast": 7285,
      "avatars": 7286,
      "WhereInput": 7287,
      "Ġverified": 7288,
      "esktop": 7289,
      "(.": 7290,
      "FC": 7291,
      "csv": 7292,
      "ump": 7293,
      "Ġcollection": 7294,
      "Ġ\"\");": 7295,
      "ĠTFunction": 7296,
      "orepo": 7297,
      "2025": 7298,
      "ĠZSurvey": 7299,
      "ĠdocumentId": 7300,
      "PartnerId": 7301,
      "referred": 7302,
      "variance": 7303,
      "Flight": 7304,
      "Repo": 7305,
      "console": 7306,
      "ĠFlight": 7307,
      "ĠMark": 7308,
      "cessary": 7309,
      "IndexComponent": 7310,
      "Onboarding": 7311,
      "ORS": 7312,
      "76": 7313,
      "Ġutm": 7314,
      "reverse": 7315,
      "aph": 7316,
      "Intrinsic": 7317,
      "Ġ}):": 7318,
      "Ġfunctions": 7319,
      "ĠNormal": 7320,
      "ARD": 7321,
      "AccountId": 7322,
      "Clause": 7323,
      "ĠNestedABCDEF": 7324,
      "numeric": 7325,
      "Ġfoo": 7326,
      "urls": 7327,
      "moz": 7328,
      "RouteContext": 7329,
      "ContextProvider": 7330,
      "Ġcompare": 7331,
      "authority": 7332,
      "Cloud": 7333,
      "versal": 7334,
      "cmd": 7335,
      "deleted": 7336,
      "Ġ\"~/": 7337,
      "urn": 7338,
      "ĠuseSession": 7339,
      "ĠReset": 7340,
      "aller": 7341,
      "graph": 7342,
      "Ġanalytics": 7343,
      "Undefined": 7344,
      "Ġformatter": 7345,
      "corative": 7346,
      "hostname": 7347,
      "ĠPostsPostIdRoute": 7348,
      "ĠDatabaseError": 7349,
      "(',": 7350,
      "goto": 7351,
      "iling": 7352,
      "ĠtextAlign": 7353,
      "enterprise": 7354,
      "MAR": 7355,
      "markdown": 7356,
      "safeParse": 7357,
      "IntrinsicElements": 7358,
      "GER": 7359,
      "release": 7360,
      "etched": 7361,
      "folders": 7362,
      "externalId": 7363,
      "ĠResourceNotFoundError": 7364,
      "CONFIG": 7365,
      "LY": 7366,
      "rot": 7367,
      "Ġ[--": 7368,
      "LinkProps": 7369,
      "timeout": 7370,
      "Ġminutes": 7371,
      "bookingUid": 7372,
      "ĠInputOTP": 7373,
      "(/^": 7374,
      "Library": 7375,
      "Cart": 7376,
      "ltr": 7377,
      "mui": 7378,
      "instant": 7379,
      "ison": 7380,
      "Ġinsert": 7381,
      "ĠuseSearchParams": 7382,
      "TableBody": 7383,
      "Ġpreload": 7384,
      "merica": 7385,
      "Ġetc": 7386,
      "VIEW": 7387,
      "headlessui": 7388,
      "mask": 7389,
      "ĠLoading": 7390,
      "ĠĠĠĠĠĠĠĠĠĠĠĠĠĠĠĠ": 7391,
      "stro": 7392,
      "sticky": 7393,
      "useRef": 7394,
      "Contrast": 7395,
      "trace": 7396,
      "Ġ'@/": 7397,
      "obj": 7398,
      "Opacity": 7399,
      "ColorScheme": 7400,
      "Ġdefinition": 7401,
      "cade": 7402,
      "ĠCardDescription": 7403,
      "ĠbuttonVariants": 7404,
      "ĠcustomerId": 7405,
      "issues": 7406,
      "termine": 7407,
      "Cookies": 7408,
      "IZ": 7409,
      "Please": 7410,
      "failed": 7411,
      "ĠDesc": 7412,
      "Ġparameter": 7413,
      "ĠDateStringValue": 7414,
      "ToggleButton": 7415,
      "writes": 7416,
      "CatchBoundary": 7417,
      "aginatedRowModel": 7418,
      "'];": 7419,
      "CK": 7420,
      "Dub": 7421,
      "alance": 7422,
      "\">,": 7423,
      "ĠSession": 7424,
      "ĠTransition": 7425,
      "Ġflush": 7426,
      "Ġnonce": 7427,
      "enums": 7428,
      "imported": 7429,
      "crypto": 7430,
      "supported": 7431,
      "Respond": 7432,
      "ĠStylesApiProps": 7433,
      "Func": 7434,
      "cli": 7435,
      "éĢ": 7436,
      "arter": 7437,
      "Ġpkg": 7438,
      "heets": 7439,
      "getInputProps": 7440,
      "ansport": 7441,
      "LeftIcon": 7442,
      "Ġreferral": 7443,
      "ĠNextApiResponse": 7444,
      "ilities": 7445,
      "pearance": 7446,
      "ĠAuthedPosts": 7447,
      "holiday": 7448,
      "arison": 7449,
      "dig": 7450,
      "Ġbilling": 7451,
      "Conferencing": 7452,
      "ĠzIndex": 7453,
      "SelectGroup": 7454,
      "website": 7455,
      "Transfer": 7456,
      "ĠDialogPrimitive": 7457,
      "igrate": 7458,
      "Ġbo": 7459,
      "ĠFloating": 7460,
      "Ġdetect": 7461,
      "('./": 7462,
      "ĠSelectPrimitive": 7463,
      "ĠDropdownMenuContent": 7464,
      "legacy": 7465,
      "Ġcalculate": 7466,
      "'ll": 7467,
      "CODE": 7468,
      "cookie": 7469,
      "ĠView": 7470,
      "asure": 7471,
      "Ġpur": 7472,
      "expect": 7473,
      "ĠResult": 7474,
      "circle": 7475,
      "OnClick": 7476,
      "mantic": 7477,
      "modals": 7478,
      "Mount": 7479,
      "Ġlayer": 7480,
      "OnHover": 7481,
      "Ban": 7482,
      "EVENT": 7483,
      "Hero": 7484,
      "SO": 7485,
      "job": 7486,
      "verified": 7487,
      "Primary": 7488,
      "voke": 7489,
      "ĠparseInt": 7490,
      "mberships": 7491,
      "Referral": 7492,
      "categories": 7493,
      "lat": 7494,
      "rules": 7495,
      "report": 7496,
      "arte": 7497,
      "union": 7498,
      "Ġnav": 7499,
      "ĠuseRender": 7500,
      "Seat": 7501,
      "Ġexit": 7502,
      "RequestError": 7503,
      "completed": 7504,
      "ĠsortBy": 7505,
      "ĠlogAndRespond": 7506,
      "Pdf": 7507,
      "Upper": 7508,
      "olet": 7509,
      "ubble": 7510,
      "Ġdisp": 7511,
      "TimeField": 7512,
      "EmailDomain": 7513,
      "ĠNextRequest": 7514,
      "AndS": 7515,
      "LOAD": 7516,
      "ĠChartConfig": 7517,
      "Ġalias": 7518,
      "WORD": 7519,
      "Assignment": 7520,
      "uzzy": 7521,
      "TwoFactor": 7522,
      "Ġpoint": 7523,
      "Exec": 7524,
      "Ġalert": 7525,
      "Layouts": 7526,
      "ĠGrid": 7527,
      "Ġoverlay": 7528,
      "counter": 7529,
      "suffix": 7530,
      "Ġutils": 7531,
      "Ġ}>;": 7532,
      "sian": 7533,
      "Ġsw": 7534,
      "ĠCircle": 7535,
      "ches": 7536,
      "Ġsepar": 7537,
      "TriggerEvents": 7538,
      "Configure": 7539,
      "ModalProps": 7540,
      "worker": 7541,
      "BaseUrl": 7542,
      "ĠcustomClassNames": 7543,
      "ĠzodResolver": 7544,
      "Ġdone": 7545,
      "ROLE": 7546,
      "OUT": 7547,
      "Past": 7548,
      "ease": 7549,
      "ĠStyle": 7550,
      "endTime": 7551,
      "ĠAwaited": 7552,
      "(\"[": 7553,
      "namespace": 7554,
      "Contents": 7555,
      "ĠFieldLabel": 7556,
      "Ġpersist": 7557,
      "laxed": 7558,
      "ĠDropdownMenuTrigger": 7559,
      "LocationType": 7560,
      "ValidationRule": 7561,
      "Ġsupports": 7562,
      "lished": 7563,
      "Join": 7564,
      "Point": 7565,
      "home": 7566,
      "popup": 7567,
      "Ġxl": 7568,
      "ĠParams": 7569,
      "Ġdesc": 7570,
      "Tools": 7571,
      "Ġcompati": 7572,
      "ĠLorem": 7573,
      "CircleIcon": 7574,
      "flags": 7575,
      "Mixin": 7576,
      "MARK": 7577,
      "Copied": 7578,
      "setPage": 7579,
      "Ġearnings": 7580,
      "tract": 7581,
      "ĠsetError": 7582,
      "ĠHMR": 7583,
      "Orange": 7584,
      "groupId": 7585,
      "Documents": 7586,
      "GridBody": 7587,
      "support": 7588,
      "termines": 7589,
      "ĠReadonlyArray": 7590,
      "HTTP": 7591,
      "ga": 7592,
      "Ġ].": 7593,
      "abilities": 7594,
      "ilation": 7595,
      "ĠFolder": 7596,
      "address": 7597,
      "ĠUN": 7598,
      "fileName": 7599,
      "MemberRole": 7600,
      "Ġtimes": 7601,
      "*:": 7602,
      "developer": 7603,
      "Ġpick": 7604,
      "Ġmatched": 7605,
      "Ġaxis": 7606,
      "ĠuseDe": 7607,
      "lying": 7608,
      "ryRun": 7609,
      "apiKey": 7610,
      "intent": 7611,
      "Compiler": 7612,
      "InputGroupInput": 7613,
      "Ġtransformer": 7614,
      "AND": 7615,
      "quals": 7616,
      "Ġdevtools": 7617,
      "Generic": 7618,
      "recipes": 7619,
      "88": 7620,
      "Desktop": 7621,
      "hydrated": 7622,
      "relaxed": 7623,
      "Ġsuffix": 7624,
      "ooo": 7625,
      "ĠCalled": 7626,
      "ĠReward": 7627,
      "Ġgray": 7628,
      "icro": 7629,
      "Ġloop": 7630,
      "ribution": 7631,
      "missing": 7632,
      ")/[": 7633,
      "Exists": 7634,
      "trieve": 7635,
      "Ġ}[];": 7636,
      "Identity": 7637,
      "Deleted": 7638,
      "Trash": 7639,
      "timezone": 7640,
      "ROM": 7641,
      "loyment": 7642,
      "Ġboundary": 7643,
      "RateLimit": 7644,
      "stroy": 7645,
      "Category": 7646,
      "blob": 7647,
      "ove": 7648,
      "×©": 7649,
      "ĠSelected": 7650,
      "=\"-": 7651,
      "connected": 7652,
      "definition": 7653,
      "Ġspacing": 7654,
      "Ġassert": 7655,
      "%)\",": 7656,
      "Dist": 7657,
      "Ġretry": 7658,
      "opify": 7659,
      "ĠRun": 7660,
      "AreaChart": 7661,
      "ĠAccessor": 7662,
      "Used": 7663,
      "fd": 7664,
      "acer": 7665,
      "Ġresize": 7666,
      "omit": 7667,
      "Ġgrow": 7668,
      "Ġprotected": 7669,
      "HeaderGroups": 7670,
      "ENABLED": 7671,
      "ĠWatchlist": 7672,
      "ORY": 7673,
      "transaction": 7674,
      "segments": 7675,
      "Ġimages": 7676,
      "parsedInput": 7677,
      "caption": 7678,
      "Ø³": 7679,
      "exports": 7680,
      "Ġinv": 7681,
      "members": 7682,
      "Ġlazy": 7683,
      "Ġlatest": 7684,
      "Opt": 7685,
      "PageParam": 7686,
      "Endpoint": 7687,
      "ĠtabIndex": 7688,
      "Ġallows": 7689,
      "crypted": 7690,
      "activate": 7691,
      "Ġsaniti": 7692,
      "chip": 7693,
      "ItemText": 7694,
      "ĠSI": 7695,
      "ĠHydration": 7696,
      "StoreProps": 7697,
      "ĠPostsIndexRoute": 7698,
      "ĠAssign": 7699,
      "ALEND": 7700,
      "URIComponent": 7701,
      "ĠDescription": 7702,
      "hanced": 7703,
      "history": 7704,
      "sent": 7705,
      "åĪ": 7706,
      "\">;": 7707,
      "ĠuseCurrent": 7708,
      "ublished": 7709,
      "ActionAuth": 7710,
      "Percentage": 7711,
      "Ġscrollbar": 7712,
      "Guests": 7713,
      "authed": 7714,
      "tim": 7715,
      "ĠAI": 7716,
      "('/_": 7717,
      "Disable": 7718,
      "EnvelopeItem": 7719,
      "candidate": 7720,
      "Operand": 7721,
      "Relo": 7722,
      "Existing": 7723,
      "\\`,": 7724,
      "gmented": 7725,
      "utc": 7726,
      "getRowModel": 7727,
      "ĠusePartner": 7728,
      "ceive": 7729,
      "Second": 7730,
      "ĠSystem": 7731,
      "Deleting": 7732,
      "ĠappId": 7733,
      "Ġmeans": 7734,
      "Socket": 7735,
      "ART": 7736,
      "Flex": 7737,
      "PR": 7738,
      "every": 7739,
      "uched": 7740,
      "erce": 7741,
      "={[\"": 7742,
      "Ġhosts": 7743,
      "Ġtrace": 7744,
      "Ġanother": 7745,
      "ĠUsage": 7746,
      "ĠfileRoutesBy": 7747,
      "Ġpermissions": 7748,
      "riteria": 7749,
      "SENT": 7750,
      "Ġdefined": 7751,
      "insert": 7752,
      "roc": 7753,
      "Ġcapture": 7754,
      "acted": 7755,
      "ĠAST": 7756,
      "Ġ32": 7757,
      "(['": 7758,
      "Ġnotification": 7759,
      "Ġpermission": 7760,
      "ĠcalEvent": 7761,
      "Ġaggreg": 7762,
      "Abort": 7763,
      "Presence": 7764,
      "booker": 7765,
      "free": 7766,
      "large": 7767,
      "pad": 7768,
      "loat": 7769,
      "ĠSup": 7770,
      "serialize": 7771,
      "ĠsetSearch": 7772,
      "ĠborderColor": 7773,
      "ffective": 7774,
      "tiptap": 7775,
      "opener": 7776,
      "minal": 7777,
      "DropdownMenuSeparator": 7778,
      "ĠFileRoutesById": 7779,
      "Behavior": 7780,
      "ĠRootRouteChildren": 7781,
      "When": 7782,
      "ĠFileRoutesByTo": 7783,
      "ĠFileRoutesByFullPath": 7784,
      "ĠNestedABCDEFGH": 7785,
      ">âĮĺ": 7786,
      "Policy": 7787,
      "nip": 7788,
      "uro": 7789,
      "delay": 7790,
      "accept": 7791,
      "anda": 7792,
      "andbox": 7793,
      "Ġ13": 7794,
      "ĠImport": 7795,
      "Common": 7796,
      "LayoutEffect": 7797,
      "ĠnextConfig": 7798,
      "Ġmethods": 7799,
      "æľ": 7800,
      "onical": 7801,
      "Ġtwo": 7802,
      "aybe": 7803,
      ")}`,": 7804,
      "Ġ22": 7805,
      "ĠbookingId": 7806,
      "Ġbytes": 7807,
      "ĠTextarea": 7808,
      "ĠContextMenuPrimitive": 7809,
      "Chunks": 7810,
      "=\"#\">": 7811,
      "nippe": 7812,
      "GAN": 7813,
      "Guide": 7814,
      "RSC": 7815,
      "baz": 7816,
      "Ġrecur": 7817,
      "Inside": 7818,
      "ĠuseMediaQuery": 7819,
      "ĠgetValue": 7820,
      "Ġseconds": 7821,
      "preload": 7822,
      "Animate": 7823,
      "clientId": 7824,
      "OfOffice": 7825,
      "ĠleftSection": 7826,
      "Ġotherwise": 7827,
      "(/\\": 7828,
      "Ġdownload": 7829,
      "Support": 7830,
      "ĠâĨĴ": 7831,
      "indi": 7832,
      "Rejection": 7833,
      "Stale": 7834,
      "violet": 7835,
      "ico": 7836,
      "Settled": 7837,
      "Ġvisibility": 7838,
      "scribed": 7839,
      "ĠDropdownMenuItem": 7840,
      "SCRI": 7841,
      "LocalNames": 7842,
      "argets": 7843,
      "ĠMouse": 7844,
      "(?:": 7845,
      "Hours": 7846,
      "written": 7847,
      "ä»": 7848,
      "simple": 7849,
      "Ġinstalled": 7850,
      "ĠFooter": 7851,
      "ĠPassword": 7852,
      "Signed": 7853,
      "AuditActionService": 7854,
      "Ġabove": 7855,
      "crypt": 7856,
      "Capture": 7857,
      "pare": 7858,
      "tiary": 7859,
      "ĠonBlur": 7860,
      "(\"\\": 7861,
      "FieldContent": 7862,
      "rollment": 7863,
      "ĠWrapper": 7864,
      "ĠtableFeatures": 7865,
      "ĠErrorComponentProps": 7866,
      "ĠfullWidth": 7867,
      "ĠexpiresAt": 7868,
      "46": 7869,
      "?${": 7870,
      "olt": 7871,
      "oose": 7872,
      "ĠAnal": 7873,
      "WithRef": 7874,
      "metric": 7875,
      "Ġresolver": 7876,
      "ĠDropdownMenuPrimitive": 7877,
      "SourceMap": 7878,
      "Ġhostname": 7879,
      "/.": 7880,
      "Network": 7881,
      "ĠY": 7882,
      "olation": 7883,
      "cep": 7884,
      "Ġdeep": 7885,
      "share": 7886,
      "Ġparallel": 7887,
      "ĠKbd": 7888,
      "ĠAnaly": 7889,
      "`}>": 7890,
      "inc": 7891,
      "Ġregex": 7892,
      "iter": 7893,
      "itHub": 7894,
      "rypto": 7895,
      "Surveys": 7896,
      "Notifications": 7897,
      "AvatarImage": 7898,
      "AccessAuth": 7899,
      "Records": 7900,
      "Term": 7901,
      "plyTo": 7902,
      "Same": 7903,
      "ÙĤ": 7904,
      "Installed": 7905,
      "mbla": 7906,
      "ĠDetermines": 7907,
      "signed": 7908,
      "Upgrade": 7909,
      "InputGroupButton": 7910,
      "WeekView": 7911,
      "ĠAbort": 7912,
      "Collapse": 7913,
      "Var": 7914,
      "ØŃ": 7915,
      "Ġfail": 7916,
      "Ġwere": 7917,
      "ĠSuspense": 7918,
      "openapi": 7919,
      "ĠScheduleEventData": 7920,
      "flatMap": 7921,
      "cmdk": 7922,
      "Ġrelease": 7923,
      "Ġinvariant": 7924,
      "ĠDropdown": 7925,
      "Ġunmount": 7926,
      "Ġextension": 7927,
      "gistries": 7928,
      "ĠWhether": 7929,
      "Translate": 7930,
      "note": 7931,
      "ĠDialogTitle": 7932,
      "haust": 7933,
      "ensity": 7934,
      "ĠpostsPosts": 7935,
      "PrismaClient": 7936,
      "ĠOption": 7937,
      "development": 7938,
      "unit": 7939,
      "Recall": 7940,
      "ĠTitle": 7941,
      "define": 7942,
      "PopoverContent": 7943,
      "plugins": 7944,
      "ĠNote": 7945,
      "PART": 7946,
      "ĠAppErrorCode": 7947,
      "ĠRecipientRole": 7948,
      "Hot": 7949,
      "Ġ{{": 7950,
      "aspect": 7951,
      "Ġ')": 7952,
      "Ġtyped": 7953,
      "Ġsubmitted": 7954,
      "Functions": 7955,
      "Ġclicks": 7956,
      "Ġservice": 7957,
      "59": 7958,
      "ef": 7959,
      "visit": 7960,
      "ĠSection": 7961,
      "Reminder": 7962,
      "atio": 7963,
      "extension": 7964,
      "CodeHighlight": 7965,
      "}:${": 7966,
      "ĠCommission": 7967,
      "Ġrunning": 7968,
      "Jsx": 7969,
      "urope": 7970,
      "bad": 7971,
      "cookies": 7972,
      "×Ĳ": 7973,
      "anoid": 7974,
      "Ġ));": 7975,
      "Debug": 7976,
      "Detection": 7977,
      "lyra": 7978,
      "Accept": 7979,
      "ĠZUpdate": 7980,
      "REG": 7981,
      "TEM": 7982,
      "Ġmembership": 7983,
      "headline": 7984,
      "ĠregistryDependencies": 7985,
      "Welcome": 7986,
      "fri": 7987,
      "hydration": 7988,
      "ield": 7989,
      "uses": 7990,
      "isActive": 7991,
      "Ġ'/(": 7992,
      "Ġextra": 7993,
      "REC": 7994,
      "ĠgroupBy": 7995,
      "Note": 7996,
      "ĠreadOnly": 7997,
      "ĠDialogHeader": 7998,
      "Transformed": 7999
    },
    "merges": [
      [
        "Ġ",
        "Ġ"
      ],
      [
        "ĠĠ",
        "ĠĠ"
      ],
      [
        "o",
        "n"
      ],
      [
        "ĠĠĠĠ",
        "ĠĠĠĠ"
      ],
      [
        "ĠĠ",
        "Ġ"
      ],
      [
        "e",
        "r"
      ],
      [
        "o",
        "r"
      ],
      [
        "e",
        "n"
      ],
      [
        "i",
        "n"
      ],
      [
        "a",
        "t"
      ],
      [
        "r",
        "o"
      ],
      [
        "s",
        "t"
      ],
      [
        "l",
        "e"
      ],
      [
        "r",
        "e"
      ],
      [
        "Ġ",
        "{"
      ],
      [
        "Ġ",
        "c"
      ],
      [
        "ĠĠĠĠ",
        "Ġ"
      ],
      [
        "Ġ",
        "}"
      ],
      [
        "a",
        "r"
      ],
      [
        "a",
        "l"
      ],
      [
        "Ġ",
        "="
      ],
      [
        "s",
        "e"
      ],
      [
        "t",
        "e"
      ],
      [
        "en",
        "t"
      ],
      [
        "Ġ",
        "<"
      ],
      [
        "Ġ",
        "f"
      ],
      [
        "a",
        "n"
      ],
      [
        "t",
        "i"
      ],
      [
        "ĠĠĠĠ",
        "ĠĠĠ"
      ],
      [
        "d",
        "e"
      ],
      [
        "Ġ",
        "t"
      ],
      [
        "a",
        "c"
      ],
      [
        "a",
        "m"
      ],
      [
        "or",
        "t"
      ],
      [
        "Ġ",
        "\""
      ],
      [
        "u",
        "t"
      ],
      [
        "m",
        "p"
      ],
      [
        "in",
        "g"
      ],
      [
        "-",
        "-"
      ],
      [
        "a",
        "s"
      ],
      [
        "ĠĠĠĠĠĠĠĠ",
        "Ġ"
      ],
      [
        "g",
        "e"
      ],
      [
        "u",
        "r"
      ],
      [
        "Ġ",
        "("
      ],
      [
        "Ġ",
        "p"
      ],
      [
        "Ġ",
        "'"
      ],
      [
        "d",
        "i"
      ],
      [
        "ti",
        "on"
      ],
      [
        "Ġ",
        "re"
      ],
      [
        "Ġ",
        "i"
      ],
      [
        "at",
        "e"
      ],
      [
        "h",
        "e"
      ],
      [
        "Ġc",
        "on"
      ],
      [
        "u",
        "n"
      ],
      [
        "e",
        "x"
      ],
      [
        "am",
        "e"
      ],
      [
        "p",
        "e"
      ],
      [
        "ro",
        "m"
      ],
      [
        "u",
        "e"
      ],
      [
        "o",
        "l"
      ],
      [
        "/",
        "/"
      ],
      [
        "=",
        "\""
      ],
      [
        "a",
        "b"
      ],
      [
        "i",
        "t"
      ],
      [
        ")",
        ";"
      ],
      [
        "r",
        "i"
      ],
      [
        "mp",
        "ort"
      ],
      [
        "Ġf",
        "rom"
      ],
      [
        "e",
        "l"
      ],
      [
        "Ġcon",
        "st"
      ],
      [
        "a",
        "d"
      ],
      [
        "ĠĠĠĠĠĠĠĠ",
        "ĠĠĠ"
      ],
      [
        "R",
        "e"
      ],
      [
        "y",
        "pe"
      ],
      [
        "Ġ",
        "n"
      ],
      [
        "i",
        "mport"
      ],
      [
        "u",
        "l"
      ],
      [
        "i",
        "d"
      ],
      [
        "s",
        "i"
      ],
      [
        "l",
        "o"
      ],
      [
        "a",
        "p"
      ],
      [
        "i",
        "l"
      ],
      [
        "ro",
        "p"
      ],
      [
        "=",
        "{"
      ],
      [
        "Ġ<",
        "/"
      ],
      [
        "l",
        "i"
      ],
      [
        "Ġ",
        "b"
      ],
      [
        "N",
        "ame"
      ],
      [
        ".",
        "."
      ],
      [
        "\"",
        ","
      ],
      [
        "as",
        "s"
      ],
      [
        "t",
        "ur"
      ],
      [
        "at",
        "a"
      ],
      [
        "tur",
        "n"
      ],
      [
        "c",
        "on"
      ],
      [
        "at",
        "i"
      ],
      [
        "Ġ",
        "s"
      ],
      [
        "m",
        "a"
      ],
      [
        "u",
        "m"
      ],
      [
        "Ġre",
        "turn"
      ],
      [
        "Ġ=",
        ">"
      ],
      [
        "Ġ",
        "st"
      ],
      [
        "l",
        "ass"
      ],
      [
        "e",
        "s"
      ],
      [
        "al",
        "ue"
      ],
      [
        "--",
        "--"
      ],
      [
        "e",
        "d"
      ],
      [
        "s",
        "p"
      ],
      [
        "c",
        "t"
      ],
      [
        "(",
        ")"
      ],
      [
        "u",
        "s"
      ],
      [
        "ĠĠĠĠĠĠĠĠ",
        "ĠĠĠĠĠ"
      ],
      [
        "Ġc",
        "lass"
      ],
      [
        "c",
        "h"
      ],
      [
        "r",
        "ing"
      ],
      [
        "a",
        "y"
      ],
      [
        "ati",
        "on"
      ],
      [
        "x",
        "t"
      ],
      [
        "R",
        "o"
      ],
      [
        "S",
        "t"
      ],
      [
        "Ġ",
        "w"
      ],
      [
        "I",
        "n"
      ],
      [
        "Ġ}",
        ","
      ],
      [
        "ab",
        "le"
      ],
      [
        "I",
        "d"
      ],
      [
        "o",
        "m"
      ],
      [
        "u",
        "se"
      ],
      [
        "t",
        "er"
      ],
      [
        "u",
        "te"
      ],
      [
        "Ġ",
        "v"
      ],
      [
        "rop",
        "s"
      ],
      [
        "te",
        "xt"
      ],
      [
        "p",
        "ort"
      ],
      [
        "i",
        "s"
      ],
      [
        "Ġclass",
        "Name"
      ],
      [
        "a",
        "ge"
      ],
      [
        "u",
        "p"
      ],
      [
        "Ġ",
        "d"
      ],
      [
        "v",
        "e"
      ],
      [
        "c",
        "tion"
      ],
      [
        "t",
        "s"
      ],
      [
        "Ġ",
        "*"
      ],
      [
        "=",
        "="
      ],
      [
        "en",
        "d"
      ],
      [
        "Ġ",
        "/"
      ],
      [
        "C",
        "on"
      ],
      [
        "Ġ",
        "m"
      ],
      [
        "o",
        "p"
      ],
      [
        "Ġ",
        "T"
      ],
      [
        "v",
        "er"
      ],
      [
        "f",
        "i"
      ],
      [
        "ex",
        "port"
      ],
      [
        "Ġ",
        "a"
      ],
      [
        "ge",
        "t"
      ],
      [
        "o",
        "t"
      ],
      [
        "di",
        "v"
      ],
      [
        "ac",
        "t"
      ],
      [
        "te",
        "m"
      ],
      [
        "c",
        "k"
      ],
      [
        "o",
        "o"
      ],
      [
        "e",
        "t"
      ],
      [
        "\"",
        ";"
      ],
      [
        "Ġi",
        "f"
      ],
      [
        "'",
        ","
      ],
      [
        "ac",
        "k"
      ],
      [
        "Ġ",
        "in"
      ],
      [
        "o",
        "mp"
      ],
      [
        "or",
        "m"
      ],
      [
        "Ġt",
        "ype"
      ],
      [
        "\"",
        ">"
      ],
      [
        "se",
        "t"
      ],
      [
        "o",
        "de"
      ],
      [
        "o",
        "d"
      ],
      [
        "o",
        "w"
      ],
      [
        "Ġ/",
        ">"
      ],
      [
        "ex",
        "t"
      ],
      [
        "Ġ",
        "|"
      ],
      [
        "r",
        "or"
      ],
      [
        "ĠĠĠĠĠĠĠĠ",
        "ĠĠĠĠĠĠĠ"
      ],
      [
        "m",
        "ent"
      ],
      [
        "ar",
        "t"
      ],
      [
        "(",
        "{"
      ],
      [
        "o",
        "c"
      ],
      [
        "Ġ",
        "h"
      ],
      [
        "Ġ",
        ")"
      ],
      [
        "Ġ",
        "["
      ],
      [
        "Ġ",
        "F"
      ],
      [
        "d",
        "er"
      ],
      [
        "ac",
        "e"
      ],
      [
        "Ġ",
        "use"
      ],
      [
        "p",
        "ut"
      ],
      [
        "t",
        "on"
      ],
      [
        "c",
        "e"
      ],
      [
        "de",
        "f"
      ],
      [
        "0",
        "0"
      ],
      [
        "Ġt",
        "he"
      ],
      [
        "S",
        "e"
      ],
      [
        "v",
        "ent"
      ],
      [
        "ul",
        "l"
      ],
      [
        "t",
        "h"
      ],
      [
        "ul",
        "t"
      ],
      [
        "ut",
        "ton"
      ],
      [
        "Ġst",
        "ring"
      ],
      [
        "e",
        "w"
      ],
      [
        "in",
        "e"
      ],
      [
        "Ġ",
        "P"
      ],
      [
        "an",
        "d"
      ],
      [
        "m",
        "o"
      ],
      [
        "un",
        "ction"
      ],
      [
        "i",
        "g"
      ],
      [
        "o",
        "f"
      ],
      [
        "p",
        "tion"
      ],
      [
        "u",
        "b"
      ],
      [
        "e",
        "y"
      ],
      [
        "le",
        "s"
      ],
      [
        "Ġt",
        "r"
      ],
      [
        "P",
        "rops"
      ],
      [
        "Ro",
        "ute"
      ],
      [
        "Ġ",
        "C"
      ],
      [
        "ap",
        "p"
      ],
      [
        "on",
        "ent"
      ],
      [
        "omp",
        "onent"
      ],
      [
        "ro",
        "up"
      ],
      [
        "b",
        "o"
      ],
      [
        "Ġ",
        "//"
      ],
      [
        "----",
        "----"
      ],
      [
        "Ġ\"",
        "@"
      ],
      [
        "Ġ",
        "as"
      ],
      [
        "Ġ",
        "D"
      ],
      [
        "m",
        "e"
      ],
      [
        "Ġt",
        "o"
      ],
      [
        "el",
        "d"
      ],
      [
        "h",
        "t"
      ],
      [
        "or",
        "e"
      ],
      [
        "Ġ",
        "0"
      ],
      [
        "Ġ}",
        ")"
      ],
      [
        "Ġ",
        "e"
      ],
      [
        "s",
        "c"
      ],
      [
        "Ġi",
        "s"
      ],
      [
        "Ġ",
        "A"
      ],
      [
        "Ġ",
        "Re"
      ],
      [
        "o",
        "ut"
      ],
      [
        "..",
        "."
      ],
      [
        "F",
        "i"
      ],
      [
        "ol",
        "or"
      ],
      [
        "L",
        "E"
      ],
      [
        "at",
        "h"
      ],
      [
        "ab",
        "el"
      ],
      [
        "z",
        "e"
      ],
      [
        "v",
        "i"
      ],
      [
        "Ġ",
        "l"
      ],
      [
        "in",
        "k"
      ],
      [
        "an",
        "t"
      ],
      [
        "Ġ",
        "?"
      ],
      [
        "ĠĠĠĠĠĠĠĠ",
        "ĠĠĠĠĠĠĠĠĠ"
      ],
      [
        "Ġ",
        "on"
      ],
      [
        "re",
        "s"
      ],
      [
        "Ġd",
        "ata"
      ],
      [
        "er",
        "s"
      ],
      [
        "Ġt",
        "h"
      ],
      [
        "oo",
        "k"
      ],
      [
        "ar",
        "i"
      ],
      [
        "re",
        "ate"
      ],
      [
        "r",
        "a"
      ],
      [
        "it",
        "h"
      ],
      [
        "te",
        "d"
      ],
      [
        "es",
        "s"
      ],
      [
        "a",
        "se"
      ],
      [
        "<",
        "/"
      ],
      [
        "t",
        "ype"
      ],
      [
        "o",
        "un"
      ],
      [
        "Ġ",
        "&"
      ],
      [
        "Con",
        "t"
      ],
      [
        "Ġ",
        "ro"
      ],
      [
        "Ġ",
        "1"
      ],
      [
        "ar",
        "d"
      ],
      [
        "V",
        "alue"
      ],
      [
        "o",
        "g"
      ],
      [
        "a",
        "ult"
      ],
      [
        "I",
        "tem"
      ],
      [
        "Ġ",
        "S"
      ],
      [
        "$",
        "{"
      ],
      [
        "le",
        "x"
      ],
      [
        "Ġ",
        "g"
      ],
      [
        "Ġ",
        "`"
      ],
      [
        "Ġ=",
        "=="
      ],
      [
        "w",
        "a"
      ],
      [
        "u",
        "i"
      ],
      [
        "Ġv",
        "alue"
      ],
      [
        "le",
        "ct"
      ],
      [
        "I",
        "LE"
      ],
      [
        "um",
        "b"
      ],
      [
        "i",
        "st"
      ],
      [
        "ow",
        "n"
      ],
      [
        "ĠF",
        "ILE"
      ],
      [
        "Ġ",
        "get"
      ],
      [
        "C",
        "h"
      ],
      [
        "'",
        ";"
      ],
      [
        "s",
        "er"
      ],
      [
        "?",
        ":"
      ],
      [
        "c",
        "he"
      ],
      [
        "t",
        "r"
      ],
      [
        "or",
        "der"
      ],
      [
        "ro",
        "l"
      ],
      [
        "en",
        "u"
      ],
      [
        "Ġ",
        "set"
      ],
      [
        "le",
        "ment"
      ],
      [
        "D",
        "e"
      ],
      [
        "Ġ",
        "text"
      ],
      [
        "D",
        "ata"
      ],
      [
        "f",
        "orm"
      ],
      [
        "or",
        "k"
      ],
      [
        "e",
        "ct"
      ],
      [
        "(",
        "\""
      ],
      [
        "T",
        "ype"
      ],
      [
        "er",
        "ror"
      ],
      [
        "o",
        "ver"
      ],
      [
        "Ġ",
        ":"
      ],
      [
        "al",
        "l"
      ],
      [
        "ti",
        "ve"
      ],
      [
        "r",
        "ror"
      ],
      [
        "E",
        "rror"
      ],
      [
        "B",
        "utton"
      ],
      [
        "def",
        "ault"
      ],
      [
        "In",
        "put"
      ],
      [
        "ad",
        "er"
      ],
      [
        "re",
        "act"
      ],
      [
        "Ġ",
        "un"
      ],
      [
        "u",
        "er"
      ],
      [
        ")",
        ","
      ],
      [
        "G",
        "roup"
      ],
      [
        "Ġ",
        "de"
      ],
      [
        "o",
        "st"
      ],
      [
        "umb",
        "er"
      ],
      [
        "si",
        "ze"
      ],
      [
        "T",
        "o"
      ],
      [
        "wa",
        "it"
      ],
      [
        "li",
        "ent"
      ],
      [
        "us",
        "er"
      ],
      [
        "r",
        "c"
      ],
      [
        "ma",
        "il"
      ],
      [
        "//",
        "//"
      ],
      [
        "ro",
        "w"
      ],
      [
        "Ġ&",
        "&"
      ],
      [
        "Ġn",
        "ull"
      ],
      [
        "uer",
        "y"
      ],
      [
        "Ġ",
        "M"
      ],
      [
        "con",
        "st"
      ],
      [
        "k",
        "ey"
      ],
      [
        "il",
        "d"
      ],
      [
        "Ġtr",
        "ue"
      ],
      [
        "ĠĠĠĠĠĠĠĠ",
        "ĠĠĠĠĠĠĠĠĠĠĠ"
      ],
      [
        "Ġ",
        "se"
      ],
      [
        "de",
        "x"
      ],
      [
        "d",
        "ate"
      ],
      [
        ".",
        "/"
      ],
      [
        "ol",
        "um"
      ],
      [
        "Ġi",
        "d"
      ],
      [
        "Ġa",
        "wait"
      ],
      [
        "i",
        "al"
      ],
      [
        "ri",
        "g"
      ],
      [
        "a",
        "g"
      ],
      [
        "olum",
        "n"
      ],
      [
        "Ġ",
        ">"
      ],
      [
        "p",
        "x"
      ],
      [
        "l",
        "u"
      ],
      [
        "si",
        "on"
      ],
      [
        "Ġ}",
        ");"
      ],
      [
        "an",
        "ge"
      ],
      [
        "u",
        "st"
      ],
      [
        "d",
        "ata"
      ],
      [
        "l",
        "y"
      ],
      [
        "c",
        "om"
      ],
      [
        "y",
        "n"
      ],
      [
        "..",
        "/"
      ],
      [
        "p",
        "rops"
      ],
      [
        "m",
        "i"
      ],
      [
        "O",
        "ption"
      ],
      [
        "v",
        "alue"
      ],
      [
        ")",
        "}"
      ],
      [
        "?",
        "."
      ],
      [
        "ar",
        "am"
      ],
      [
        "il",
        "ter"
      ],
      [
        "Fi",
        "eld"
      ],
      [
        "on",
        "t"
      ],
      [
        "p",
        "i"
      ],
      [
        "n",
        "ame"
      ],
      [
        "Ġ",
        "di"
      ],
      [
        "(",
        "'"
      ],
      [
        "Ġc",
        "reate"
      ],
      [
        "Ġ",
        "le"
      ],
      [
        "M",
        "enu"
      ],
      [
        "Ġn",
        "ew"
      ],
      [
        "g",
        "r"
      ],
      [
        "Ġ'",
        "@"
      ],
      [
        "Ġf",
        "unction"
      ],
      [
        "n",
        "er"
      ],
      [
        "E",
        "n"
      ],
      [
        "an",
        "s"
      ],
      [
        "sp",
        "ace"
      ],
      [
        "c",
        "al"
      ],
      [
        "(",
        "("
      ],
      [
        "ent",
        "er"
      ],
      [
        "St",
        "ate"
      ],
      [
        "sp",
        "on"
      ],
      [
        "de",
        "d"
      ],
      [
        "Ġn",
        "ame"
      ],
      [
        "Ġf",
        "or"
      ],
      [
        "re",
        "d"
      ],
      [
        "ut",
        "er"
      ],
      [
        "j",
        "ect"
      ],
      [
        "am",
        "p"
      ],
      [
        "li",
        "b"
      ],
      [
        "E",
        "vent"
      ],
      [
        "Ġ",
        "..."
      ],
      [
        "t",
        "o"
      ],
      [
        "fi",
        "g"
      ],
      [
        "g",
        "er"
      ],
      [
        "Ġ",
        ");"
      ],
      [
        "f",
        "unction"
      ],
      [
        "Ġ\"@",
        "/"
      ],
      [
        "ts",
        "x"
      ],
      [
        "l",
        "ay"
      ],
      [
        "u",
        "le"
      ],
      [
        "at",
        "ch"
      ],
      [
        "bo",
        "x"
      ],
      [
        "Ġ",
        "."
      ],
      [
        "ri",
        "ption"
      ],
      [
        "spon",
        "se"
      ],
      [
        "oun",
        "t"
      ],
      [
        "ur",
        "r"
      ],
      [
        "c",
        "i"
      ],
      [
        "Ġ",
        "r"
      ],
      [
        "c",
        "ess"
      ],
      [
        "Ġ",
        "ex"
      ],
      [
        "I",
        "con"
      ],
      [
        "Ġf",
        "i"
      ],
      [
        "un",
        "d"
      ],
      [
        "--------",
        "--------"
      ],
      [
        "Ġ",
        "!"
      ],
      [
        "Ġ",
        "z"
      ],
      [
        "P",
        "ro"
      ],
      [
        "al",
        "id"
      ],
      [
        "l",
        "ine"
      ],
      [
        "o",
        "ur"
      ],
      [
        "L",
        "ink"
      ],
      [
        "yn",
        "c"
      ],
      [
        "H",
        "e"
      ],
      [
        "oc",
        "um"
      ],
      [
        "s",
        "rc"
      ],
      [
        "ut",
        "h"
      ],
      [
        "in",
        "ed"
      ],
      [
        "op",
        "tion"
      ],
      [
        "i",
        "z"
      ],
      [
        "in",
        "d"
      ],
      [
        "Cont",
        "ent"
      ],
      [
        "q",
        "ue"
      ],
      [
        "t",
        "le"
      ],
      [
        "Ġ",
        "@"
      ],
      [
        "Ġ*",
        "/"
      ],
      [
        "ĠRe",
        "act"
      ],
      [
        "able",
        "d"
      ],
      [
        "Ġp",
        "ro"
      ],
      [
        "al",
        "se"
      ],
      [
        "i",
        "f"
      ],
      [
        "a",
        "k"
      ],
      [
        "Con",
        "text"
      ],
      [
        "end",
        "er"
      ],
      [
        "j",
        "s"
      ],
      [
        "Ġ",
        "app"
      ],
      [
        "Se",
        "lect"
      ],
      [
        "]",
        ","
      ],
      [
        "i",
        "c"
      ],
      [
        "K",
        "ey"
      ],
      [
        "at",
        "or"
      ],
      [
        "le",
        "an"
      ],
      [
        "ork",
        "space"
      ],
      [
        "urr",
        "ent"
      ],
      [
        "Ġb",
        "order"
      ],
      [
        "aram",
        "s"
      ],
      [
        "'",
        ")"
      ],
      [
        "Ġ",
        "an"
      ],
      [
        "Ġ",
        "lo"
      ],
      [
        "omponent",
        "s"
      ],
      [
        "s",
        "ol"
      ],
      [
        "age",
        "s"
      ],
      [
        "e",
        "b"
      ],
      [
        "def",
        "ined"
      ],
      [
        "Ġi",
        "tem"
      ],
      [
        "E",
        "lement"
      ],
      [
        "Ġ|",
        "|"
      ],
      [
        "b",
        "utton"
      ],
      [
        "Ġ(",
        ")"
      ],
      [
        "ro",
        "und"
      ],
      [
        "ad",
        "d"
      ],
      [
        "Ġ",
        "default"
      ],
      [
        "c",
        "ted"
      ],
      [
        "p",
        "p"
      ],
      [
        "Ġth",
        "is"
      ],
      [
        "st",
        "ring"
      ],
      [
        "-",
        "["
      ],
      [
        "P",
        "ath"
      ],
      [
        "}",
        ">"
      ],
      [
        "b",
        "ar"
      ],
      [
        "on",
        "e"
      ],
      [
        "S",
        "che"
      ],
      [
        "u",
        "re"
      ],
      [
        "re",
        "f"
      ],
      [
        "ook",
        "ing"
      ],
      [
        "d",
        "own"
      ],
      [
        "y",
        "le"
      ],
      [
        "]",
        ":"
      ],
      [
        "Ġ(",
        "!"
      ],
      [
        "ti",
        "tle"
      ],
      [
        "ar",
        "ch"
      ],
      [
        "l",
        "er"
      ],
      [
        "g",
        "round"
      ],
      [
        "(",
        ");"
      ],
      [
        "Ġ",
        "U"
      ],
      [
        "c",
        "enter"
      ],
      [
        "ar",
        "y"
      ],
      [
        "Re",
        "f"
      ],
      [
        "oo",
        "lean"
      ],
      [
        "*",
        "*"
      ],
      [
        "it",
        "y"
      ],
      [
        "Ġf",
        "lex"
      ],
      [
        "ant",
        "ine"
      ],
      [
        "ĠĠĠĠĠĠĠĠ",
        "ĠĠĠĠĠĠĠĠĠĠĠĠĠ"
      ],
      [
        "p",
        "ro"
      ],
      [
        "Option",
        "s"
      ],
      [
        "at",
        "us"
      ],
      [
        "Ġ'",
        "/"
      ],
      [
        "con",
        "t"
      ],
      [
        "m",
        "it"
      ],
      [
        "ari",
        "ant"
      ],
      [
        "s",
        "m"
      ],
      [
        "Ġcon",
        "t"
      ],
      [
        "he",
        "ck"
      ],
      [
        "c",
        "olor"
      ],
      [
        "L",
        "abel"
      ],
      [
        "si",
        "tion"
      ],
      [
        "Ġ",
        "user"
      ],
      [
        "Ġun",
        "defined"
      ],
      [
        "ig",
        "ht"
      ],
      [
        "F",
        "orm"
      ],
      [
        "y",
        "les"
      ],
      [
        "Ġ",
        "of"
      ],
      [
        "l",
        "s"
      ],
      [
        "a",
        "v"
      ],
      [
        "rig",
        "ger"
      ],
      [
        "Ġ'",
        "./"
      ],
      [
        "}",
        ";"
      ],
      [
        ")",
        ")"
      ],
      [
        "Ġle",
        "t"
      ],
      [
        "==",
        "=="
      ],
      [
        "Ġ",
        "N"
      ],
      [
        "C",
        "omponent"
      ],
      [
        "Ġc",
        "h"
      ],
      [
        "l",
        "ace"
      ],
      [
        "Ġ",
        "or"
      ],
      [
        "que",
        "st"
      ],
      [
        "id",
        "er"
      ],
      [
        "art",
        "ner"
      ],
      [
        "lo",
        "t"
      ],
      [
        "f",
        "lex"
      ],
      [
        "Ġ",
        "B"
      ],
      [
        "ial",
        "og"
      ],
      [
        "b",
        "ack"
      ],
      [
        "Ġn",
        "umber"
      ],
      [
        "id",
        "th"
      ],
      [
        "r",
        "en"
      ],
      [
        "Ġ",
        "-"
      ],
      [
        "rop",
        "down"
      ],
      [
        "ocum",
        "ent"
      ],
      [
        "sp",
        "an"
      ],
      [
        "s",
        "h"
      ],
      [
        "s",
        "s"
      ],
      [
        "en",
        "g"
      ],
      [
        "c",
        "omponents"
      ],
      [
        "ay",
        "out"
      ],
      [
        "eng",
        "th"
      ],
      [
        "f",
        "f"
      ],
      [
        "Ġ",
        "2"
      ],
      [
        "Ġs",
        "h"
      ],
      [
        "Ġ",
        "ext"
      ],
      [
        "ild",
        "ren"
      ],
      [
        "Q",
        "uery"
      ],
      [
        "A",
        "t"
      ],
[...]
